<unk>	0
▁the	-2.97783
s	-3.32789
▁and	-3.57642
ed	-3.6582
▁of	-3.70261
▁to	-3.77131
▁a	-3.8915
▁in	-4.24741
▁i	-4.3595
▁he	-4.46364
▁that	-4.54686
ly	-4.54965
▁it	-4.58869
▁was	-4.59422
ing	-4.62325
'	-4.80645
▁his	-4.83731
▁with	-4.96861
▁you	-4.99272
y	-5.00891
▁on	-5.01407
▁for	-5.02245
▁her	-5.06936
▁had	-5.07594
▁be	-5.0816
▁as	-5.12279
e	-5.1743
t	-5.18421
▁is	-5.20301
▁but	-5.21857
▁not	-5.22547
▁she	-5.24756
d	-5.25975
▁at	-5.34005
▁him	-5.50082
▁my	-5.54751
▁have	-5.59127
▁by	-5.59469
▁all	-5.59914
▁they	-5.60712
▁this	-5.61371
▁which	-5.64265
▁so	-5.68391
▁said	-5.69995
▁from	-5.70248
▁me	-5.72276
n	-5.73569
▁one	-5.74979
▁were	-5.77992
▁we	-5.83496
▁there	-5.88959
▁no	-5.91186
▁when	-5.94673
▁or	-5.95238
▁who	-5.96958
▁an	-5.99776
▁are	-6.00932
er	-6.0109
▁their	-6.03277
▁would	-6.0473
▁if	-6.0563
▁them	-6.06511
▁what	-6.08498
▁will	-6.16479
▁out	-6.18221
▁been	-6.20074
▁up	-6.20701
▁do	-6.22602
▁man	-6.29982
▁then	-6.32344
▁more	-6.36736
▁your	-6.36878
▁could	-6.37047
▁into	-6.41252
▁now	-6.44298
▁some	-6.44983
▁very	-6.46306
▁like	-6.46559
▁other	-6.50131
▁little	-6.51366
▁time	-6.52312
▁know	-6.57273
▁can	-6.5852
▁how	-6.58582
▁about	-6.59349
▁did	-6.64182
▁than	-6.64277
▁	-6.6436
▁great	-6.64411
▁again	-6.65583
▁has	-6.65797
▁upon	-6.66125
st	-6.66518
▁any	-6.69664
▁well	-6.69761
m	-6.69872
r	-6.70188
▁over	-6.71152
▁see	-6.72146
▁two	-6.727
▁our	-6.73904
ce	-6.74352
▁good	-6.74637
es	-6.74652
▁look	-6.76451
▁down	-6.77474
▁before	-6.79577
self	-6.79591
▁made	-6.81979
▁go	-6.8233
▁long	-6.82903
▁after	-6.83773
▁day	-6.8384
▁should	-6.83967
▁old	-6.85449
▁never	-6.86602
▁come	-6.86907
▁must	-6.87518
▁such	-6.87959
▁came	-6.89269
▁us	-6.89377
▁take	-6.8979
▁where	-6.90182
▁much	-6.94977
▁these	-6.95384
▁mister	-6.95936
▁may	-6.9993
▁way	-7.00489
▁thought	-7.0277
▁first	-7.03508
▁back	-7.05025
▁say	-7.05395
▁went	-7.06759
in	-7.07301
▁men	-7.07334
ies	-7.07503
▁himself	-7.07905
▁here	-7.08577
▁own	-7.08914
ll	-7.09152
▁think	-7.09643
ness	-7.1025
▁am	-7.10266
▁might	-7.1072
▁give	-7.12423
▁seem	-7.12436
▁ask	-7.12548
▁just	-7.15172
▁through	-7.16524
▁place	-7.17072
▁even	-7.17128
▁make	-7.18324
▁away	-7.18694
▁too	-7.18829
▁life	-7.19615
▁its	-7.20925
▁hand	-7.21296
▁without	-7.21426
▁most	-7.22037
▁don	-7.2355
▁every	-7.24174
▁under	-7.25439
▁thos	-7.25915
al	-7.26353
▁shall	-7.26705
▁eyes	-7.2707
▁still	-7.27862
re	-7.28268
▁last	-7.29127
▁house	-7.30358
▁head	-7.30683
▁nothing	-7.3086
▁night	-7.31638
en	-7.32208
▁let	-7.33194
▁many	-7.3466
▁while	-7.35081
▁call	-7.35339
a	-7.35971
▁being	-7.36828
▁get	-7.36838
▁saw	-7.37354
▁face	-7.37529
▁people	-7.37539
ion	-7.37548
▁off	-7.37705
p	-7.37741
▁found	-7.37862
▁tell	-7.39774
▁three	-7.4055
▁room	-7.40963
▁love	-7.41617
▁yet	-7.41708
on	-7.4244
▁same	-7.42731
▁father	-7.43109
▁part	-7.44477
▁another	-7.44496
▁though	-7.44688
▁un	-7.45051
▁want	-7.45191
▁right	-7.45871
▁put	-7.46986
▁young	-7.47545
▁al	-7.47785
▁took	-7.47788
o	-7.48045
est	-7.48347
▁ever	-7.48633
le	-7.49112
▁new	-7.511
▁king	-7.51491
▁sir	-7.51975
▁missus	-7.52151
▁work	-7.52746
▁mind	-7.52781
▁left	-7.5391
ity	-7.54717
ard	-7.55328
▁near	-7.56511
▁mean	-7.5729
▁heart	-7.57442
c	-7.57649
▁moment	-7.58372
▁world	-7.58401
▁things	-7.58756
▁thing	-7.59216
▁why	-7.59428
▁mother	-7.59608
▁light	-7.60033
▁alway	-7.60136
▁o	-7.60292
ve	-7.60589
▁home	-7.60658
▁far	-7.60694
▁answer	-7.6086
able	-7.60942
▁soon	-7.61271
g	-7.61446
▁something	-7.62839
▁girl	-7.63422
cause	-7.64312
▁yes	-7.64713
▁told	-7.65118
▁hear	-7.65173
▁door	-7.65285
▁open	-7.65337
▁got	-7.66708
▁going	-7.66805
ever	-7.68306
▁woman	-7.68537
ation	-7.6884
less	-7.69053
▁water	-7.69428
b	-7.69696
▁find	-7.7106
▁knew	-7.71872
▁each	-7.71893
us	-7.7207
▁follow	-7.72098
▁oh	-7.72627
▁side	-7.73061
▁high	-7.7315
▁name	-7.73183
l	-7.73546
▁real	-7.75094
▁certain	-7.75345
▁quite	-7.76854
▁miss	-7.77919
ers	-7.78107
▁few	-7.7827
▁years	-7.78426
▁hard	-7.78624
▁better	-7.78781
▁present	-7.7884
▁half	-7.79258
▁done	-7.79573
▁return	-7.7981
▁god	-7.79976
▁end	-7.80492
se	-7.80801
▁pass	-7.81079
▁began	-7.81644
▁enough	-7.82334
also	-7.82669
▁having	-7.82911
▁seen	-7.84173
▁hour	-7.84955
k	-7.85475
▁white	-7.85565
▁course	-7.85627
▁whole	-7.85719
▁kind	-7.85885
▁voice	-7.85977
▁lady	-7.86555
an	-7.86687
▁close	-7.86982
▁gave	-7.87116
▁set	-7.87183
▁both	-7.87954
gether	-7.87999
▁poor	-7.88581
▁turned	-7.88591
▁dear	-7.88883
▁among	-7.8962
▁between	-7.89643
▁morning	-7.89742
▁order	-7.90049
▁sure	-7.90436
▁wish	-7.90593
▁matter	-7.90936
▁nor	-7.90983
▁speak	-7.91742
▁believe	-7.91776
▁friend	-7.91838
ic	-7.91908
▁toward	-7.92038
▁de	-7.92096
▁small	-7.92218
▁whom	-7.93083
▁felt	-7.93093
▁cri	-7.9325
▁full	-7.93725
▁hands	-7.93914
or	-7.94284
u	-7.9486
▁hundred	-7.9537
▁stood	-7.95381
▁round	-7.96494
▁keep	-7.96754
▁leave	-7.98403
▁large	-7.9847
▁boy	-7.98551
▁repli	-7.99079
▁perhaps	-8.00038
ment	-8.00198
▁words	-8.00228
▁sudden	-8.0106
▁wait	-8.01734
▁four	-8.01908
▁anything	-8.02119
▁sat	-8.02209
▁till	-8.02283
▁until	-8.02903
▁form	-8.0339
th	-8.03556
ry	-8.03597
▁help	-8.0441
▁does	-8.04716
▁next	-8.04987
▁black	-8.05283
▁power	-8.05391
▁rest	-8.05412
▁since	-8.05669
▁brought	-8.06169
▁word	-8.06332
▁lay	-8.06551
▁country	-8.06595
▁looking	-8.07135
▁indeed	-8.08027
▁almo	-8.08166
▁general	-8.08189
▁tree	-8.08452
▁sea	-8.08519
▁days	-8.0886
▁hope	-8.08986
▁live	-8.09437
▁t	-8.09676
▁rather	-8.09976
▁appear	-8.10261
is	-8.10565
▁air	-8.1063
▁feet	-8.11156
▁question	-8.11244
▁five	-8.11336
▁fall	-8.11442
▁walk	-8.11844
▁gone	-8.12371
▁reach	-8.12504
▁fire	-8.12918
▁death	-8.13357
▁wife	-8.13368
▁thu	-8.13801
▁best	-8.13898
▁fact	-8.14043
▁s	-8.14602
▁person	-8.1516
▁case	-8.15915
ther	-8.15954
▁canno	-8.16257
f	-8.16452
▁along	-8.17005
▁themselves	-8.17023
▁child	-8.17372
i	-8.17566
▁master	-8.17705
▁reason	-8.18397
▁lord	-8.18497
▁letter	-8.18617
▁play	-8.19382
▁less	-8.1991
▁true	-8.20022
▁thou	-8.20439
▁thousand	-8.20967
▁money	-8.21251
▁children	-8.21598
▁behind	-8.21659
▁nature	-8.21769
it	-8.21812
lone	-8.21991
▁doctor	-8.22023
▁sound	-8.22048
w	-8.22369
▁twenty	-8.22419
▁care	-8.22492
▁remain	-8.22672
▁show	-8.22928
▁enter	-8.23868
▁re	-8.24013
▁clear	-8.2428
▁state	-8.24389
▁dead	-8.25145
man	-8.2516
ten	-8.2573
▁strong	-8.25946
▁talk	-8.26856
▁need	-8.26951
▁window	-8.2711
▁ground	-8.27114
▁short	-8.27172
▁happen	-8.27287
▁remember	-8.27372
▁spoke	-8.27405
▁prince	-8.28107
ter	-8.28299
ch	-8.28301
▁land	-8.28755
▁fell	-8.28841
li	-8.29044
h	-8.29264
▁red	-8.29298
refore	-8.29651
ful	-8.29661
▁dur	-8.29801
ur	-8.29808
▁deep	-8.30015
▁d	-8.30224
ri	-8.30229
▁body	-8.30598
el	-8.30719
▁second	-8.30804
▁possibl	-8.31324
▁war	-8.31344
▁turn	-8.31422
▁sun	-8.31725
▁laugh	-8.31853
▁add	-8.31864
▁son	-8.32135
▁fear	-8.32215
ton	-8.32341
▁often	-8.32383
▁bring	-8.32598
ous	-8.32609
▁beside	-8.32988
▁table	-8.3311
ar	-8.3312
▁ten	-8.33238
▁earth	-8.33566
▁horse	-8.33577
▁point	-8.33809
▁bed	-8.34288
▁whe	-8.34362
▁sent	-8.35033
▁try	-8.35266
▁use	-8.35412
▁smile	-8.35475
▁dark	-8.36391
▁everything	-8.36679
▁coming	-8.36765
ready	-8.37242
▁feel	-8.37251
▁above	-8.37451
▁soul	-8.37601
▁least	-8.37858
▁evening	-8.37979
▁beautiful	-8.38081
▁read	-8.38345
▁around	-8.38752
▁quick	-8.3943
▁feeling	-8.39526
ng	-8.39539
▁street	-8.39617
▁los	-8.40066
▁six	-8.40086
ck	-8.40162
▁captain	-8.40527
▁rose	-8.40671
▁sort	-8.42012
▁women	-8.42334
▁brother	-8.4286
▁held	-8.42954
na	-8.43027
▁manner	-8.43913
▁else	-8.43957
▁fine	-8.44163
▁strange	-8.44487
▁fair	-8.44579
▁doubt	-8.44698
came	-8.44715
la	-8.4495
▁year	-8.45043
▁line	-8.45145
▁dress	-8.45155
▁either	-8.45167
▁sleep	-8.45449
▁sight	-8.45522
▁town	-8.45557
▁arm	-8.45949
▁e	-8.46604
▁hair	-8.46701
z	-8.46872
▁making	-8.47183
il	-8.47206
kept	-8.47229
▁ran	-8.4744
ive	-8.47835
▁friends	-8.47874
▁sometime	-8.47881
▁sense	-8.49908
▁daughter	-8.50285
▁city	-8.50512
▁law	-8.50549
▁used	-8.51089
▁di	-8.51128
▁become	-8.51173
▁bad	-8.51329
▁road	-8.51603
▁watch	-8.51742
▁ear	-8.51818
▁spirit	-8.51894
▁listen	-8.51907
▁ready	-8.51916
▁tri	-8.52166
▁cold	-8.52201
▁thy	-8.52257
ie	-8.52657
ty	-8.52954
▁truth	-8.53024
▁won	-8.53265
▁run	-8.53546
▁subject	-8.53703
▁past	-8.53786
ia	-8.54069
▁big	-8.54103
▁idea	-8.54442
▁business	-8.54451
▁river	-8.54583
▁family	-8.54708
▁understand	-8.54872
▁carri	-8.54907
▁perfect	-8.54909
▁consider	-8.54953
▁glad	-8.54972
▁didn	-8.55185
▁start	-8.55315
▁interest	-8.55444
ro	-8.55534
▁several	-8.55679
▁foot	-8.55783
▁trouble	-8.55849
ra	-8.55861
▁change	-8.56076
▁kill	-8.56131
▁different	-8.56259
ish	-8.5651
▁wind	-8.56538
▁free	-8.56573
▁hold	-8.56716
▁sister	-8.572
▁natural	-8.57333
▁blood	-8.58148
▁eye	-8.58467
▁human	-8.58471
▁quiet	-8.5864
▁says	-8.58701
▁able	-8.58792
▁count	-8.58797
▁cut	-8.58897
▁happ	-8.59197
▁wonder	-8.59206
▁arms	-8.59244
▁story	-8.59343
▁acros	-8.59474
▁late	-8.59613
▁difficult	-8.60307
▁cause	-8.604
▁number	-8.60785
▁ma	-8.60998
▁suppose	-8.6107
ance	-8.61198
▁cover	-8.61364
▁continu	-8.6175
▁piece	-8.61882
▁low	-8.62245
▁husband	-8.62276
▁green	-8.62294
▁co	-8.62406
▁stone	-8.62898
▁slow	-8.62924
▁act	-8.63206
▁regard	-8.63467
▁taking	-8.63948
▁mere	-8.63987
▁stay	-8.64286
▁seven	-8.64895
▁church	-8.64924
▁fellow	-8.6528
▁object	-8.65732
▁pretty	-8.66188
▁eat	-8.66295
ling	-8.66495
ne	-8.66727
▁john	-8.66825
ant	-8.67087
▁allow	-8.67157
▁week	-8.67281
▁met	-8.67316
ma	-8.67358
▁paper	-8.67663
▁book	-8.67694
▁save	-8.67728
ent	-8.67828
▁wood	-8.68024
▁common	-8.68631
▁times	-8.68684
ine	-8.68719
▁dream	-8.68874
age	-8.69197
▁month	-8.69199
den	-8.69242
▁school	-8.69289
▁car	-8.69466
▁la	-8.69592
▁soft	-8.69736
▁surprise	-8.70003
▁bear	-8.70013
▁saying	-8.7022
▁con	-8.70348
▁sweet	-8.70722
▁blue	-8.70871
x	-8.7103
▁gold	-8.71173
▁wild	-8.71448
▁usual	-8.71498
▁ought	-8.7155
▁account	-8.71601
▁star	-8.71732
▁particular	-8.71862
▁age	-8.72383
▁art	-8.7321
▁cross	-8.734
▁heaven	-8.73446
▁throw	-8.73776
▁worth	-8.73857
▁flower	-8.73886
▁mov	-8.74148
▁purpose	-8.74235
▁character	-8.74394
▁seat	-8.74621
▁touch	-8.74779
▁bright	-8.75028
though	-8.7523
co	-8.75608
men	-8.75669
▁chance	-8.7569
▁direct	-8.76331
▁garden	-8.76625
▁neither	-8.76721
▁plain	-8.76831
as	-8.7689
▁uncle	-8.77016
v	-8.77032
▁stopp	-8.77314
te	-8.77345
▁princess	-8.77384
▁immediate	-8.77435
▁die	-8.77447
▁effect	-8.77524
▁pleasure	-8.77656
▁visit	-8.77762
stead	-8.77934
▁deal	-8.78264
ul	-8.78364
led	-8.78456
▁leg	-8.78524
▁ship	-8.78595
▁none	-8.78704
▁ye	-8.78994
to	-8.79168
▁further	-8.79227
▁forward	-8.7934
ath	-8.79351
▁draw	-8.79435
▁instant	-8.79441
▁meet	-8.79995
▁ho	-8.8002
▁queen	-8.80116
▁eighteen	-8.8023
▁except	-8.80337
▁chief	-8.80741
▁public	-8.80855
ate	-8.80932
lo	-8.80948
▁later	-8.81112
▁animal	-8.81771
▁court	-8.81946
▁grow	-8.82092
▁force	-8.82122
▁mouth	-8.82362
▁respect	-8.82477
um	-8.82835
▁stand	-8.82897
low	-8.82897
ac	-8.83085
▁chair	-8.83578
▁exclaim	-8.83689
▁living	-8.8392
▁bow	-8.84056
▁hall	-8.84084
▁condition	-8.84101
▁cry	-8.84123
▁mine	-8.84138
ical	-8.84199
▁front	-8.84215
yond	-8.84297
▁secret	-8.84383
▁discover	-8.84495
▁cap	-8.84548
▁offer	-8.84604
▁sign	-8.8482
▁received	-8.849
▁m	-8.85147
▁hat	-8.85496
▁gentleman	-8.85598
▁laid	-8.85905
▁wall	-8.86044
land	-8.86063
▁entire	-8.86124
▁pay	-8.86186
ily	-8.86562
▁p	-8.86919
▁tone	-8.87043
▁send	-8.87217
▁silence	-8.87455
am	-8.87558
▁rich	-8.87575
▁shoulder	-8.87583
▁party	-8.87634
▁st	-8.87766
▁according	-8.8784
ian	-8.88081
fraid	-8.88082
▁ah	-8.88459
▁mary	-8.88573
▁figure	-8.88867
▁english	-8.89087
▁england	-8.8961
▁necessar	-8.89716
▁service	-8.89797
▁command	-8.89955
▁em	-8.90171
▁se	-8.90363
ff	-8.90382
▁lip	-8.90565
▁doing	-8.9059
▁led	-8.90607
▁aunt	-8.9065
▁please	-8.90786
▁equal	-8.91038
▁minutes	-8.91261
▁position	-8.91509
▁bit	-8.91552
▁complete	-8.91625
▁drew	-8.91957
▁view	-8.92127
ad	-8.92542
▁heavy	-8.92549
id	-8.92686
▁warm	-8.92745
▁miles	-8.92859
▁eight	-8.92978
▁g	-8.93004
▁length	-8.93029
▁attention	-8.93094
▁ill	-8.93418
ver	-8.9358
▁standing	-8.93665
▁spring	-8.93748
▁happi	-8.93856
▁bell	-8.94077
▁thinking	-8.9446
▁dog	-8.94614
▁caugh	-8.95062
▁corner	-8.95301
ci	-8.95422
▁learn	-8.95431
▁probabl	-8.9564
▁opinion	-8.95772
▁finger	-8.95843
▁bar	-8.95864
ta	-8.95893
▁creature	-8.96303
▁grew	-8.96443
▁sharp	-8.96611
▁self	-8.96646
▁forth	-8.96664
▁occasion	-8.96697
▁third	-8.97038
▁ago	-8.97067
▁wide	-8.9709
▁island	-8.97168
▁beauty	-8.97175
▁observ	-8.97322
▁dinner	-8.97443
▁approach	-8.97711
▁silent	-8.97778
me	-8.97861
▁top	-8.97901
ary	-8.98246
▁break	-8.98335
▁thirty	-8.98388
▁fift	-8.98499
▁glance	-8.98728
ge	-8.98868
▁sad	-8.99048
▁explain	-8.99138
▁sitting	-8.99145
▁seeing	-8.9929
▁thank	-8.9934
▁remark	-8.99349
▁action	-8.99448
▁le	-8.99456
▁sing	-9.0008
▁final	-9.00181
▁government	-9.00247
▁grave	-9.00297
▁struck	-9.00311
▁experience	-9.00391
▁scarce	-9.00422
▁wrong	-9.00517
▁whatever	-9.00541
▁knowledge	-9.00656
▁safe	-9.00778
▁distance	-9.00935
▁gett	-9.00956
▁sit	-9.00995
▁attempt	-9.01004
▁afterward	-9.01181
▁joy	-9.01226
▁straight	-9.01284
▁utter	-9.01344
▁company	-9.01424
▁loved	-9.0146
▁evident	-9.01564
▁boat	-9.0164
▁crowd	-9.01663
▁floor	-9.01715
▁slight	-9.01729
▁train	-9.01866
▁desire	-9.01929
▁drink	-9.02056
at	-9.02066
▁exact	-9.02072
▁ex	-9.02145
▁saint	-9.02198
▁direction	-9.02349
▁rock	-9.02755
ir	-9.02764
▁danger	-9.02955
▁shadow	-9.0312
po	-9.03152
▁careful	-9.03318
▁spot	-9.03486
sh	-9.0361
▁glass	-9.041
▁tears	-9.04458
▁accept	-9.04482
▁appearance	-9.04601
▁palace	-9.04627
▁result	-9.04627
▁lo	-9.05175
▁snow	-9.05353
ure	-9.05364
▁w	-9.05489
▁battle	-9.05645
▁forest	-9.0567
ha	-9.0574
▁forgot	-9.05868
▁per	-9.0626
▁margaret	-9.06378
▁ti	-9.06432
▁fail	-9.06449
▁london	-9.06525
▁whisper	-9.06673
ley	-9.06775
▁brown	-9.06777
▁food	-9.06895
▁affair	-9.06969
side	-9.07018
▁strength	-9.07124
▁step	-9.07245
ist	-9.07287
▁express	-9.07479
▁fast	-9.0761
▁promise	-9.07636
▁anne	-9.0795
▁filled	-9.08034
▁liv	-9.08271
▁officer	-9.08281
▁bound	-9.08375
▁pleasant	-9.08461
▁circumstance	-9.08536
▁ca	-9.08686
▁fresh	-9.08697
▁broken	-9.08726
▁expression	-9.0875
▁cloud	-9.08767
▁pocket	-9.08837
tic	-9.08878
▁pick	-9.09022
▁south	-9.09289
▁hid	-9.09411
▁pain	-9.09423
ot	-9.09646
▁easy	-9.09671
vi	-9.09969
pp	-9.0998
▁plan	-9.10186
▁giv	-9.10241
▁runn	-9.10445
▁fight	-9.10838
the	-9.11056
pe	-9.11368
▁tom	-9.11385
▁office	-9.11394
▁wise	-9.11486
be	-9.11565
▁bo	-9.11566
▁pale	-9.1161
▁french	-9.11797
▁hot	-9.12267
▁arriv	-9.12415
▁cat	-9.12666
▁impossibl	-9.12761
ke	-9.12947
▁indian	-9.12966
▁tea	-9.12995
▁effort	-9.13075
▁mo	-9.13099
▁conversation	-9.13161
ut	-9.13371
▁drive	-9.13445
▁scene	-9.1347
▁cast	-9.1347
▁outside	-9.13615
▁fortune	-9.13707
▁peter	-9.13869
▁writ	-9.13887
▁ta	-9.13932
▁sw	-9.13934
▁stop	-9.13973
gg	-9.13982
▁boys	-9.14054
▁proper	-9.14188
▁society	-9.14226
que	-9.14405
▁nine	-9.14425
▁peace	-9.14505
ious	-9.14507
▁write	-9.14523
▁simple	-9.14534
▁army	-9.14552
▁single	-9.14615
▁talking	-9.14701
bo	-9.14795
▁begin	-9.14806
ol	-9.14836
▁escape	-9.14845
▁box	-9.15052
▁lad	-9.15189
▁post	-9.15273
▁demand	-9.15304
▁wonderful	-9.15831
▁thick	-9.15947
▁ring	-9.16014
▁possess	-9.16049
▁iron	-9.1614
▁sky	-9.1619
▁wound	-9.16355
▁mention	-9.16418
▁evil	-9.16437
▁blow	-9.16497
▁finish	-9.16524
▁join	-9.16602
▁camp	-9.16602
▁grace	-9.16866
▁marri	-9.16895
▁silver	-9.17008
▁kiss	-9.17147
ca	-9.17206
▁trust	-9.1721
way	-9.17405
▁chapter	-9.17508
▁afternoon	-9.17583
▁fish	-9.17705
▁breath	-9.17711
▁c	-9.17798
▁turning	-9.17832
by	-9.1818
most	-9.18297
▁horses	-9.18482
▁morrow	-9.18576
▁beginning	-9.18579
▁mad	-9.18708
▁youth	-9.18736
▁presence	-9.18742
▁ha	-9.18775
▁expect	-9.18779
▁especial	-9.18826
▁habit	-9.18909
ni	-9.18955
▁po	-9.18981
▁pull	-9.19028
▁judge	-9.19028
▁minute	-9.1905
▁clothes	-9.19404
▁neck	-9.19429
go	-9.19429
▁color	-9.19616
do	-9.1966
ct	-9.19884
▁eager	-9.2
▁ro	-9.20047
▁dis	-9.20324
▁shore	-9.20679
▁shot	-9.20767
▁former	-9.20819
▁seek	-9.20851
hrew	-9.20877
▁serious	-9.20937
▁carry	-9.21054
▁north	-9.21173
mi	-9.21177
ru	-9.21268
▁simpl	-9.21432
▁degree	-9.21444
▁notice	-9.21497
mp	-9.21557
▁hill	-9.21578
▁bird	-9.21633
▁board	-9.21667
▁moon	-9.22106
▁duty	-9.22319
▁easily	-9.22392
▁thin	-9.22563
▁game	-9.22743
▁journey	-9.22823
▁sufficient	-9.22921
▁stream	-9.23083
▁ri	-9.23098
▁mountain	-9.23105
▁faint	-9.23108
ated	-9.23138
▁path	-9.23239
▁leaving	-9.23258
▁grand	-9.23275
▁couldn	-9.23423
▁stranger	-9.23441
▁terrible	-9.23533
om	-9.23559
▁field	-9.23576
▁noble	-9.23595
▁burn	-9.23626
▁charge	-9.23999
▁twelve	-9.24137
▁tall	-9.24143
▁agree	-9.24144
▁lie	-9.2416
▁class	-9.24296
▁comfort	-9.24333
▁shut	-9.24381
▁stick	-9.24489
▁knight	-9.24614
▁attack	-9.24927
▁address	-9.24938
▁showed	-9.24999
▁rais	-9.2504
▁marry	-9.2522
▁sword	-9.25225
▁calm	-9.25683
▁winter	-9.25744
▁suit	-9.25796
▁anxious	-9.25817
▁vi	-9.25848
▁rise	-9.25905
▁guess	-9.25909
▁inquir	-9.25977
▁nice	-9.26004
▁move	-9.26089
▁rapid	-9.26178
▁village	-9.26198
▁ladies	-9.26362
▁march	-9.2638
▁honor	-9.26446
im	-9.26566
▁forty	-9.2702
▁honour	-9.27077
▁shape	-9.27291
wise	-9.27425
▁rush	-9.27471
▁pray	-9.27537
▁term	-9.27552
stood	-9.27576
▁broke	-9.27617
▁guard	-9.27768
▁slave	-9.27978
▁wave	-9.27983
▁expected	-9.28078
▁golden	-9.28104
▁gain	-9.28125
op	-9.28138
▁decided	-9.28218
▁summer	-9.28451
▁fit	-9.28601
▁bene	-9.28771
selves	-9.28902
▁shook	-9.28906
▁music	-9.28946
ism	-9.28988
▁influence	-9.29004
▁principle	-9.29092
▁lead	-9.29215
▁lift	-9.29218
▁middle	-9.29274
▁belong	-9.29312
▁tin	-9.29342
▁books	-9.29521
▁broad	-9.296
▁born	-9.29849
▁latter	-9.29924
▁history	-9.29928
▁movement	-9.30239
▁learned	-9.30312
▁marriage	-9.30316
▁ball	-9.3034
▁conduct	-9.3039
▁enemy	-9.3039
▁exist	-9.30439
▁lower	-9.30514
▁noise	-9.3059
▁yard	-9.31147
▁states	-9.31219
▁speech	-9.3152
▁grass	-9.31635
ho	-9.31661
▁reply	-9.31828
▁firm	-9.3188
▁bank	-9.31975
▁succeed	-9.32089
▁gate	-9.32419
▁forget	-9.32512
▁enjoy	-9.32533
▁american	-9.32578
▁lot	-9.32595
▁dance	-9.32632
▁treat	-9.32705
light	-9.32719
ig	-9.32782
▁bill	-9.3281
▁contain	-9.32854
▁wear	-9.33024
▁jo	-9.3307
▁sorr	-9.33077
▁shout	-9.33127
▁measure	-9.33259
▁pen	-9.33593
head	-9.336
▁rain	-9.33684
▁makes	-9.33785
▁meant	-9.33885
▁event	-9.3394
▁sail	-9.33962
▁taste	-9.34053
▁personal	-9.34152
▁brave	-9.34223
▁comes	-9.34238
▁poet	-9.34321
▁steps	-9.34326
eth	-9.34425
▁oblig	-9.34452
▁hung	-9.34686
▁dick	-9.34948
▁pro	-9.35002
ud	-9.35013
clock	-9.35163
ial	-9.35574
▁prisoner	-9.35623
▁lock	-9.35644
▁castle	-9.35646
▁spite	-9.35697
▁repeated	-9.35957
▁future	-9.36071
▁building	-9.361
▁health	-9.36173
▁picture	-9.36465
▁intend	-9.3649
▁sigh	-9.36512
▁coat	-9.36656
ab	-9.36657
▁edge	-9.36678
▁pai	-9.36716
▁bread	-9.36736
▁ne	-9.36773
kin	-9.36899
▁race	-9.36934
▁madame	-9.3697
▁loud	-9.3739
▁roll	-9.37391
▁yellow	-9.3767
▁jane	-9.37683
▁catch	-9.37693
▁spread	-9.37769
▁constant	-9.3787
▁suggest	-9.37908
▁west	-9.38044
▁important	-9.38177
▁darkness	-9.383
▁pre	-9.38331
▁curious	-9.38485
▁proceed	-9.38514
▁carriage	-9.38516
▁dropp	-9.38655
▁press	-9.38822
▁serve	-9.38873
▁pleased	-9.38921
▁faith	-9.38962
▁passion	-9.38968
▁sick	-9.39028
▁wouldn	-9.39106
▁dry	-9.39186
▁increase	-9.3919
▁sp	-9.39196
▁space	-9.39293
let	-9.39337
▁content	-9.39365
▁absolute	-9.39497
out	-9.39562
▁blind	-9.39599
▁clean	-9.39599
▁en	-9.39896
ory	-9.39903
▁ancient	-9.40011
▁pound	-9.40121
▁beast	-9.40127
▁cousin	-9.40217
▁private	-9.40219
▁chang	-9.40346
▁existence	-9.40527
▁knee	-9.40713
▁cook	-9.41156
▁priest	-9.4116
▁wine	-9.41214
▁narrow	-9.41359
▁colour	-9.41466
un	-9.41486
▁dare	-9.41521
▁storm	-9.41568
▁support	-9.41673
▁individual	-9.41778
▁determined	-9.41799
▁skin	-9.41907
▁wing	-9.41929
va	-9.42038
▁passing	-9.42045
▁declar	-9.42078
▁various	-9.42207
ag	-9.42336
▁bottom	-9.42409
▁extreme	-9.42409
▁search	-9.42411
▁tru	-9.42436
▁nobody	-9.4262
▁beat	-9.42717
▁drawing	-9.42771
▁cla	-9.42857
▁fixed	-9.42929
▁k	-9.42939
▁prevent	-9.4315
▁advantage	-9.43363
▁hole	-9.43427
if	-9.4361
▁opportunit	-9.43683
▁tired	-9.43783
▁wrote	-9.4379
▁plant	-9.43832
▁lu	-9.43961
▁sand	-9.44204
▁royal	-9.4422
▁imp	-9.44261
▁france	-9.44447
▁lake	-9.44675
▁actual	-9.44759
▁rid	-9.44813
▁colonel	-9.44975
▁main	-9.4515
▁walls	-9.45182
▁dollar	-9.45454
▁sake	-9.45539
▁cheek	-9.45626
▁stretch	-9.45735
▁christ	-9.4574
▁concern	-9.45881
▁da	-9.45913
▁bitter	-9.46025
what	-9.4604
▁obtain	-9.46063
▁mar	-9.46279
▁period	-9.46392
▁christian	-9.46535
▁stair	-9.46576
▁wors	-9.46607
▁special	-9.46613
▁study	-9.46706
▁astonish	-9.46833
▁value	-9.46841
▁nation	-9.4703
no	-9.47031
▁labor	-9.47053
▁chamber	-9.47279
▁instance	-9.4728
ti	-9.47361
▁breakfast	-9.47386
▁frequent	-9.47386
▁desert	-9.47386
▁proud	-9.47395
▁handsome	-9.47436
▁passage	-9.47475
▁lives	-9.47806
▁cha	-9.47841
▁lose	-9.48052
▁grant	-9.48057
▁frighten	-9.48068
▁angr	-9.48143
▁meeting	-9.48205
▁servant	-9.48291
▁hurt	-9.48392
▁push	-9.48395
▁destroy	-9.48501
▁bag	-9.48521
▁east	-9.4861
▁mount	-9.48621
▁pan	-9.48707
▁jack	-9.48738
▁pure	-9.48881
▁courage	-9.48951
▁isn	-9.48972
▁port	-9.48974
▁disappear	-9.49045
▁tender	-9.49086
▁burst	-9.49214
▁gentle	-9.49398
▁george	-9.49402
▁settl	-9.4942
▁ears	-9.49443
▁success	-9.49547
ally	-9.49735
▁birds	-9.49738
▁apparent	-9.49743
▁shop	-9.49863
▁store	-9.49887
▁language	-9.50198
io	-9.50227
▁mark	-9.5024
▁b	-9.50288
▁prove	-9.50342
▁fifteen	-9.50395
▁holding	-9.50529
▁valley	-9.50776
ah	-9.51018
▁season	-9.51124
▁jump	-9.51237
▁gentlemen	-9.51246
▁fool	-9.51447
▁soldiers	-9.51448
▁writing	-9.51472
ade	-9.51601
▁gun	-9.51741
▁delight	-9.5179
▁ni	-9.52006
▁henry	-9.52173
▁fancy	-9.52174
ber	-9.52218
▁ruin	-9.52334
▁inside	-9.52337
▁moral	-9.52432
▁inform	-9.52462
▁sin	-9.52463
▁su	-9.52623
▁everybody	-9.5274
▁receive	-9.52742
tion	-9.52767
▁situation	-9.5287
▁ab	-9.52927
▁quarter	-9.52939
▁cup	-9.52987
▁goes	-9.53039
▁attend	-9.53065
▁group	-9.53093
▁vain	-9.53162
▁li	-9.53217
▁honest	-9.53445
▁cool	-9.53487
▁luck	-9.53893
▁william	-9.53918
▁earnest	-9.53943
▁vessel	-9.54036
▁report	-9.54244
▁flash	-9.54283
▁knock	-9.54511
▁wash	-9.54701
▁property	-9.54903
▁render	-9.54936
▁wor	-9.54952
▁murder	-9.55169
▁york	-9.55469
▁dust	-9.55548
▁recover	-9.55592
▁fruit	-9.55709
▁square	-9.55711
▁companion	-9.55737
▁station	-9.55813
▁fond	-9.55844
▁rough	-9.56078
▁heat	-9.56086
▁murmur	-9.56193
bi	-9.56285
▁tail	-9.56314
▁fate	-9.5632
▁seiz	-9.56343
▁built	-9.56435
▁grown	-9.56513
▁news	-9.56584
▁weak	-9.5665
▁knowing	-9.56757
▁climb	-9.568
▁promis	-9.56924
▁tongue	-9.56926
▁duke	-9.56934
▁due	-9.56956
▁laws	-9.57231
▁ordinar	-9.57412
▁surface	-9.57534
▁gent	-9.57777
▁imagine	-9.57959
con	-9.57983
▁social	-9.58032
▁walking	-9.58057
▁possession	-9.58122
▁weather	-9.58152
pt	-9.58267
▁system	-9.58274
▁wealth	-9.58274
▁sa	-9.58408
▁key	-9.58491
▁spen	-9.58593
▁empty	-9.5877
ster	-9.5891
▁claim	-9.59029
▁bare	-9.59186
▁note	-9.59189
▁sorrow	-9.59251
▁temper	-9.59268
live	-9.59278
▁el	-9.59285
▁pour	-9.5932
▁crown	-9.59504
▁swift	-9.59518
▁du	-9.59522
▁gray	-9.59531
ship	-9.59626
▁difference	-9.59643
▁shoe	-9.5967
▁nose	-9.59756
sleep	-9.59765
▁opposite	-9.59772
▁prepared	-9.59815
▁employ	-9.59987
▁memory	-9.60041
▁fashion	-9.60155
▁avoid	-9.60399
▁alto	-9.60401
▁row	-9.60475
▁laughing	-9.60518
▁smiling	-9.60525
▁serv	-9.60572
▁ideas	-9.6062
▁suffering	-9.60669
▁reading	-9.60695
▁material	-9.60778
▁breast	-9.60915
▁distinct	-9.61097
ble	-9.61339
▁centur	-9.61432
pa	-9.61459
▁brain	-9.61501
▁cur	-9.61613
ka	-9.61797
▁hath	-9.61845
▁meaning	-9.61946
▁maid	-9.62022
▁lover	-9.62036
▁na	-9.62234
▁papa	-9.6237
▁virtue	-9.62441
▁kingdom	-9.62441
▁leap	-9.62446
▁fault	-9.6257
vo	-9.62577
▁grey	-9.62646
▁guest	-9.62741
▁cost	-9.62758
▁mill	-9.62852
▁rode	-9.6308
▁paris	-9.63189
▁satisfied	-9.63232
▁pride	-9.63233
▁united	-9.63279
▁despair	-9.63478
▁height	-9.63493
▁bent	-9.63533
▁vast	-9.63617
▁opening	-9.63668
▁spra	-9.63786
▁pity	-9.63849
▁earl	-9.63883
▁wheel	-9.64097
▁motion	-9.64098
▁rule	-9.64122
▁hurried	-9.64263
▁conceal	-9.64263
▁double	-9.64658
▁engag	-9.64693
ov	-9.647
▁regular	-9.64789
▁rising	-9.64842
▁mountains	-9.64883
▁fur	-9.64976
▁roof	-9.65193
wood	-9.65318
▁stock	-9.65331
▁supper	-9.65388
▁alarm	-9.65452
▁contrar	-9.65718
▁soldier	-9.65736
▁justice	-9.65749
▁gaz	-9.65831
▁pe	-9.65909
▁finding	-9.65912
▁emotion	-9.65984
▁example	-9.65984
▁machine	-9.65984
▁dreadful	-9.66003
▁require	-9.66183
▁bra	-9.66286
▁lean	-9.66411
▁notic	-9.6664
▁kitchen	-9.66655
▁fat	-9.66678
cy	-9.66787
▁servants	-9.66791
▁forgive	-9.66792
▁supposed	-9.66795
▁pack	-9.66926
▁produc	-9.66967
ile	-9.67166
▁terror	-9.67194
▁awful	-9.67196
▁peculiar	-9.67298
▁welcome	-9.67473
▁salt	-9.675
▁buy	-9.67515
▁boil	-9.67517
stone	-9.67551
▁mistress	-9.67604
▁win	-9.67802
os	-9.67897
▁chose	-9.68013
▁major	-9.68015
▁descend	-9.68128
▁ra	-9.68227
▁farm	-9.68367
▁method	-9.68419
ow	-9.68432
▁angel	-9.68713
▁sum	-9.68737
lin	-9.68813
▁suffer	-9.6884
▁knows	-9.68869
▁reflect	-9.68905
▁unto	-9.68938
gen	-9.68974
▁comp	-9.69044
▁evidence	-9.69105
▁deliver	-9.69106
▁bold	-9.69244
▁qualit	-9.69245
▁bore	-9.69288
▁gathered	-9.6938
▁tale	-9.69382
▁doesn	-9.69449
▁baby	-9.69522
▁shin	-9.69644
nce	-9.69716
▁watching	-9.69934
▁advanc	-9.69954
▁loose	-9.70082
▁fly	-9.70117
▁crime	-9.70296
▁rate	-9.70301
▁smoke	-9.7032
aught	-9.70645
▁twice	-9.70773
▁monsieur	-9.70914
▁pair	-9.71094
▁putt	-9.71117
▁roman	-9.71237
ell	-9.71298
▁travel	-9.71335
▁patient	-9.71336
ors	-9.71449
▁frank	-9.71475
▁fe	-9.7152
▁dai	-9.71562
▁lamp	-9.71787
▁hu	-9.71819
▁mass	-9.71915
▁affection	-9.71919
ham	-9.71938
▁flat	-9.71965
▁devil	-9.72004
▁image	-9.72048
▁excellent	-9.72185
▁gift	-9.72185
▁share	-9.72226
▁proved	-9.7241
▁authority	-9.72461
▁arthur	-9.7247
▁milk	-9.7251
ga	-9.72726
▁stepp	-9.72771
▁perceiv	-9.72896
▁consequence	-9.72898
▁charles	-9.72899
▁tower	-9.72948
▁trade	-9.72951
▁ver	-9.7314
▁heads	-9.73213
while	-9.73339
▁cruel	-9.73344
▁size	-9.73356
▁impression	-9.73358
▁rare	-9.73409
▁bu	-9.73504
▁confidence	-9.73618
▁rank	-9.73619
▁familiar	-9.73628
▁busy	-9.73639
▁intention	-9.73649
▁caus	-9.73668
▁extend	-9.73713
▁perform	-9.73887
▁limit	-9.73905
▁flew	-9.73908
▁prison	-9.73983
▁band	-9.74007
▁distant	-9.7405
▁ja	-9.74058
like	-9.74188
ger	-9.74224
▁ice	-9.74382
bu	-9.74434
▁sympath	-9.74485
▁feature	-9.74488
▁president	-9.74634
▁occurr	-9.74695
▁establish	-9.74743
hi	-9.74757
▁solemn	-9.74777
und	-9.74795
▁weight	-9.74819
▁aware	-9.74979
time	-9.74989
▁confess	-9.75006
▁remov	-9.75091
▁telling	-9.75108
▁emperor	-9.75215
▁false	-9.75242
▁thorough	-9.75362
▁splendid	-9.75509
▁woods	-9.75658
▁depend	-9.75743
che	-9.75902
fi	-9.7591
▁dull	-9.75934
rose	-9.76044
▁excuse	-9.76098
▁similar	-9.76098
▁obey	-9.76102
▁sixt	-9.76199
▁religion	-9.76246
▁loss	-9.76281
▁amount	-9.76394
▁violent	-9.76394
▁type	-9.76395
over	-9.76412
▁working	-9.76499
▁butter	-9.76534
▁parent	-9.76561
▁treasure	-9.76565
▁million	-9.76615
▁song	-9.76659
▁mistake	-9.76669
▁necessity	-9.76674
▁holy	-9.76905
▁science	-9.76989
▁minister	-9.77139
▁cloth	-9.77154
▁advance	-9.77268
▁horror	-9.77288
▁smooth	-9.77288
ip	-9.77369
▁strike	-9.77438
▁corn	-9.77448
▁consent	-9.77589
▁task	-9.7759
▁fierce	-9.7762
▁rope	-9.77633
▁mi	-9.77871
▁cart	-9.77894
▁unknown	-9.78039
▁interesting	-9.78063
▁savage	-9.78341
▁detail	-9.7835
ba	-9.7845
▁prayer	-9.78454
ler	-9.78463
▁sunday	-9.78806
▁powerful	-9.78936
▁cow	-9.78993
▁liberty	-9.79099
▁drove	-9.791
▁coast	-9.791
▁drop	-9.79107
▁van	-9.79159
▁admit	-9.79238
▁witness	-9.79328
▁german	-9.79357
▁gloom	-9.79389
▁temple	-9.79404
▁clever	-9.79589
▁ka	-9.79606
ak	-9.79608
▁wicked	-9.79634
▁sought	-9.79725
▁speed	-9.79758
▁houses	-9.79832
▁hills	-9.79998
▁yesterday	-9.80017
▁original	-9.80119
▁bridge	-9.80208
▁couple	-9.80325
▁yield	-9.80325
▁message	-9.80327
▁sell	-9.80447
▁progress	-9.8048
▁shock	-9.80789
▁begg	-9.8082
▁ride	-9.809
▁cottage	-9.80944
ron	-9.81167
▁police	-9.81186
ating	-9.81212
▁circle	-9.8126
▁represent	-9.8136
▁suspect	-9.81411
▁sc	-9.81515
ric	-9.81567
▁native	-9.81578
▁diamond	-9.81723
▁buri	-9.81752
▁flu	-9.81806
▁eleven	-9.81879
▁paus	-9.81884
▁oak	-9.82011
▁teeth	-9.82045
▁bath	-9.82124
he	-9.82144
▁depart	-9.82148
▁pardon	-9.82197
▁injur	-9.82214
▁r	-9.82243
ept	-9.82363
▁charm	-9.82382
▁freedom	-9.82508
▁upper	-9.82514
▁satisfaction	-9.82515
unt	-9.82529
▁insist	-9.82538
▁maiden	-9.8259
▁edward	-9.82668
▁huge	-9.82687
▁meal	-9.82692
▁ceas	-9.82817
ki	-9.82959
▁lion	-9.82973
▁cheer	-9.83072
▁foreign	-9.8314
▁silk	-9.8314
▁page	-9.83193
▁brothers	-9.83431
▁america	-9.83439
▁stage	-9.83529
▁countenance	-9.83777
▁gradual	-9.83777
▁proof	-9.83784
▁ru	-9.83806
▁carrying	-9.8402
▁occupie	-9.84102
▁excitement	-9.84104
▁h	-9.84178
▁spi	-9.84191
▁superior	-9.84257
▁unfortunate	-9.84257
▁professor	-9.84272
▁james	-9.84306
▁nurse	-9.84318
▁farther	-9.84365
▁seventeen	-9.84385
▁pipe	-9.84462
pi	-9.84609
▁pin	-9.84652
▁favour	-9.84708
▁majesty	-9.84739
▁price	-9.84774
▁hotel	-9.84793
▁dogs	-9.84949
▁severe	-9.85034
gu	-9.85054
▁acquaintance	-9.85398
▁imagination	-9.85427
▁alas	-9.85545
▁previous	-9.85548
▁convinc	-9.85548
▁record	-9.85711
▁praise	-9.85726
▁physical	-9.85732
▁faithful	-9.8575
uc	-9.85902
▁match	-9.86006
ub	-9.86047
ite	-9.86048
▁produce	-9.86106
▁leading	-9.86134
▁shame	-9.86177
▁cheerful	-9.86226
▁exercise	-9.86247
▁advice	-9.86364
▁cra	-9.86481
▁resolv	-9.86522
▁regret	-9.86528
▁sheep	-9.86564
▁conscious	-9.86774
▁refus	-9.87149
▁grief	-9.87186
▁stuff	-9.87193
▁hither	-9.87205
▁harm	-9.87239
▁fourth	-9.87393
▁aid	-9.87393
▁qua	-9.87396
ier	-9.87442
ner	-9.87485
▁curiosit	-9.87517
▁afford	-9.87517
▁practical	-9.87571
▁substance	-9.87683
▁level	-9.87685
▁pet	-9.87695
▁struggle	-9.87821
▁deck	-9.87837
▁nodd	-9.87891
▁brow	-9.87966
▁lies	-9.88085
▁slipp	-9.88133
▁dispos	-9.88183
▁float	-9.88256
▁lack	-9.88293
▁consist	-9.88338
▁article	-9.88349
▁mile	-9.88356
▁pot	-9.88377
▁dangerous	-9.88406
▁sacrifice	-9.88434
▁basket	-9.88516
▁trace	-9.88617
▁continue	-9.88636
▁wit	-9.8867
▁dozen	-9.88685
ches	-9.88697
▁control	-9.88876
ius	-9.88886
▁ju	-9.88919
▁protect	-9.88963
▁mor	-9.88993
▁strain	-9.89052
▁information	-9.89085
▁sevent	-9.89101
▁min	-9.89225
▁tar	-9.89262
▁custom	-9.89266
▁gi	-9.89348
▁importance	-9.89363
▁flame	-9.89397
au	-9.89437
▁fer	-9.89509
▁abandon	-9.89526
fe	-9.8956
▁divine	-9.89561
▁jew	-9.8959
▁excited	-9.89597
▁f	-9.8963
▁anger	-9.89688
nt	-9.89724
▁considerabl	-9.89935
▁fold	-9.90087
▁meat	-9.90151
▁fairy	-9.90181
▁bottle	-9.90209
▁fill	-9.90458
▁delicate	-9.90545
▁sides	-9.90627
▁fox	-9.90728
gi	-9.90842
▁anybody	-9.90887
▁dawn	-9.90891
▁miser	-9.91097
▁portion	-9.91158
▁smith	-9.9123
▁trail	-9.91254
▁governor	-9.91256
▁adam	-9.91262
▁requir	-9.9132
▁extraordinar	-9.91403
▁modern	-9.91403
▁te	-9.91507
▁fl	-9.91539
▁sentence	-9.91576
▁consideration	-9.91582
▁fa	-9.91605
▁host	-9.91632
▁check	-9.91766
▁beg	-9.91776
▁desired	-9.91817
▁throat	-9.91924
▁political	-9.91961
gun	-9.92
▁choose	-9.9205
▁si	-9.92086
▁suspicion	-9.92094
ative	-9.92257
hood	-9.92266
▁ser	-9.92303
▁bodie	-9.92352
▁dim	-9.92354
▁pointed	-9.92361
▁design	-9.92397
▁farmer	-9.92594
▁flesh	-9.92616
▁paint	-9.92764
▁secure	-9.92774
▁odd	-9.92852
▁rocks	-9.92856
▁sailor	-9.92984
▁flow	-9.93086
▁stars	-9.93221
▁club	-9.9332
▁neighbor	-9.93486
▁flight	-9.93501
▁suffered	-9.93632
▁entrance	-9.93674
▁foolish	-9.93697
ill	-9.93752
▁lone	-9.93763
▁haven	-9.9378
▁innocent	-9.93844
▁brief	-9.93844
▁ocean	-9.93844
▁san	-9.93863
▁midst	-9.93989
▁correct	-9.94021
▁yo	-9.94072
▁frame	-9.94109
▁sensation	-9.94198
▁capital	-9.94198
▁mamma	-9.94198
▁reward	-9.94221
▁education	-9.94225
▁imagin	-9.9425
▁mis	-9.94266
some	-9.94388
▁z	-9.94444
▁hurry	-9.94459
▁ga	-9.94487
▁elsie	-9.94553
▁hide	-9.94566
▁crack	-9.94576
lly	-9.94639
ville	-9.94654
▁specie	-9.9469
▁instrument	-9.9473
▁distress	-9.9473
▁visitor	-9.94746
▁hang	-9.94746
▁practice	-9.9475
▁worst	-9.94817
▁nay	-9.94923
▁spend	-9.94955
▁gu	-9.95032
▁proportion	-9.95087
▁keen	-9.95137
▁visibl	-9.95139
▁hunt	-9.95154
em	-9.95169
▁mist	-9.95245
▁load	-9.953
▁elder	-9.9532
▁argument	-9.95454
▁belief	-9.95455
▁relief	-9.95625
▁pause	-9.95652
nder	-9.95662
▁faces	-9.95722
▁plate	-9.95798
▁mysterious	-9.95805
▁request	-9.95811
▁remarkable	-9.95904
▁jewel	-9.95994
▁mental	-9.96005
▁skill	-9.96038
▁hate	-9.96053
▁behold	-9.96068
▁wander	-9.96091
▁dread	-9.96141
▁nineteen	-9.96165
▁enemie	-9.96166
▁stern	-9.9617
▁mix	-9.96185
▁charming	-9.9621
▁refuse	-9.96309
▁fields	-9.96346
▁hasten	-9.96481
▁track	-9.96542
▁sixteen	-9.96677
▁appeal	-9.96709
▁hunting	-9.96727
▁pi	-9.9676
▁useful	-9.96837
▁announc	-9.96891
▁resum	-9.96894
▁worn	-9.97017
▁card	-9.9705
▁famous	-9.97073
▁depth	-9.97073
▁par	-9.97074
▁apple	-9.97076
qui	-9.97078
▁n	-9.97112
▁ug	-9.97197
▁interrupted	-9.97255
▁nervous	-9.97255
▁operation	-9.9726
▁cit	-9.97303
▁gaze	-9.97318
▁bay	-9.97349
▁provid	-9.97353
▁shade	-9.97376
our	-9.97377
▁je	-9.975
▁accomplish	-9.97588
▁calling	-9.97693
▁wake	-9.97729
▁chain	-9.97758
artagnan	-9.97805
▁reflection	-9.97889
▁merchant	-9.97989
▁choice	-9.97989
▁harry	-9.98011
▁roar	-9.98081
▁glory	-9.98173
▁newspaper	-9.98173
▁tu	-9.98182
▁bearing	-9.98239
aw	-9.98253
▁interested	-9.98256
▁bob	-9.98309
▁hence	-9.98322
▁cre	-9.98335
▁helen	-9.98345
▁plenty	-9.98357
▁element	-9.98542
ible	-9.9861
▁arch	-9.98627
▁willing	-9.98639
▁lest	-9.98712
▁queer	-9.98728
▁heap	-9.9885
▁union	-9.98964
▁slep	-9.99107
▁cave	-9.99127
▁hale	-9.99173
▁separate	-9.99218
▁favor	-9.99246
▁delighted	-9.99344
▁consciousness	-9.99378
▁jealous	-9.99471
▁judgment	-9.99485
ford	-9.99537
▁th	-9.99677
▁companions	-9.99792
▁thrust	-9.99846
▁anyone	-9.99855
▁ease	-9.99866
▁delay	-10.0003
ists	-10.0004
▁shell	-10.0005
▁root	-10.0006
of	-10.001
▁bull	-10.0013
▁sang	-10.0017
▁knife	-10.0022
▁region	-10.0022
▁candle	-10.0023
▁arrang	-10.0029
▁trip	-10.0031
▁arrival	-10.0039
▁va	-10.0039
▁grasp	-10.0041
▁observe	-10.0045
▁chest	-10.0049
▁raise	-10.0059
▁furnish	-10.006
▁scar	-10.0076
▁absence	-10.0079
▁leader	-10.0084
▁tro	-10.0088
▁cor	-10.0093
▁precious	-10.0098
▁risk	-10.0098
▁everywhere	-10.0101
rank	-10.012
▁principal	-10.0136
▁recall	-10.0136
▁vision	-10.0136
wa	-10.0141
▁aim	-10.0146
mber	-10.0155
▁reader	-10.0163
▁guide	-10.0167
▁sh	-10.0169
▁fighting	-10.0169
▁apartment	-10.0177
ze	-10.0186
▁squ	-10.0186
▁unhapp	-10.0192
▁retreat	-10.0193
▁thunder	-10.0196
▁ships	-10.0196
▁waste	-10.0201
▁observation	-10.0206
ized	-10.0212
▁popular	-10.0212
▁horn	-10.0213
▁manage	-10.0218
▁lesson	-10.023
▁brilliant	-10.0231
▁somebody	-10.0231
▁assured	-10.0234
▁burning	-10.0236
▁friendship	-10.0237
▁wa	-10.0247
lan	-10.0248
▁includ	-10.025
▁trembling	-10.025
▁admire	-10.0251
▁storie	-10.0251
▁trial	-10.0263
▁labour	-10.027
▁alice	-10.0271
▁tear	-10.0278
▁militar	-10.0289
▁blame	-10.0296
▁pace	-10.0305
▁teach	-10.0306
▁ghost	-10.0308
▁rec	-10.0321
▁hero	-10.0327
▁hut	-10.0331
▁spare	-10.034
▁hit	-10.0341
▁base	-10.0344
tted	-10.0344
▁wishes	-10.0348
▁members	-10.0351
for	-10.036
ified	-10.0365
▁grandfather	-10.0367
▁cent	-10.0376
▁miserable	-10.0381
▁europe	-10.0382
▁ways	-10.0394
▁prompt	-10.0406
▁bas	-10.0416
▁kindness	-10.042
▁exten	-10.0423
▁occasional	-10.0427
▁urg	-10.0444
▁warn	-10.0444
▁maintain	-10.0445
▁peer	-10.0446
ians	-10.0449
▁infinite	-10.0463
▁await	-10.0465
stair	-10.0471
▁horribl	-10.0484
▁motive	-10.0484
▁pursu	-10.0485
ugh	-10.0497
▁remind	-10.0504
▁ut	-10.0519
▁gods	-10.0524
▁intelligence	-10.0524
▁hesitate	-10.0524
▁protest	-10.0542
▁mutter	-10.0543
▁smell	-10.0543
▁fancie	-10.0546
mon	-10.0553
▁hans	-10.0575
▁rubb	-10.0585
▁eighty	-10.0591
▁plac	-10.0592
▁magic	-10.0596
▁scream	-10.0603
▁sold	-10.0604
▁paul	-10.0618
▁anxiet	-10.0623
▁stupid	-10.0623
▁energ	-10.0623
▁bought	-10.0627
▁somewhere	-10.063
▁accident	-10.0643
▁explanation	-10.0643
▁religious	-10.0643
▁reckon	-10.0643
▁hollow	-10.0645
▁rang	-10.0658
▁nest	-10.0662
▁neighbour	-10.0663
▁accustom	-10.0663
▁david	-10.0663
▁stiff	-10.0664
shamed	-10.0664
▁credit	-10.0683
▁vague	-10.0683
▁vo	-10.0684
▁repeat	-10.0686
▁immense	-10.0703
▁mus	-10.0709
▁cabin	-10.0709
▁active	-10.0712
▁dan	-10.0713
▁inclin	-10.072
▁dignity	-10.0723
▁vanish	-10.0726
▁u	-10.0736
▁constitution	-10.0745
▁admitted	-10.0746
ide	-10.0756
▁comfortable	-10.0759
tra	-10.0764
▁stole	-10.0765
▁flying	-10.0767
ldom	-10.0783
▁shelter	-10.0784
▁print	-10.0785
▁string	-10.0785
▁civil	-10.0785
▁pitch	-10.0797
▁cu	-10.0798
iness	-10.0801
▁weapon	-10.0805
▁style	-10.0805
▁rome	-10.0808
▁author	-10.0811
▁gay	-10.0823
▁tremble	-10.0825
ress	-10.0829
▁understanding	-10.0831
▁fla	-10.0842
ward	-10.0849
▁weary	-10.0852
field	-10.0852
▁doors	-10.0855
▁forc	-10.0858
▁elizabeth	-10.0866
▁project	-10.0866
▁sam	-10.0872
▁safety	-10.0872
▁mer	-10.0873
▁unusual	-10.0886
▁jesu	-10.0891
▁trick	-10.0898
▁becoming	-10.0905
▁birth	-10.0907
▁hanging	-10.0917
▁examin	-10.0939
▁mood	-10.0948
za	-10.095
▁fun	-10.0956
▁et	-10.0966
▁philip	-10.0969
▁signal	-10.0987
▁conclusion	-10.0989
▁billy	-10.0989
▁inter	-10.0995
▁che	-10.0997
dying	-10.1004
▁names	-10.1007
▁brush	-10.101
▁conscience	-10.101
▁universal	-10.101
▁pink	-10.1019
▁ph	-10.1029
▁shak	-10.1032
liness	-10.1032
▁appoint	-10.1048
▁betray	-10.1052
▁somehow	-10.1062
▁member	-10.1063
▁marked	-10.1065
▁display	-10.1073
▁bishop	-10.1073
▁fortunate	-10.1073
▁successful	-10.1077
▁surround	-10.1079
▁jim	-10.1083
▁whil	-10.109
oo	-10.1104
▁dreams	-10.1118
▁sentiment	-10.1125
▁gleam	-10.1135
▁gra	-10.1139
▁prospect	-10.1157
▁painful	-10.1163
▁dri	-10.117
▁lin	-10.1186
▁eggs	-10.1187
▁gar	-10.1191
▁process	-10.1193
▁christmas	-10.1199
hor	-10.1218
▁continual	-10.1218
▁reduc	-10.1224
held	-10.1227
▁connection	-10.1243
▁hungr	-10.1256
▁develop	-10.1259
nny	-10.126
▁hasti	-10.1262
▁wolf	-10.1262
▁peasant	-10.1263
ook	-10.1263
▁robin	-10.1265
▁rat	-10.1265
▁wi	-10.1279
▁thanks	-10.1294
ium	-10.13
▁female	-10.1305
▁rage	-10.1307
lt	-10.1314
▁supply	-10.1326
▁unconscious	-10.1327
▁cease	-10.1328
▁heavi	-10.133
▁trans	-10.1332
▁centre	-10.1338
▁ob	-10.1346
ach	-10.1348
▁lawyer	-10.135
▁attitude	-10.1352
house	-10.1357
▁misfortune	-10.137
▁scatter	-10.137
▁attain	-10.137
▁branche	-10.1381
up	-10.1382
ator	-10.1385
▁throne	-10.1392
▁crew	-10.1395
▁merry	-10.1395
▁relation	-10.1405
▁apart	-10.1409
▁feast	-10.1413
▁fetch	-10.1413
bra	-10.1414
▁dash	-10.142
▁attract	-10.1426
▁reveal	-10.1434
▁cliff	-10.1435
▁delightful	-10.1439
▁ideal	-10.1442
▁cl	-10.1453
▁exhaust	-10.1456
▁quantit	-10.1456
▁bal	-10.1457
▁mercy	-10.1457
▁fled	-10.1468
▁mac	-10.148
▁dirt	-10.1481
▁points	-10.1487
▁pu	-10.1491
▁adopt	-10.15
▁source	-10.15
▁dragg	-10.1502
▁setting	-10.1506
▁joe	-10.1507
▁br	-10.1508
▁haste	-10.1511
▁tis	-10.1539
▁triumph	-10.1542
▁defend	-10.1543
▁hint	-10.1544
▁concerned	-10.1558
▁rear	-10.1561
▁rag	-10.1569
ette	-10.1585
▁fought	-10.1587
▁escap	-10.1603
▁expos	-10.1604
har	-10.1618
▁victory	-10.162
ett	-10.1627
▁patience	-10.1631
▁sylvia	-10.1631
▁title	-10.1654
▁wasn	-10.1666
▁halt	-10.1674
▁forehead	-10.1676
▁smok	-10.1681
▁hast	-10.1684
▁val	-10.1691
▁council	-10.1698
▁describe	-10.1704
▁den	-10.1705
▁sex	-10.1707
▁older	-10.1712
▁pur	-10.1716
▁troops	-10.1717
▁pl	-10.1719
▁ow	-10.1728
▁national	-10.1735
▁describ	-10.1736
▁flag	-10.174
▁encounter	-10.1742
▁divid	-10.1747
▁sank	-10.1748
▁entertain	-10.1761
▁positive	-10.1765
▁loving	-10.1765
▁novel	-10.1788
▁pig	-10.1791
▁sha	-10.1804
▁grim	-10.1804
right	-10.182
▁dared	-10.1826
▁duti	-10.1828
▁returning	-10.1834
ea	-10.1835
▁incident	-10.1855
▁bride	-10.1856
▁relative	-10.1857
▁greek	-10.1857
▁giant	-10.1857
▁test	-10.1857
her	-10.1862
▁boots	-10.1862
▁mortal	-10.1877
▁guilty	-10.1885
loud	-10.189
▁permitt	-10.1898
▁admiration	-10.19
▁shone	-10.19
val	-10.1907
▁venture	-10.1912
▁fasten	-10.1921
▁propos	-10.1925
▁recent	-10.1925
▁clock	-10.1933
▁soil	-10.1941
▁accompanie	-10.1946
▁college	-10.1946
▁arrangement	-10.1947
▁writer	-10.1955
ung	-10.1957
▁wooden	-10.1959
▁relations	-10.1959
▁build	-10.1962
▁mal	-10.1966
▁current	-10.1968
▁widow	-10.1968
▁estate	-10.1968
▁sheet	-10.197
▁distinguished	-10.1975
▁thoughtful	-10.1982
upon	-10.1986
▁chi	-10.199
▁condemn	-10.1991
▁melanchol	-10.1991
▁fourteen	-10.1991
▁assist	-10.1996
▁cake	-10.1997
▁desperate	-10.2001
▁unc	-10.2006
▁quarrel	-10.2012
▁consult	-10.2014
▁dancing	-10.2014
ney	-10.2018
▁discovery	-10.2022
▁range	-10.2022
▁wretched	-10.2023
▁worship	-10.2032
▁wisdom	-10.2037
▁volume	-10.2037
▁robert	-10.2038
▁poison	-10.2038
▁waters	-10.2039
worth	-10.2041
▁magnificent	-10.2048
▁attach	-10.2058
▁august	-10.2059
▁ble	-10.2063
tro	-10.2072
▁tent	-10.2101
▁becomes	-10.2106
▁swallow	-10.2106
▁useless	-10.2113
▁alter	-10.2117
▁beard	-10.212
▁resist	-10.2128
▁arrow	-10.213
▁obvious	-10.213
▁select	-10.213
▁spoil	-10.213
▁shake	-10.2135
▁fleet	-10.2135
▁recogniz	-10.214
▁preserv	-10.2142
fa	-10.2152
▁lap	-10.2152
▁precise	-10.2153
▁market	-10.2154
▁inhabitant	-10.2154
▁wedding	-10.2165
▁arrest	-10.2176
▁intense	-10.2178
▁hearts	-10.2185
rid	-10.219
▁fad	-10.2194
▁powder	-10.2201
▁flush	-10.2202
▁ge	-10.2207
▁interval	-10.2224
▁limb	-10.2225
▁bark	-10.2226
▁heel	-10.2232
▁oppos	-10.2246
▁provision	-10.2247
▁voyage	-10.2247
▁burden	-10.2247
▁pit	-10.225
▁household	-10.225
▁ninety	-10.2253
▁sensible	-10.2255
▁sub	-10.2257
▁bade	-10.2258
▁agreeable	-10.2267
▁ve	-10.2267
▁meadow	-10.227
▁solid	-10.2271
▁block	-10.2272
▁sport	-10.2273
jo	-10.2276
▁fo	-10.2288
▁ain	-10.2289
▁gas	-10.2291
▁acquaint	-10.2293
▁slid	-10.2294
▁summon	-10.2294
▁lamb	-10.2295
▁mid	-10.2295
▁departure	-10.2295
▁mode	-10.2298
ran	-10.2301
▁sacred	-10.2317
▁striking	-10.2317
▁southern	-10.2318
▁mystery	-10.2318
▁pine	-10.2319
▁fix	-10.2321
▁realiz	-10.2328
ker	-10.233
▁readi	-10.2333
▁park	-10.2334
▁curtain	-10.2341
▁bosom	-10.2342
▁ven	-10.2344
▁awaken	-10.2349
▁essential	-10.2365
▁everyone	-10.2365
▁instinct	-10.2386
▁blush	-10.2389
▁preparation	-10.2392
▁list	-10.2393
▁humble	-10.2412
▁joseph	-10.2412
▁british	-10.2412
▁feed	-10.2415
line	-10.2426
sses	-10.2428
▁unexpected	-10.2436
▁sugar	-10.2437
▁awake	-10.2452
▁patch	-10.2455
▁appli	-10.2455
▁mon	-10.2457
▁punish	-10.2458
▁experiment	-10.246
▁victim	-10.246
▁bi	-10.2461
▁introduc	-10.2462
▁lucy	-10.2474
▁intellect	-10.2484
▁resolution	-10.2484
▁drift	-10.2484
▁confusion	-10.2484
▁relat	-10.2485
▁mingl	-10.2493
▁verse	-10.2494
▁wire	-10.2496
▁para	-10.2497
▁din	-10.2497
▁retir	-10.2511
▁teacher	-10.2512
rt	-10.2512
▁flood	-10.2533
▁lodge	-10.2534
don	-10.2543
▁bri	-10.2547
▁chin	-10.2551
▁fellows	-10.2553
▁committ	-10.2553
▁improv	-10.2557
▁ke	-10.2561
▁rude	-10.2561
▁earlie	-10.2576
▁owner	-10.2577
▁pictures	-10.2581
▁parliament	-10.2581
▁reign	-10.2581
▁echo	-10.2581
▁julia	-10.2581
▁punishment	-10.2584
▁seal	-10.2586
▁anna	-10.2591
▁showing	-10.2596
▁fatal	-10.2602
▁ci	-10.2603
▁profound	-10.2605
▁gown	-10.2614
▁works	-10.2622
▁embrace	-10.263
▁prize	-10.263
▁wondering	-10.2638
▁careless	-10.2641
▁gre	-10.2651
▁catherine	-10.2654
▁strict	-10.2654
▁impatient	-10.2657
▁col	-10.2657
▁mistaken	-10.2658
▁assure	-10.2659
▁oil	-10.2661
▁louis	-10.2672
▁steel	-10.2679
▁veil	-10.2681
▁preced	-10.2692
mar	-10.27
▁assistance	-10.2705
▁rous	-10.2707
▁wal	-10.2726
▁trap	-10.2727
▁scrap	-10.2728
▁singular	-10.2728
▁sal	-10.2731
▁torn	-10.2738
▁curl	-10.2751
▁consequent	-10.2753
▁gesture	-10.2753
▁sovereign	-10.2753
▁saddle	-10.2753
▁compell	-10.2754
▁stir	-10.2766
▁affected	-10.2767
▁tight	-10.2771
▁pole	-10.2773
▁log	-10.2773
▁steal	-10.2774
▁disease	-10.2777
▁amuse	-10.2781
▁cal	-10.2792
ize	-10.2799
▁deed	-10.28
abilit	-10.28
▁enormous	-10.2802
▁problem	-10.2802
▁profit	-10.2802
▁struggl	-10.2806
▁description	-10.2827
▁domestic	-10.2827
▁steadi	-10.2828
▁leaning	-10.2835
▁manag	-10.2843
ada	-10.2846
ars	-10.2846
▁pierre	-10.2852
▁crush	-10.2853
▁conclud	-10.2854
▁agent	-10.2858
▁ere	-10.2865
▁rep	-10.2876
▁intimate	-10.2877
▁genius	-10.2878
▁gen	-10.2903
▁perceive	-10.2903
▁countess	-10.2905
▁objection	-10.2909
▁composed	-10.2913
▁devoted	-10.2917
▁discuss	-10.2921
▁adventure	-10.2923
▁bond	-10.2925
▁pile	-10.2926
▁midnight	-10.2927
ven	-10.2928
▁tramp	-10.2928
▁darling	-10.2928
▁job	-10.2939
▁coal	-10.2939
▁younger	-10.2946
▁handkerchief	-10.2952
▁kate	-10.2955
▁owe	-10.2959
ash	-10.297
▁folk	-10.2976
▁official	-10.2978
▁scheme	-10.2978
we	-10.2985
▁sole	-10.2989
▁bush	-10.299
▁drown	-10.3003
▁merit	-10.3008
▁connected	-10.3013
▁nonsens	-10.3028
▁retain	-10.3028
▁cock	-10.304
▁pa	-10.3051
▁coffee	-10.3054
▁carpet	-10.3054
▁stroke	-10.3055
▁declare	-10.3072
▁bless	-10.3079
▁negro	-10.3079
▁thirst	-10.3079
▁ignorant	-10.308
▁ko	-10.3099
▁modest	-10.31
▁generous	-10.3105
▁ascend	-10.3105
▁garment	-10.3109
▁baron	-10.3123
▁intellectual	-10.3131
▁trunk	-10.3131
▁squire	-10.3131
▁electric	-10.3131
▁erect	-10.3132
▁shoot	-10.3135
▁notes	-10.3144
▁fearful	-10.3149
ina	-10.3154
▁absorb	-10.3156
▁stamp	-10.3156
port	-10.3162
▁suggestion	-10.3172
▁stable	-10.318
▁empire	-10.3182
▁anti	-10.3185
▁arrive	-10.3195
▁hunter	-10.3197
▁destin	-10.3203
▁privilege	-10.3208
▁wagon	-10.321
▁assert	-10.3229
▁contract	-10.3234
▁plunge	-10.3235
av	-10.3242
▁driv	-10.3252
▁violence	-10.326
▁clasp	-10.326
▁assum	-10.3266
mond	-10.3266
gratitude	-10.3266
▁button	-10.3277
▁stands	-10.3281
▁eternal	-10.3286
▁expedition	-10.3286
▁prevail	-10.3286
▁witch	-10.3286
▁sweep	-10.3286
▁buck	-10.3289
▁supplie	-10.3289
▁doubtless	-10.329
▁jean	-10.3291
▁rub	-10.3292
▁steep	-10.3312
▁pal	-10.3318
▁tad	-10.3334
▁endeavour	-10.3338
▁neglect	-10.3338
▁fri	-10.3344
ex	-10.3357
▁hay	-10.3362
▁district	-10.3364
▁leaf	-10.3365
▁offend	-10.3368
▁loft	-10.3368
▁nut	-10.338
▁bushe	-10.338
▁fin	-10.3382
▁luc	-10.3384
▁complain	-10.3387
▁craft	-10.3391
▁atmosphere	-10.3395
▁notion	-10.3397
▁har	-10.3399
▁expense	-10.3417
▁disposition	-10.3417
▁winds	-10.3429
▁andrew	-10.3432
▁feared	-10.3436
▁hell	-10.3437
▁recommend	-10.3443
▁creep	-10.3444
▁groan	-10.3447
▁pretend	-10.345
▁leisure	-10.347
▁j	-10.3472
▁polly	-10.3472
▁failure	-10.3474
▁palm	-10.3487
▁patt	-10.3492
▁settle	-10.3496
▁possibilit	-10.3497
▁puzzl	-10.3498
▁anywhere	-10.3504
▁bench	-10.3507
▁hunger	-10.3512
▁guns	-10.3516
▁reproach	-10.3523
▁stout	-10.3527
▁threaten	-10.3535
work	-10.3537
▁polite	-10.3542
▁idle	-10.3543
▁fi	-10.3552
▁cab	-10.3552
▁traveller	-10.3572
▁mirror	-10.3577
▁numerous	-10.3577
▁clerk	-10.3577
▁librar	-10.3577
▁metal	-10.3581
▁drunk	-10.3597
▁invited	-10.3598
▁richard	-10.36
▁generation	-10.3604
▁thomas	-10.3604
▁june	-10.3607
▁maybe	-10.361
▁protection	-10.3614
▁mud	-10.3616
▁katy	-10.3617
▁earn	-10.3621
▁robber	-10.3623
▁ornament	-10.3631
▁score	-10.3633
ang	-10.3633
▁affect	-10.3636
▁ba	-10.3636
▁steam	-10.3637
▁monte	-10.364
▁gro	-10.3641
▁comb	-10.3652
▁lieutenant	-10.3658
▁uniform	-10.3658
▁regiment	-10.3658
▁bid	-10.3665
▁fro	-10.3673
▁tre	-10.3684
▁twist	-10.3685
▁collect	-10.3698
▁crep	-10.3711
▁counsel	-10.3712
▁western	-10.3712
▁flatter	-10.3717
▁sore	-10.3719
▁ceremon	-10.3719
▁barn	-10.3719
▁wandering	-10.3724
▁dig	-10.3726
▁knights	-10.3727
▁benefit	-10.3739
▁variet	-10.3741
▁flo	-10.3749
▁chris	-10.3757
oon	-10.3766
▁contempt	-10.3766
▁cattle	-10.3767
ug	-10.3778
▁restor	-10.3778
▁strip	-10.3788
well	-10.3791
▁monster	-10.3795
▁batter	-10.3796
▁warning	-10.3797
▁plead	-10.3806
▁northern	-10.3822
▁pearl	-10.3822
ole	-10.3832
▁sons	-10.3836
▁bones	-10.3839
ai	-10.3842
▁vari	-10.3848
▁local	-10.3849
▁statement	-10.385
▁banks	-10.3867
▁hopes	-10.3869
▁opera	-10.3871
▁ambition	-10.3877
▁grateful	-10.3877
▁stoop	-10.3877
▁madam	-10.388
▁harmon	-10.3887
▁unre	-10.3896
▁rabbit	-10.3904
▁deny	-10.391
ification	-10.3921
▁dart	-10.3922
▁studie	-10.3923
▁confirm	-10.3932
▁rent	-10.3942
▁rod	-10.3959
▁province	-10.396
▁nerve	-10.396
▁bloom	-10.3961
▁prefer	-10.3964
▁pant	-10.3964
broad	-10.3976
▁exhibit	-10.3982
▁execution	-10.3993
▁exceeding	-10.4007
▁chill	-10.4015
▁mankind	-10.4016
▁thread	-10.4017
▁spell	-10.4018
oc	-10.4018
▁bestow	-10.4022
▁tra	-10.4028
▁gasp	-10.4029
▁tip	-10.4031
▁ruth	-10.4035
▁glow	-10.4036
▁noon	-10.4037
▁hospital	-10.4039
▁amid	-10.4039
▁quarters	-10.404
▁spiritual	-10.4044
▁artist	-10.4045
▁furious	-10.4046
▁deni	-10.4047
▁neat	-10.405
▁weakness	-10.4063
▁interview	-10.4072
▁fu	-10.4073
▁haunt	-10.4074
▁rail	-10.4077
▁factor	-10.4078
▁bon	-10.4081
▁supreme	-10.4086
▁straw	-10.4094
▁bat	-10.4098
▁impulse	-10.41
▁sooth	-10.4104
▁monk	-10.4105
▁intent	-10.4105
▁tide	-10.4108
▁rays	-10.4119
▁isabel	-10.4127
▁confin	-10.4129
▁insult	-10.4129
▁crawl	-10.4131
▁dragon	-10.4133
▁l	-10.4137
gan	-10.4148
▁slip	-10.4151
▁arise	-10.4155
▁ralph	-10.4157
▁valuable	-10.4157
▁commenc	-10.4157
▁diana	-10.4159
▁development	-10.4162
▁date	-10.4164
▁endure	-10.4169
more	-10.4179
▁blessing	-10.4185
▁celebrat	-10.4186
▁convey	-10.4186
▁disappointment	-10.4186
▁desk	-10.4187
▁tax	-10.4191
▁fever	-10.4194
tting	-10.4201
▁forces	-10.4204
▁assembl	-10.4204
ew	-10.4205
▁beaten	-10.4205
▁tie	-10.421
▁obedien	-10.4214
▁audience	-10.4214
▁invitation	-10.4214
▁passenger	-10.4214
▁steady	-10.4215
▁poem	-10.4216
▁stirr	-10.4221
▁arab	-10.4235
▁helpless	-10.4235
tuck	-10.4241
▁cultivat	-10.4243
▁esteem	-10.4243
▁grandmother	-10.4243
▁aspect	-10.4243
▁italian	-10.4243
▁revolution	-10.4249
uous	-10.4251
▁gather	-10.4265
▁thirteen	-10.4272
▁swear	-10.4272
▁marilla	-10.4272
▁irish	-10.4273
ington	-10.4282
▁china	-10.4282
▁mild	-10.4284
▁feather	-10.4297
▁countrie	-10.4298
▁publish	-10.43
▁medicine	-10.43
▁spectacle	-10.43
ev	-10.4301
zi	-10.4303
▁eaten	-10.4311
▁fifth	-10.4311
▁elect	-10.4325
▁mourn	-10.4327
▁bla	-10.4329
▁abrupt	-10.4329
▁sunshine	-10.4329
▁brook	-10.433
▁tend	-10.433
▁marble	-10.4331
▁conviction	-10.4333
▁handle	-10.4337
▁inspir	-10.4354
cation	-10.4356
▁furniture	-10.4358
▁snake	-10.4358
▁error	-10.436
▁total	-10.4363
ries	-10.4378
▁belov	-10.4378
ison	-10.4383
▁purple	-10.4387
▁shudder	-10.4387
▁mock	-10.4396
rous	-10.4412
▁franc	-10.4413
uch	-10.4414
▁created	-10.4416
▁independent	-10.4416
▁rachel	-10.4416
▁dwell	-10.4424
▁issue	-10.4437
▁melt	-10.4437
▁kit	-10.4441
▁physician	-10.4447
▁permit	-10.4448
▁branch	-10.4459
▁doll	-10.4469
▁destruction	-10.4475
withstand	-10.4476
▁male	-10.4481
nda	-10.4483
▁mont	-10.4483
▁wet	-10.4488
▁conquer	-10.4495
▁flour	-10.4507
▁walter	-10.4507
▁glorious	-10.4534
▁pierc	-10.4536
can	-10.4544
▁accord	-10.4554
▁cries	-10.456
▁linger	-10.4565
▁deserve	-10.457
▁goat	-10.4582
▁absent	-10.4593
▁debt	-10.4593
▁mouse	-10.4595
▁pie	-10.4626
▁virginia	-10.4627
▁cro	-10.4648
▁messenger	-10.4653
▁multitude	-10.4653
▁collar	-10.4653
▁thornton	-10.4654
▁kick	-10.4655
▁oliver	-10.4658
▁commander	-10.4667
▁chap	-10.4673
▁plum	-10.4679
▁startle	-10.468
▁griev	-10.4682
▁disgrace	-10.4683
▁florence	-10.4683
▁nail	-10.4688
▁silly	-10.4707
▁borne	-10.4713
▁catholic	-10.4713
▁poverty	-10.4713
▁lightning	-10.4718
▁chase	-10.4725
▁backward	-10.4726
lon	-10.4729
▁robe	-10.4734
▁disgust	-10.4743
▁tristram	-10.4743
▁citizens	-10.4745
▁pursuit	-10.4747
ib	-10.475
▁discussion	-10.475
▁goodness	-10.4754
lli	-10.4755
▁ski	-10.4757
mate	-10.4763
▁tempt	-10.4769
ux	-10.477
▁shirt	-10.4773
▁rifle	-10.4773
▁leather	-10.4773
▁student	-10.4774
▁engagement	-10.4775
▁needs	-10.4776
▁dearest	-10.479
▁upward	-10.4803
▁beach	-10.4807
▁swell	-10.4811
▁joke	-10.4812
▁rum	-10.4813
▁div	-10.4819
▁bab	-10.4823
▁lincoln	-10.4834
▁pistol	-10.4834
▁someone	-10.4836
▁beam	-10.4848
▁instruction	-10.4868
▁folks	-10.4869
▁galler	-10.488
ake	-10.4888
▁fra	-10.4891
▁decision	-10.4895
▁philosopher	-10.4895
▁entreat	-10.4895
▁dangl	-10.4895
▁washington	-10.4896
▁polish	-10.4896
▁bidd	-10.4896
▁staff	-10.4896
▁mil	-10.4906
▁ter	-10.4916
bury	-10.492
▁border	-10.4926
▁frown	-10.4926
▁gates	-10.493
ire	-10.4934
▁absurd	-10.4939
▁slope	-10.4939
▁surrounding	-10.4947
▁scale	-10.4949
pen	-10.4949
▁committee	-10.4957
▁fence	-10.4958
▁hi	-10.496
▁tomb	-10.4974
▁russian	-10.4975
▁preserve	-10.4976
▁memor	-10.4981
▁farewell	-10.4987
▁stain	-10.4987
▁spur	-10.4995
▁mule	-10.5002
▁occur	-10.5005
▁impress	-10.5011
▁manners	-10.5016
▁enthusiasm	-10.5018
▁lunch	-10.5018
▁undertake	-10.5018
▁char	-10.5021
▁humanity	-10.5023
▁gri	-10.5026
▁cheese	-10.505
atory	-10.5053
▁disturbed	-10.5065
▁lit	-10.5065
▁compar	-10.5066
▁distinguish	-10.5071
▁dish	-10.5073
▁peep	-10.5081
▁definite	-10.5081
▁vice	-10.5091
▁sincere	-10.51
▁kin	-10.5108
▁famili	-10.5109
▁organ	-10.5111
▁gracious	-10.5112
▁unpleasant	-10.5112
▁remote	-10.5112
▁defeat	-10.5112
▁origin	-10.5116
▁agon	-10.513
▁cell	-10.5136
▁vote	-10.5141
▁facult	-10.5143
▁counter	-10.5147
▁com	-10.5153
board	-10.5165
▁pony	-10.5179
▁simon	-10.518
▁coward	-10.5188
▁abilit	-10.5192
▁recognize	-10.5192
▁eyed	-10.5202
▁consum	-10.5206
▁cloak	-10.5206
▁jest	-10.521
ja	-10.521
▁wip	-10.5224
▁acquir	-10.5229
▁mari	-10.5232
▁dwarf	-10.5238
▁shriek	-10.5238
▁overcome	-10.5238
ko	-10.5238
▁hook	-10.5238
▁por	-10.5247
▁starv	-10.5247
▁weeping	-10.5257
▁proceeding	-10.5259
▁disappointed	-10.526
▁profession	-10.5261
▁fil	-10.5263
▁bolt	-10.5272
ou	-10.5281
▁weigh	-10.5282
chi	-10.5299
▁cutting	-10.5305
▁shy	-10.5316
▁growth	-10.5321
▁blo	-10.5323
▁ned	-10.5323
▁phrase	-10.5333
▁opposition	-10.5333
▁characteristic	-10.5334
▁honey	-10.5335
▁pool	-10.5337
▁wrappe	-10.5342
▁distinction	-10.5349
▁feeble	-10.535
▁rejoin	-10.5365
▁glimpse	-10.5365
▁coach	-10.5365
▁monkey	-10.5366
▁nu	-10.5375
▁receiv	-10.538
▁jol	-10.5381
▁manifest	-10.5393
▁channel	-10.5397
▁platform	-10.5397
▁appetite	-10.5398
▁reputation	-10.5399
wn	-10.541
▁murderer	-10.5413
▁cunning	-10.543
▁institution	-10.543
▁satisfy	-10.543
▁boast	-10.543
▁compliment	-10.5431
▁dining	-10.5434
▁fitt	-10.5437
▁emily	-10.5437
▁graceful	-10.5439
▁jar	-10.5443
▁dressing	-10.5444
▁prepar	-10.5457
▁oath	-10.5459
▁conception	-10.5462
▁pepper	-10.5462
▁del	-10.5462
ick	-10.5464
▁teaching	-10.5465
▁toil	-10.5466
▁lane	-10.5476
ith	-10.5477
▁whirl	-10.5494
▁ban	-10.5501
▁guards	-10.5504
▁sale	-10.5512
▁center	-10.5516
▁eve	-10.552
▁recognis	-10.5527
▁slain	-10.5527
▁piano	-10.5527
▁rival	-10.5528
▁ventur	-10.5543
▁indicat	-10.5543
▁elbow	-10.556
▁repair	-10.556
▁dislike	-10.5562
▁clay	-10.557
▁frog	-10.5575
▁remove	-10.5588
▁gai	-10.559
▁horizon	-10.5592
▁nicholas	-10.5592
▁breeze	-10.5592
▁dusk	-10.5593
▁inclination	-10.56
gar	-10.5606
▁clo	-10.5609
▁breed	-10.5614
▁deriv	-10.5617
▁encourage	-10.5622
▁indifferent	-10.5625
▁product	-10.5626
▁susan	-10.5626
▁gallant	-10.5626
▁deem	-10.5633
▁vol	-10.5649
all	-10.5649
▁thither	-10.5658
▁revenge	-10.5658
▁timid	-10.5659
▁twin	-10.5661
▁norman	-10.5663
▁rob	-10.5667
▁exchange	-10.5671
▁dwelling	-10.5672
▁weari	-10.5677
▁respond	-10.5691
▁column	-10.5691
▁thrill	-10.5691
▁spear	-10.5692
▁swing	-10.5696
▁cru	-10.5698
hu	-10.5699
▁ages	-10.57
cut	-10.5701
▁contribut	-10.5725
▁cautious	-10.5725
▁foe	-10.5726
▁passionate	-10.573
▁expectation	-10.5743
▁realize	-10.5755
▁luxur	-10.5757
▁rejoice	-10.5758
▁capacit	-10.5759
▁waist	-10.5761
▁humor	-10.5762
▁brick	-10.5762
▁selfish	-10.5768
▁net	-10.5775
ap	-10.5777
▁forever	-10.5784
▁nan	-10.5789
▁smart	-10.5792
▁harsh	-10.5793
▁fed	-10.5798
▁perish	-10.58
▁treatment	-10.5803
▁greet	-10.5806
▁hol	-10.5809
▁spar	-10.5817
ya	-10.5819
▁recollect	-10.5819
▁ben	-10.5825
▁function	-10.5825
▁cheap	-10.5825
▁dismiss	-10.5826
fare	-10.5829
▁lar	-10.5844
▁ward	-10.5846
▁causes	-10.5849
▁rein	-10.5853
▁doctrine	-10.5859
▁mischief	-10.5859
▁flutter	-10.5859
▁pillow	-10.586
▁comment	-10.5862
car	-10.5868
▁mate	-10.5876
▁italy	-10.5878
▁medi	-10.588
▁govern	-10.5884
▁ashe	-10.5891
▁accuse	-10.5892
▁africa	-10.5892
▁prophet	-10.5892
▁flock	-10.5896
▁separat	-10.5898
fall	-10.5899
uff	-10.5908
▁bewilder	-10.5926
▁philosophy	-10.5926
▁shield	-10.5926
▁bernard	-10.5926
▁endeavor	-10.5926
▁monarch	-10.5927
▁herbert	-10.5927
▁theatre	-10.5928
▁approv	-10.5929
▁duck	-10.5932
▁brand	-10.5932
▁sway	-10.594
▁decide	-10.5942
▁hopeless	-10.5948
▁restless	-10.5951
▁execut	-10.5952
▁pea	-10.5952
▁epi	-10.5954
▁perch	-10.5957
▁fascinat	-10.596
▁sultan	-10.596
▁tremendous	-10.596
▁reform	-10.596
▁chimney	-10.5961
▁beating	-10.5966
▁fountain	-10.5995
▁ignorance	-10.5996
how	-10.5997
▁ram	-10.6003
▁community	-10.6014
cha	-10.6025
▁industr	-10.6027
▁league	-10.6029
▁uncertain	-10.6029
▁reference	-10.6029
▁albert	-10.6029
▁bro	-10.6029
▁bowl	-10.6034
▁examine	-10.6037
lock	-10.6038
▁lights	-10.6047
▁gal	-10.6053
▁grain	-10.6056
sail	-10.6058
▁sk	-10.6063
▁contrast	-10.6063
▁criminal	-10.6063
▁shift	-10.6063
▁vigorous	-10.6064
▁talent	-10.6065
▁hatred	-10.6065
▁confused	-10.6066
▁belt	-10.6067
▁motionless	-10.6075
▁grove	-10.6075
▁sunk	-10.6076
▁shiver	-10.6098
▁representative	-10.6099
ttle	-10.6104
ana	-10.6107
ency	-10.6118
▁autumn	-10.6132
▁disguise	-10.6132
▁permissi	-10.6133
▁partner	-10.6148
▁torture	-10.6148
▁purse	-10.615
▁freely	-10.6151
▁prey	-10.6151
▁compos	-10.6154
▁retort	-10.6167
▁slender	-10.6167
▁snatch	-10.6167
▁vivid	-10.6167
▁avail	-10.6167
▁neighbourhood	-10.6168
▁dun	-10.6168
▁johnson	-10.6168
▁pressure	-10.6171
▁worry	-10.6176
▁whip	-10.6177
▁angle	-10.6183
▁disturb	-10.6185
▁belonging	-10.6188
▁rolling	-10.6194
rity	-10.62
▁scientific	-10.6202
▁renew	-10.6202
▁frightful	-10.6203
▁venge	-10.6204
▁sparkl	-10.6204
▁cream	-10.6204
▁communication	-10.6206
▁amusement	-10.6207
▁apply	-10.6212
▁sch	-10.6221
gue	-10.623
▁standard	-10.6233
▁continent	-10.6237
▁intelligent	-10.6237
▁occupation	-10.6237
▁yonder	-10.6238
▁association	-10.624
▁plot	-10.624
▁sur	-10.6242
▁lor	-10.6244
▁easi	-10.6246
▁super	-10.6246
▁purchase	-10.6255
▁ger	-10.6268
▁duchess	-10.6272
▁bud	-10.6273
▁secur	-10.6278
▁assume	-10.6278
▁rug	-10.628
▁quot	-10.6299
ese	-10.6299
▁cristo	-10.6308
▁favorite	-10.6308
▁planet	-10.631
▁needle	-10.6318
▁enjoyment	-10.6319
▁damp	-10.632
▁rules	-10.6327
▁inner	-10.6335
▁sensitive	-10.6342
▁ceter	-10.6343
▁classe	-10.6352
▁doubtful	-10.6365
▁pretended	-10.6369
▁fog	-10.6372
▁deliberate	-10.6378
▁depriv	-10.6378
▁portrait	-10.6378
▁naked	-10.6378
▁attendant	-10.6383
▁examination	-10.6386
▁gathering	-10.6393
▁yell	-10.6396
day	-10.6405
▁hadn	-10.6406
ctor	-10.6406
▁dale	-10.641
▁ann	-10.6412
▁stomach	-10.6413
▁blessed	-10.6419
▁lust	-10.6423
▁hedge	-10.6433
▁whit	-10.6438
han	-10.647
▁magistrate	-10.6485
▁pupil	-10.6485
▁shepherd	-10.6485
▁glove	-10.6485
▁humour	-10.6485
▁divers	-10.6492
▁jaw	-10.6495
▁pat	-10.6504
ria	-10.6506
▁tradition	-10.6521
▁hind	-10.6527
▁shar	-10.653
▁keeper	-10.6534
▁toby	-10.6546
▁egg	-10.655
▁shooting	-10.6551
▁egypt	-10.6552
▁lodging	-10.6557
▁central	-10.6557
▁puff	-10.6561
lia	-10.6563
▁uneas	-10.6565
ella	-10.6579
▁hawk	-10.6583
▁nav	-10.6589
▁exception	-10.6594
▁doom	-10.66
▁secretary	-10.6601
▁touching	-10.6606
▁perfection	-10.6609
▁fan	-10.661
▁pope	-10.6611
▁fr	-10.6613
▁external	-10.663
▁anchor	-10.663
▁suppress	-10.663
▁snapp	-10.6633
hen	-10.6637
▁sew	-10.6647
▁activity	-10.6649
▁mars	-10.6653
▁tenderness	-10.6656
▁map	-10.6665
▁shouldn	-10.6671
ulat	-10.6673
▁fired	-10.6676
▁deposit	-10.6678
▁persist	-10.6688
ez	-10.669
▁pra	-10.6691
▁persuad	-10.6695
▁scholar	-10.6703
▁territor	-10.6703
▁japan	-10.6703
▁solitar	-10.6703
▁eastern	-10.6703
▁driver	-10.6706
▁merri	-10.6706
▁commission	-10.6718
▁india	-10.6731
▁crow	-10.6732
▁accompany	-10.674
▁withdraw	-10.674
▁wreck	-10.674
▁francis	-10.6742
▁lily	-10.6745
▁perpetual	-10.6745
▁pointing	-10.6756
▁porter	-10.6758
▁acknowledg	-10.6764
▁eu	-10.6767
▁orange	-10.6777
▁detective	-10.6778
▁moonlight	-10.678
▁seize	-10.6795
▁propose	-10.68
▁explor	-10.6813
▁porthos	-10.6814
▁dar	-10.6825
▁comrade	-10.6827
▁hail	-10.6828
▁apt	-10.6834
▁doorway	-10.6835
▁literature	-10.6851
▁scotland	-10.6851
▁scratch	-10.6851
▁wrath	-10.6851
▁section	-10.6853
▁torment	-10.6855
▁engineer	-10.6856
▁kid	-10.6856
▁starting	-10.6857
▁rever	-10.6862
▁sober	-10.6869
▁amaze	-10.6873
▁prepare	-10.6875
▁sink	-10.6885
▁enable	-10.6887
▁increasing	-10.6888
▁wax	-10.6891
▁reasonable	-10.6892
▁lament	-10.6893
▁weep	-10.6907
▁boats	-10.6925
▁blank	-10.6925
miss	-10.6925
▁fowl	-10.6925
▁whither	-10.6926
▁mag	-10.693
▁childhood	-10.6932
▁deceiv	-10.6936
▁bak	-10.6944
▁heir	-10.6955
▁span	-10.6957
▁cord	-10.6958
▁legal	-10.6961
▁awkward	-10.6963
▁liberal	-10.6963
▁saturday	-10.6963
▁unit	-10.6969
cast	-10.699
▁addition	-10.6994
▁career	-10.7011
▁fame	-10.7019
▁chu	-10.7019
▁contriv	-10.7037
▁napoleon	-10.7039
▁dutch	-10.7039
▁surviv	-10.7039
▁scent	-10.7043
▁blew	-10.7043
▁grat	-10.7047
▁necessari	-10.705
▁wiv	-10.7052
woke	-10.7063
▁scorn	-10.7074
▁practis	-10.7077
▁eagle	-10.7077
▁cardinal	-10.7077
▁skirt	-10.7077
▁ray	-10.7077
▁sobb	-10.7081
▁preach	-10.7084
▁plann	-10.7085
shire	-10.7096
▁barr	-10.7097
▁sca	-10.7111
▁conflict	-10.7115
▁enterprise	-10.7115
▁genuine	-10.7115
▁coffin	-10.7115
▁bedroom	-10.7117
▁affectionate	-10.7119
▁bind	-10.7119
▁mat	-10.7125
▁foundation	-10.7128
▁bun	-10.713
▁linen	-10.713
▁anyway	-10.7135
▁curve	-10.7137
▁moss	-10.7145
▁tap	-10.7146
▁rescue	-10.7149
▁detect	-10.7151
▁favourite	-10.7154
▁hush	-10.7156
▁woe	-10.7159
▁slavery	-10.7167
▁growl	-10.7169
▁politic	-10.7174
▁offering	-10.7182
▁paw	-10.7183
▁ya	-10.7189
▁differ	-10.719
▁mutual	-10.7192
▁refuge	-10.7192
▁sleeve	-10.7192
▁surrender	-10.7192
▁zeal	-10.7192
▁bundle	-10.7192
▁knot	-10.7192
▁outward	-10.7192
▁folly	-10.7193
▁wilt	-10.7195
▁swor	-10.7196
▁wage	-10.7197
▁mail	-10.7203
▁outline	-10.7207
▁desires	-10.7211
▁v	-10.722
▁comprehend	-10.723
▁copy	-10.7231
▁trot	-10.7236
▁shouting	-10.7238
▁wel	-10.7244
▁invent	-10.7247
burg	-10.7253
itch	-10.7266
▁serpent	-10.7269
▁income	-10.7269
▁kitty	-10.7272
▁raising	-10.7272
▁hideous	-10.7274
▁louise	-10.728
▁beggar	-10.729
▁drag	-10.7297
acy	-10.73
rie	-10.7303
▁marguerite	-10.7308
▁solitude	-10.7308
▁improvement	-10.7308
▁summit	-10.7308
▁proposition	-10.7308
▁germany	-10.7323
▁lend	-10.7325
▁restrain	-10.733
▁crystal	-10.7348
▁mask	-10.7349
▁ladder	-10.7349
▁department	-10.7355
▁vein	-10.7361
▁guid	-10.7364
▁fashioned	-10.7368
▁julie	-10.7371
▁axe	-10.7376
▁securit	-10.7383
▁wick	-10.7385
▁congress	-10.7386
▁twilight	-10.7386
▁funeral	-10.7386
▁gallop	-10.7387
▁funny	-10.7387
▁scarlet	-10.7388
▁bone	-10.7394
▁respectful	-10.7403
▁lace	-10.7413
▁citizen	-10.7423
▁warriors	-10.7424
▁crop	-10.7425
▁ireland	-10.7426
▁arouse	-10.7436
▁marks	-10.7442
▁damn	-10.7445
▁hare	-10.7446
▁defence	-10.7465
▁sustain	-10.7465
▁views	-10.7469
▁una	-10.7472
▁quoth	-10.7475
▁unlike	-10.7481
▁apolog	-10.7483
ridge	-10.7485
▁alyosha	-10.7505
▁moderate	-10.7505
▁civilization	-10.7508
▁assistant	-10.7508
ied	-10.7509
bro	-10.7515
▁referr	-10.7515
▁fatigue	-10.7517
▁masse	-10.7517
▁authorit	-10.7523
▁preferr	-10.7524
▁disc	-10.7526
▁engine	-10.7539
▁enchant	-10.7541
▁fragment	-10.7545
▁miracle	-10.7545
▁roast	-10.7545
▁population	-10.7545
ignation	-10.7545
▁formal	-10.7546
▁pond	-10.7553
▁phil	-10.7555
▁cure	-10.7576
▁pulling	-10.7577
atic	-10.758
▁infant	-10.7582
▁spain	-10.7585
▁idiot	-10.7585
▁inch	-10.7595
▁proposal	-10.7597
▁sofa	-10.7604
▁hil	-10.7606
▁outer	-10.7613
▁indulg	-10.7623
▁division	-10.7625
▁natasha	-10.7625
▁resource	-10.7625
▁cotton	-10.7625
▁satisfactor	-10.7627
▁claw	-10.7636
▁coloni	-10.7642
▁crossing	-10.7645
▁acting	-10.7657
titude	-10.7658
▁rap	-10.7659
▁unw	-10.766
▁contact	-10.7665
▁prejudice	-10.7665
▁reliev	-10.7671
▁temptation	-10.7671
▁salut	-10.7683
bal	-10.7684
▁assent	-10.7684
▁today	-10.769
▁wretch	-10.769
▁educat	-10.7699
▁porch	-10.7702
▁cats	-10.7705
▁overwhelm	-10.7706
▁tobacco	-10.7706
▁copper	-10.7706
▁muscle	-10.7706
▁assurance	-10.7707
▁repose	-10.7707
▁tread	-10.7708
▁persuade	-10.7714
▁bible	-10.7723
▁drops	-10.7727
▁dishe	-10.7741
▁breathing	-10.7742
▁chicken	-10.7746
▁crimson	-10.7746
▁survey	-10.7746
▁blanket	-10.7747
▁nap	-10.775
▁swim	-10.7751
▁acknowledge	-10.776
▁ripe	-10.7763
▁sob	-10.7766
▁annoy	-10.7786
▁concentrat	-10.7787
▁disorder	-10.7787
▁sancho	-10.7787
▁loyal	-10.7787
▁cordial	-10.7788
▁deer	-10.7789
▁annie	-10.7791
▁martin	-10.7791
▁solicit	-10.7793
▁barrel	-10.7797
itude	-10.7797
▁drum	-10.7799
▁ridge	-10.7807
▁shad	-10.7808
▁doth	-10.7809
▁ox	-10.7819
▁ador	-10.7825
▁velvet	-10.7828
▁shakespeare	-10.7828
▁crash	-10.7831
▁peaceful	-10.7841
▁quit	-10.7847
▁rust	-10.7848
▁lands	-10.7849
▁conceive	-10.7858
▁steamer	-10.786
▁admirabl	-10.7869
▁reject	-10.7869
▁clutch	-10.7869
▁mixture	-10.7869
▁vital	-10.7869
▁musical	-10.787
▁jackson	-10.787
▁sack	-10.7876
▁combat	-10.7881
qua	-10.7882
wick	-10.7887
▁brig	-10.7888
▁cling	-10.7892
▁frost	-10.7896
▁hire	-10.7897
▁emma	-10.7904
▁ruler	-10.7909
▁distribut	-10.791
▁thief	-10.791
▁trifle	-10.7918
▁moist	-10.7918
▁flee	-10.7947
▁confident	-10.7951
▁devotion	-10.7952
▁motor	-10.7952
▁nancy	-10.7953
▁penny	-10.7956
▁cellar	-10.7958
tta	-10.7958
▁vow	-10.7958
ju	-10.7959
▁recollection	-10.796
▁cub	-10.7961
▁shan	-10.7963
igh	-10.7967
▁shine	-10.7975
▁daring	-10.7976
▁relate	-10.7979
▁pronounced	-10.799
▁moor	-10.7991
▁borrow	-10.7994
▁attentive	-10.7994
▁exquisite	-10.7994
▁indignant	-10.7994
▁jacob	-10.7994
▁brute	-10.7994
▁mould	-10.7994
▁transport	-10.7994
▁construct	-10.7994
▁worm	-10.7995
▁railway	-10.7995
▁determination	-10.7995
▁robb	-10.8013
▁riches	-10.8017
▁hum	-10.802
▁retire	-10.8031
▁dorothy	-10.8035
▁invisible	-10.8035
▁obscure	-10.8035
▁performance	-10.8041
app	-10.8042
▁rider	-10.8055
▁succession	-10.8059
▁clothing	-10.8059
▁miner	-10.8061
▁painting	-10.8065
▁majorit	-10.8075
▁convenient	-10.8077
▁screen	-10.8077
▁dismay	-10.8078
ibilit	-10.8078
▁coarse	-10.8078
▁bullet	-10.8078
▁induc	-10.8079
▁ends	-10.8093
▁emerg	-10.8097
▁avenue	-10.812
▁bargain	-10.812
▁feathers	-10.8124
▁charity	-10.8128
▁minor	-10.8129
▁establishment	-10.8129
▁equ	-10.8131
▁procession	-10.8132
▁slu	-10.8134
▁peril	-10.8135
▁provide	-10.8139
▁curse	-10.814
▁realis	-10.8144
▁essence	-10.8162
▁decent	-10.8162
▁saving	-10.8162
▁sunset	-10.8163
▁stephen	-10.8163
hold	-10.8179
room	-10.8183
▁blade	-10.8186
▁balance	-10.819
▁sim	-10.8191
▁economic	-10.8205
▁holiday	-10.8205
▁pluck	-10.8205
▁valjean	-10.8205
▁corpse	-10.8205
▁goose	-10.8205
▁altar	-10.8205
▁complaint	-10.821
▁speaker	-10.8219
▁confession	-10.8223
▁fist	-10.8228
ching	-10.8236
▁lid	-10.8244
▁undoubted	-10.8247
▁inferior	-10.8247
▁residence	-10.8247
▁wilson	-10.8248
▁replac	-10.8248
▁partie	-10.8248
▁repent	-10.8248
▁couch	-10.825
▁inward	-10.825
▁issu	-10.8257
▁contented	-10.826
▁miller	-10.8261
▁gang	-10.8261
mmed	-10.8264
▁endur	-10.8267
▁comrades	-10.8275
▁ham	-10.8276
fold	-10.828
▁der	-10.8285
▁footstep	-10.829
▁indifference	-10.829
▁brandon	-10.8298
▁mechanical	-10.83
took	-10.8302
▁elde	-10.8304
▁boot	-10.8324
▁desir	-10.8326
▁apprehension	-10.8333
▁despite	-10.8333
▁ridiculous	-10.8333
▁hesitation	-10.8333
▁resistance	-10.8337
▁ensu	-10.8351
foot	-10.8364
▁songs	-10.8369
▁contemplat	-10.837
▁correspond	-10.8375
▁accent	-10.8377
▁reception	-10.8377
▁slice	-10.8377
▁handed	-10.8383
▁magician	-10.8383
▁allah	-10.8391
▁indicate	-10.8391
▁inquire	-10.8392
▁prose	-10.8414
▁resign	-10.8416
▁staircase	-10.842
▁cherish	-10.842
▁tendenc	-10.8421
▁advised	-10.8439
▁vine	-10.8453
▁cape	-10.8454
▁dispute	-10.8454
▁introduce	-10.846
▁lecture	-10.8464
▁uncomfortabl	-10.8464
▁froze	-10.8465
▁bald	-10.8468
▁thence	-10.847
▁peak	-10.8471
▁cannon	-10.8476
ino	-10.8479
▁stra	-10.8486
▁suppos	-10.849
▁wherefore	-10.8495
▁coin	-10.8498
▁lee	-10.8499
▁defin	-10.8506
▁congratulat	-10.8508
▁imperfect	-10.8508
▁manufactur	-10.8508
▁excellency	-10.8508
▁tomorrow	-10.8508
▁sarah	-10.8509
▁naught	-10.8509
▁travelling	-10.8513
ola	-10.8513
where	-10.852
▁justifi	-10.8522
▁lawn	-10.8536
▁blaz	-10.855
▁blossom	-10.8552
▁eloquen	-10.8552
▁innocenc	-10.8552
▁vegetable	-10.8552
▁breathe	-10.8553
▁edith	-10.8554
▁lash	-10.8565
▁carve	-10.858
▁oppress	-10.8588
▁dine	-10.8591
▁affirm	-10.8596
▁drake	-10.8596
▁gravit	-10.8596
▁wak	-10.8596
▁offence	-10.8596
▁comparative	-10.8597
▁jerk	-10.8597
▁jam	-10.8599
▁creation	-10.8607
▁july	-10.8607
▁soften	-10.861
cle	-10.8615
burn	-10.8633
af	-10.8634
▁victor	-10.8637
▁lantern	-10.864
▁resolute	-10.864
▁unwilling	-10.864
▁cigar	-10.864
▁raft	-10.864
▁fortnight	-10.8641
▁carlyle	-10.8641
ograph	-10.8641
▁literar	-10.8641
▁throng	-10.8641
▁frederick	-10.8642
▁beef	-10.8646
▁tool	-10.8647
▁collection	-10.8651
▁guardian	-10.8657
▁appreciat	-10.8659
▁passes	-10.8663
▁arrange	-10.8665
ology	-10.8666
▁partial	-10.8668
▁youngest	-10.868
▁import	-10.8682
▁devour	-10.8685
▁sprinkl	-10.8685
▁violet	-10.8685
▁creek	-10.8685
▁convert	-10.8685
▁dumb	-10.8685
▁disagreeable	-10.8687
▁dew	-10.8688
▁triumphant	-10.8689
aries	-10.8694
▁moan	-10.8707
▁gree	-10.8717
▁bodi	-10.8719
▁dense	-10.8722
▁romance	-10.8727
▁mademoiselle	-10.873
▁matthew	-10.873
▁michael	-10.873
▁occupy	-10.873
▁hammer	-10.873
▁facing	-10.873
▁turkey	-10.873
▁reviv	-10.8731
▁romantic	-10.8734
▁brac	-10.874
▁thankful	-10.8746
▁blu	-10.8749
▁campaign	-10.8775
▁trumpet	-10.8775
▁rigid	-10.8775
▁gossip	-10.8775
▁pencil	-10.8775
▁contest	-10.8775
▁jones	-10.8775
▁invention	-10.8782
ora	-10.8789
▁englishman	-10.8794
▁cho	-10.8795
▁captur	-10.8803
▁rushing	-10.8808
▁bend	-10.881
▁heav	-10.8812
▁peg	-10.8816
▁quixote	-10.882
▁normal	-10.8821
▁hoping	-10.8821
▁brisk	-10.8821
▁ashore	-10.8821
▁holland	-10.8822
▁resid	-10.8851
▁interior	-10.8855
▁ken	-10.8856
▁ascertain	-10.8866
▁corridor	-10.8866
▁universe	-10.8866
▁bunch	-10.8866
▁administration	-10.8866
▁translat	-10.8868
▁bred	-10.8874
▁tribe	-10.8883
▁thorn	-10.8895
▁model	-10.8897
▁adventures	-10.89
▁bur	-10.891
▁delicious	-10.8911
▁involuntar	-10.8911
▁average	-10.8912
▁application	-10.8912
▁flourish	-10.8914
▁tiger	-10.8915
▁mun	-10.8922
lar	-10.8929
▁parish	-10.8935
▁journal	-10.8957
▁promot	-10.8957
▁glid	-10.8957
▁stagger	-10.8958
▁bending	-10.8966
▁chatter	-10.8973
oes	-10.8985
cra	-10.899
▁salv	-10.899
▁adorn	-10.8994
▁beth	-10.8996
▁landscape	-10.9003
▁torrent	-10.9003
▁unjust	-10.9003
▁latin	-10.9004
▁stroll	-10.9007
▁raw	-10.9013
▁hal	-10.9017
▁sauce	-10.902
▁angri	-10.9031
▁fishing	-10.9042
▁immortal	-10.905
▁responsibilit	-10.905
▁envy	-10.905
▁slo	-10.905
▁wolve	-10.905
▁niece	-10.905
▁whistl	-10.907
▁ol	-10.908
▁gap	-10.9084
▁anticipat	-10.909
▁april	-10.9096
▁shilling	-10.9096
▁temporar	-10.9098
▁brass	-10.9103
▁rosy	-10.9109
▁mansion	-10.9119
▁hull	-10.9124
▁dat	-10.9128
▁submit	-10.9133
▁reserve	-10.9137
▁vulgar	-10.9143
▁sixth	-10.9144
▁hurl	-10.9144
▁fanny	-10.9144
▁deaf	-10.9147
▁egyptian	-10.915
▁release	-10.9158
▁illness	-10.9161
dor	-10.9168
▁breathless	-10.9169
▁qui	-10.9187
▁challenge	-10.919
▁permanent	-10.919
▁telegraph	-10.919
▁shalt	-10.9191
▁spoon	-10.9191
▁election	-10.92
▁awe	-10.92
▁abuse	-10.92
▁ji	-10.9208
▁dwel	-10.9211
▁hood	-10.9226
▁grip	-10.9231
▁republic	-10.9233
▁reconcil	-10.9237
▁boston	-10.9237
▁strick	-10.9238
▁prudence	-10.924
▁appointment	-10.9245
▁glacier	-10.9249
▁tune	-10.9252
▁assembly	-10.9253
▁basin	-10.9279
▁maxim	-10.9284
▁solomon	-10.9284
▁jimmy	-10.9284
▁spark	-10.9287
▁stake	-10.9289
▁complexion	-10.929
▁troubl	-10.9292
▁demon	-10.9293
▁employment	-10.9297
▁harp	-10.9305
▁wool	-10.9308
▁natured	-10.931
▁resembl	-10.9311
▁mob	-10.9319
▁mission	-10.9324
▁interpret	-10.9327
▁procure	-10.9328
▁penetrate	-10.9332
▁telephone	-10.9332
▁temperature	-10.9332
▁stalk	-10.9332
▁richmond	-10.9334
▁patron	-10.9337
▁jail	-10.9339
▁impose	-10.9344
▁faster	-10.9349
cum	-10.9369
▁convict	-10.9373
▁railroad	-10.938
▁suspend	-10.938
▁device	-10.938
▁brood	-10.938
▁twinkl	-10.938
▁neighborhood	-10.9381
▁raggedy	-10.9392
▁wheat	-10.9398
▁link	-10.9406
▁drawer	-10.9411
fish	-10.9412
▁statue	-10.9418
▁landing	-10.9422
▁wherein	-10.9424
▁forbid	-10.9425
▁septemb	-10.9428
▁ribbon	-10.9428
▁tumult	-10.9428
▁horrid	-10.9428
▁editor	-10.9428
▁stove	-10.9428
▁consol	-10.9431
▁canoe	-10.9431
▁mast	-10.9432
▁hound	-10.9433
▁dante	-10.9436
▁prop	-10.9438
▁collected	-10.9442
▁searching	-10.9442
▁joyous	-10.9445
▁cove	-10.9452
▁dug	-10.9455
▁compare	-10.9457
▁shower	-10.9463
▁fulfill	-10.9468
▁admiral	-10.9476
▁elegant	-10.9476
▁gilbert	-10.9476
▁nephew	-10.9476
▁spaniard	-10.9476
▁impart	-10.9476
▁whale	-10.9476
▁oyster	-10.9476
▁wilderness	-10.9476
▁discourse	-10.9477
▁johnny	-10.9478
▁roger	-10.948
▁limp	-10.948
▁advise	-10.9487
▁judg	-10.9501
▁hearti	-10.9521
▁bert	-10.9524
▁shaggy	-10.9525
▁pop	-10.9528
▁steward	-10.9528
▁indi	-10.9539
gin	-10.9541
▁slipper	-10.955
▁wan	-10.9555
panish	-10.9559
bel	-10.9564
▁terribl	-10.9566
▁corrupt	-10.9573
▁hercule	-10.9573
▁suffice	-10.9573
▁anguish	-10.9573
▁drain	-10.9573
▁op	-10.9575
▁jacket	-10.9575
▁medical	-10.9575
▁stall	-10.9576
▁wink	-10.9589
▁glowing	-10.9598
say	-10.9598
▁pursue	-10.9614
▁prime	-10.9616
▁upright	-10.9617
▁restore	-10.9618
▁crook	-10.9622
▁rascal	-10.9622
▁errand	-10.9622
▁turtle	-10.9623
▁rational	-10.9623
▁composition	-10.9623
▁steer	-10.9624
▁gau	-10.9625
▁spin	-10.9638
▁eighth	-10.9642
▁levin	-10.9644
▁wil	-10.9662
▁abstract	-10.9672
▁believing	-10.9672
▁specimen	-10.9672
▁threshold	-10.9672
▁gru	-10.9672
▁harris	-10.9672
▁balloon	-10.9673
▁settlement	-10.9678
▁rosa	-10.9678
oge	-10.968
hon	-10.9683
▁joyful	-10.9689
▁conceiv	-10.969
arch	-10.9696
▁vanit	-10.9696
▁interfere	-10.9707
j	-10.9709
istic	-10.971
▁travell	-10.971
▁assign	-10.9711
▁agitat	-10.9715
▁slumber	-10.9722
▁canvas	-10.9724
▁knel	-10.9727
▁agitation	-10.9728
▁instruct	-10.973
▁jury	-10.9731
▁semi	-10.9737
▁stirring	-10.9742
▁entr	-10.9767
▁confound	-10.9771
▁embroider	-10.9771
▁launcelot	-10.9771
▁franz	-10.9771
▁simplicit	-10.9773
▁lemon	-10.9774
▁fred	-10.979
izing	-10.9795
▁blast	-10.9797
▁thor	-10.9804
▁pressing	-10.9804
▁pirates	-10.9805
▁nat	-10.9811
▁obstacle	-10.9821
▁sledge	-10.9821
▁combination	-10.9821
▁pavement	-10.9821
▁friday	-10.9821
▁monday	-10.9822
▁timber	-10.9825
chu	-10.9827
▁plat	-10.9851
▁ponder	-10.9859
▁photograph	-10.9871
▁plague	-10.9871
▁reckless	-10.9871
▁senator	-10.9871
▁flora	-10.9879
▁guilt	-10.9882
▁fal	-10.9886
▁polic	-10.9889
▁effective	-10.989
▁tailor	-10.9896
▁butler	-10.991
▁inhabit	-10.992
▁structure	-10.9922
▁swimming	-10.9922
▁slay	-10.9922
▁fawn	-10.9923
▁compassion	-10.9927
▁wail	-10.9927
▁route	-10.9946
▁impatien	-10.9967
▁tim	-10.9968
▁divide	-10.9968
▁embarrass	-10.9969
▁symptom	-10.9973
▁transform	-10.9973
▁enquir	-10.9973
▁jason	-10.9973
▁narrative	-10.9974
▁clapp	-10.9978
▁kneel	-10.9984
▁cash	-10.9986
▁politeness	-10.9988
▁forgett	-10.9992
gate	-10.9996
▁tur	-11.0001
bri	-11.0015
▁alexander	-11.0024
▁ceiling	-11.0024
▁disdain	-11.0024
▁precaution	-11.0024
▁ultimate	-11.0024
▁distract	-11.0024
▁overlook	-11.0024
▁captive	-11.0024
▁cosette	-11.0024
▁orchard	-11.0024
▁traged	-11.0024
▁foul	-11.0027
▁daint	-11.0029
▁despise	-11.003
▁venus	-11.0033
▁flies	-11.0047
▁hurrying	-11.0051
▁speedi	-11.0067
▁conspicuous	-11.0075
▁independence	-11.0075
▁spectator	-11.0075
▁suspicious	-11.0075
▁testimon	-11.0075
▁tyrann	-11.0075
▁sketch	-11.0075
▁bonnet	-11.0075
▁adjust	-11.0075
▁induce	-11.0076
▁villain	-11.0079
▁cruelty	-11.0083
▁convers	-11.0083
▁european	-11.0085
▁endless	-11.0085
▁prosperit	-11.0101
▁carr	-11.0101
▁lifting	-11.0106
▁dropping	-11.0109
▁unsee	-11.0111
▁dame	-11.0111
▁refer	-11.0113
▁crest	-11.0118
▁wont	-11.0121
▁perception	-11.0126
▁surprising	-11.0126
▁kennedy	-11.0126
▁wrinkl	-11.0126
▁abode	-11.0126
▁achiev	-11.0126
▁comparison	-11.0127
▁insect	-11.0127
▁barrier	-11.0127
▁suck	-11.0136
▁spru	-11.0138
ulation	-11.0142
fo	-11.0156
▁profess	-11.0167
▁fright	-11.017
ural	-11.0178
▁descent	-11.0178
▁irregular	-11.0178
▁proclaim	-11.0178
▁substitut	-11.0178
▁waving	-11.0178
uary	-11.0179
▁scott	-11.018
▁pinch	-11.0183
▁piti	-11.0193
dding	-11.0203
rate	-11.0208
▁attribute	-11.0223
▁discipline	-11.023
▁mitya	-11.023
▁sheriff	-11.023
▁amiable	-11.0231
▁extract	-11.0231
▁chop	-11.0232
▁troop	-11.024
▁stray	-11.0259
▁bite	-11.026
▁ki	-11.0261
▁nowhere	-11.0263
▁relieve	-11.0275
▁caution	-11.0283
▁cushion	-11.0283
▁globe	-11.0283
▁array	-11.0283
▁cavern	-11.0283
▁subtle	-11.0283
▁quitt	-11.0283
▁graham	-11.0284
▁elm	-11.0286
▁procur	-11.0287
drew	-11.0297
▁bake	-11.0298
▁complex	-11.0329
▁conclude	-11.033
▁eminent	-11.0335
▁prairie	-11.0335
▁nightingale	-11.0335
▁thumb	-11.0335
▁providence	-11.0336
▁banner	-11.0336
▁inspector	-11.0337
▁foam	-11.0338
▁painter	-11.0346
▁grind	-11.035
▁tho	-11.0358
▁joint	-11.0381
▁tribes	-11.0382
▁greeting	-11.0385
responsible	-11.0388
▁pilgrim	-11.0388
▁instinctive	-11.0393
▁cough	-11.0393
▁professional	-11.0408
▁glittering	-11.0408
▁whistle	-11.0418
▁spy	-11.0419
▁soup	-11.0421
▁deceive	-11.0426
▁statu	-11.043
▁calculate	-11.0441
▁slaughter	-11.0441
▁reverence	-11.0441
▁twas	-11.0442
arian	-11.0459
▁woke	-11.046
▁flowing	-11.0474
▁glancing	-11.0495
▁umbrella	-11.0495
▁diminish	-11.0495
▁apron	-11.0495
▁crouch	-11.0495
▁rebel	-11.0496
▁pleasing	-11.0496
▁drear	-11.0496
▁debat	-11.0497
▁marian	-11.0497
lier	-11.0502
▁entertainment	-11.0503
▁recit	-11.0511
▁boxe	-11.0513
▁critical	-11.0518
tercourse	-11.0525
▁ragged	-11.0536
▁pol	-11.0545
▁rebecca	-11.0549
▁sullen	-11.0549
▁trouser	-11.0549
▁morgan	-11.055
▁extra	-11.0551
▁swamp	-11.0554
▁maker	-11.0557
▁quiver	-11.056
▁lordship	-11.0561
▁production	-11.0562
▁highness	-11.0562
▁melod	-11.0567
▁choke	-11.0571
▁supp	-11.0573
ground	-11.0581
▁gib	-11.0581
▁associate	-11.0589
▁terrifi	-11.0598
▁envelope	-11.0601
▁universit	-11.0603
▁brethren	-11.0603
▁brutal	-11.0603
▁culture	-11.0603
▁exclamation	-11.0603
▁raoul	-11.0603
▁remembrance	-11.0603
▁sergeant	-11.0603
▁shrink	-11.0603
▁shaft	-11.0603
▁commercial	-11.0604
ima	-11.061
aves	-11.0612
▁upset	-11.0614
▁capture	-11.0623
▁pall	-11.0633
▁commerc	-11.0656
▁parlour	-11.0657
▁symbol	-11.0657
▁stump	-11.0657
▁remedy	-11.0657
▁combined	-11.0657
▁resolve	-11.0659
▁turk	-11.0662
▁glasse	-11.0674
▁engage	-11.0694
▁threatening	-11.0694
▁virgin	-11.0704
▁behave	-11.0707
▁undi	-11.0708
▁constitute	-11.0711
▁phenomena	-11.0712
▁invariabl	-11.0712
▁ardent	-11.0712
▁extensive	-11.0712
▁donkey	-11.0712
▁literal	-11.0712
▁thicket	-11.0714
▁mournful	-11.0716
▁russia	-11.0734
▁drug	-11.0747
piece	-11.0754
▁pad	-11.0762
▁concert	-11.0767
▁entitle	-11.0767
▁scold	-11.0767
▁sphere	-11.0767
▁muscular	-11.0767
▁parson	-11.0767
▁hugh	-11.0768
▁bother	-11.0773
▁sailing	-11.0774
dder	-11.0776
▁tightly	-11.0781
bar	-11.0782
▁aboard	-11.0795
▁downward	-11.0798
▁sinking	-11.0802
▁cage	-11.0808
▁mur	-11.0811
▁hinder	-11.0814
▁blowing	-11.0817
▁elephant	-11.0822
▁landlord	-11.0822
▁nautilus	-11.0822
▁caesar	-11.0822
▁crazy	-11.0822
▁declin	-11.0822
▁haught	-11.0824
▁forbidd	-11.0827
▁exertion	-11.0828
▁fitting	-11.0829
▁invad	-11.0829
▁howl	-11.0833
▁lent	-11.0833
▁adj	-11.0836
▁excit	-11.0851
▁shaken	-11.0861
▁laura	-11.0866
▁situat	-11.0871
▁arc	-11.0872
▁strengthen	-11.0872
▁interpos	-11.0874
master	-11.0874
▁assault	-11.0877
▁harbour	-11.0877
▁moscow	-11.0877
▁housekeeper	-11.0877
▁decay	-11.0878
▁exalt	-11.0878
▁split	-11.0879
▁amusing	-11.088
▁prick	-11.0881
▁sunny	-11.0882
▁scro	-11.0884
▁invest	-11.0885
▁fogg	-11.089
▁mare	-11.0896
▁stat	-11.0898
▁mul	-11.09
▁trim	-11.0913
sight	-11.0916
▁za	-11.0921
▁britain	-11.0933
▁maggie	-11.0933
▁monstrous	-11.0933
▁tyrant	-11.0933
▁davy	-11.0933
▁marquis	-11.0933
▁slim	-11.0933
▁prim	-11.0935
▁damage	-11.0935
lves	-11.0939
▁onward	-11.0949
rmo	-11.0961
▁fund	-11.0965
night	-11.0975
mouth	-11.0976
▁mole	-11.098
▁filling	-11.0982
▁yea	-11.0984
▁refresh	-11.0988
▁recognition	-11.0989
▁december	-11.0989
▁delicac	-11.0989
▁wrist	-11.099
▁pledge	-11.099
far	-11.0992
▁medium	-11.0992
▁clover	-11.0993
▁strait	-11.0993
▁create	-11.0998
▁follower	-11.1002
▁discharge	-11.1009
▁hom	-11.101
mont	-11.1016
▁obligation	-11.1016
▁rak	-11.1021
ik	-11.1023
▁chuckle	-11.1031
▁han	-11.1034
▁kat	-11.1035
▁investigat	-11.104
▁defect	-11.1046
▁paradise	-11.1046
▁patriot	-11.1046
▁swarm	-11.1046
▁clung	-11.1047
▁gall	-11.1047
▁excessive	-11.1048
▁resemblance	-11.1048
▁investigation	-11.1052
▁haul	-11.1056
▁lung	-11.1059
▁pac	-11.1072
▁eh	-11.109
▁deserved	-11.1091
▁darken	-11.1093
▁julius	-11.1103
▁probabilit	-11.1103
▁regain	-11.1103
▁resort	-11.1103
▁abraham	-11.1103
▁banish	-11.1106
▁closing	-11.1109
▁chopp	-11.1111
▁determine	-11.1112
ji	-11.1112
▁nun	-11.1119
▁lil	-11.1119
▁hearth	-11.1122
▁communicat	-11.113
▁bough	-11.1151
▁drama	-11.1159
▁artificial	-11.116
▁jasper	-11.116
▁valentine	-11.116
▁detain	-11.116
▁pretti	-11.116
▁text	-11.116
▁glare	-11.1163
▁chant	-11.1169
▁oven	-11.1172
▁resemble	-11.1183
▁gir	-11.1185
▁critic	-11.1188
▁rout	-11.1202
▁gardener	-11.1208
town	-11.1209
▁shrill	-11.1217
▁dismal	-11.1218
▁sweat	-11.1218
▁tenth	-11.1219
▁inevitable	-11.1221
▁py	-11.1221
▁enthusiastic	-11.1227
loo	-11.1253
▁marvel	-11.1257
lus	-11.1257
▁lyn	-11.1264
▁fry	-11.1267
▁threat	-11.1268
▁imitat	-11.1269
▁compass	-11.1269
▁exert	-11.127
▁ignor	-11.1272
▁escort	-11.1275
▁wrought	-11.1275
▁vault	-11.1275
ida	-11.1278
▁formidabl	-11.1278
▁organization	-11.1279
▁rash	-11.1282
▁wig	-11.1283
▁rac	-11.1286
▁sorrowful	-11.1287
▁bigger	-11.129
▁endow	-11.1293
▁reluctant	-11.1301
▁grinn	-11.1302
▁louder	-11.1302
▁commissioner	-11.1309
▁ul	-11.1317
▁abundant	-11.1323
▁disclos	-11.1333
▁illuminat	-11.1333
borough	-11.1334
▁outrage	-11.1334
▁worri	-11.1334
▁breton	-11.1336
ram	-11.1336
▁hostil	-11.1355
▁bre	-11.1363
▁firing	-11.1369
▁team	-11.1371
▁matur	-11.1371
▁sickness	-11.1381
▁fier	-11.1383
▁mono	-11.1386
▁ambassador	-11.1392
▁incredibl	-11.1392
▁federal	-11.1392
▁sneer	-11.1392
▁amelia	-11.1392
▁justify	-11.1392
▁nigh	-11.1395
chester	-11.1397
▁mayor	-11.1404
▁subsid	-11.1404
▁exceed	-11.1414
▁childish	-11.1429
half	-11.1437
▁cavalry	-11.1451
▁remorse	-11.1451
▁gulf	-11.1451
▁liquid	-11.1451
▁flank	-11.1451
▁spargo	-11.1452
tail	-11.1453
▁reserved	-11.1459
▁acquire	-11.1466
▁marsh	-11.1468
▁mic	-11.1475
▁area	-11.1479
▁alleg	-11.1488
▁decorat	-11.1503
▁approve	-11.1505
▁extremit	-11.151
▁gigantic	-11.151
▁october	-11.151
▁perfume	-11.151
▁bulk	-11.151
▁pump	-11.1513
▁pillar	-11.1518
▁rattl	-11.1524
▁sandy	-11.1524
▁unworth	-11.1525
▁dipp	-11.1525
▁beau	-11.1527
▁declaration	-11.1536
▁involv	-11.1541
ological	-11.1542
▁perplex	-11.1555
▁solv	-11.1563
▁charlotte	-11.1569
▁exclusive	-11.1569
▁psmith	-11.1569
▁significant	-11.1569
▁waistcoat	-11.1569
▁bronze	-11.1569
▁stool	-11.1569
▁ellen	-11.157
▁milton	-11.1574
▁consolation	-11.1575
▁bury	-11.1576
▁tire	-11.158
▁gale	-11.1586
ular	-11.1625
▁emphasis	-11.1629
▁droop	-11.1629
▁slew	-11.1629
▁martha	-11.1629
▁habitual	-11.1629
▁repuls	-11.1629
▁pudding	-11.163
▁workmen	-11.163
▁marvellous	-11.1631
▁warrior	-11.1631
▁pon	-11.1632
▁pomp	-11.1637
▁lime	-11.1638
comb	-11.1641
▁democratic	-11.1641
▁oars	-11.1645
▁film	-11.1652
▁revolver	-11.1656
▁releas	-11.1669
▁crumb	-11.1681
back	-11.1684
▁dora	-11.1684
▁confront	-11.1689
▁eleanor	-11.1689
▁unnecessar	-11.1689
dolph	-11.1689
▁warrant	-11.169
▁costume	-11.169
▁edison	-11.169
▁dictat	-11.1691
▁accidental	-11.1691
▁attractive	-11.1695
▁clara	-11.1701
▁attraction	-11.1707
ware	-11.1712
▁idol	-11.1721
▁unb	-11.1722
vin	-11.1725
▁pill	-11.1744
▁enclos	-11.1749
▁attorney	-11.175
▁cluster	-11.175
▁conjecture	-11.175
▁leslie	-11.175
▁prolong	-11.175
▁squeez	-11.175
▁travers	-11.175
▁shelf	-11.175
▁accurate	-11.1751
▁adher	-11.1753
▁behav	-11.1754
▁ivan	-11.1755
▁pacific	-11.1767
▁harness	-11.1769
▁studio	-11.1771
▁agreement	-11.1773
▁purchas	-11.178
▁illustrat	-11.1805
▁california	-11.1811
▁document	-11.1811
▁liquor	-11.1811
▁refrain	-11.1811
▁skilful	-11.1811
▁sublime	-11.1811
▁uncommon	-11.1811
▁perce	-11.1813
▁grape	-11.1814
▁groom	-11.1815
bridge	-11.1822
▁fir	-11.1835
▁pri	-11.1841
position	-11.1853
▁veri	-11.1871
▁degrad	-11.1872
▁plough	-11.1872
▁fantastic	-11.1872
▁tempest	-11.1872
▁occurrence	-11.1872
▁goddess	-11.1872
▁shrewd	-11.1872
▁stifl	-11.1873
▁bridle	-11.1873
▁interven	-11.1874
▁shrugg	-11.1874
▁protestant	-11.1878
▁betty	-11.1878
▁potent	-11.1879
▁desirable	-11.1879
▁durham	-11.1883
▁assertion	-11.1887
▁owl	-11.189
▁appreciate	-11.1908
▁whipp	-11.1916
▁basi	-11.1917
▁pul	-11.1922
▁appropriate	-11.1924
▁treasur	-11.1925
▁nora	-11.1929
▁reverse	-11.1931
▁inflict	-11.1934
▁comprehensi	-11.1934
▁pilot	-11.1935
▁raven	-11.1936
▁moses	-11.1939
▁acre	-11.194
▁drunken	-11.195
▁pang	-11.197
▁pun	-11.1982
gone	-11.1991
▁admiring	-11.1996
▁eustace	-11.1996
▁squirrel	-11.1996
▁ticket	-11.1996
▁ancestor	-11.1996
▁assassin	-11.1996
▁pattern	-11.1996
▁righteous	-11.1997
▁liver	-11.1998
▁remainder	-11.1999
▁lowest	-11.2011
justice	-11.2045
▁banker	-11.2048
▁trifl	-11.2048
▁bang	-11.2053
▁convention	-11.2055
▁excess	-11.2057
▁corporal	-11.2059
▁desolate	-11.2059
▁manuscript	-11.2059
▁monument	-11.2059
▁incapab	-11.2059
▁mute	-11.206
▁bluff	-11.2061
▁tube	-11.2061
▁throb	-11.2062
▁trout	-11.2062
▁pulse	-11.2079
▁meek	-11.2087
▁involve	-11.2089
▁enabl	-11.2091
▁isolat	-11.2103
▁propriet	-11.2113
▁convent	-11.2115
▁rue	-11.2118
rick	-11.2118
▁revolt	-11.2122
▁eternity	-11.2122
▁scarecrow	-11.2122
▁skull	-11.2122
▁siege	-11.2122
▁athenian	-11.2122
▁serene	-11.2122
▁stru	-11.2122
▁fertil	-11.2123
▁loung	-11.2125
▁recess	-11.2128
▁background	-11.2132
▁separation	-11.2133
▁traveler	-11.2139
▁pirate	-11.2142
▁communicate	-11.2147
▁cask	-11.2153
▁manager	-11.216
hand	-11.2165
▁january	-11.2185
▁significance	-11.2185
▁substantial	-11.2185
▁thieve	-11.2185
▁launch	-11.2185
▁frantic	-11.2185
▁nobil	-11.2186
▁shave	-11.2208
▁bin	-11.2211
▁crust	-11.2218
▁x	-11.2221
▁quart	-11.2222
▁suitabl	-11.2247
▁rack	-11.2249
▁circular	-11.2249
▁distrust	-11.2249
▁opponent	-11.2249
▁primitive	-11.2249
▁priscilla	-11.2249
▁response	-11.2249
▁scandal	-11.2249
▁scotch	-11.2249
▁solution	-11.2249
▁stumble	-11.2249
▁dispers	-11.2249
▁commend	-11.2249
▁juice	-11.2249
▁tangle	-11.2249
▁criticism	-11.225
▁blake	-11.2251
▁parallel	-11.2252
▁marie	-11.2252
▁butcher	-11.2253
▁commit	-11.2256
▁frenchman	-11.227
gram	-11.2281
▁highway	-11.2283
▁underne	-11.2284
rum	-11.2285
▁personage	-11.2285
▁presume	-11.2285
▁argue	-11.2291
▁customer	-11.2293
▁access	-11.2295
▁accumulat	-11.2313
▁casual	-11.2313
▁cathedral	-11.2313
▁mathematic	-11.2313
▁pinocchio	-11.2313
▁subsequent	-11.2313
▁draught	-11.2313
▁imperial	-11.2313
▁smash	-11.2313
▁damsel	-11.2313
▁febr	-11.2313
▁hoarse	-11.2313
▁legend	-11.2313
▁cabinet	-11.2314
▁ample	-11.2317
▁embarrassment	-11.2317
▁armor	-11.2329
▁exile	-11.2337
▁hip	-11.234
▁aye	-11.2346
▁organiz	-11.2353
break	-11.2364
▁quin	-11.2365
▁depress	-11.2371
▁interrupt	-11.2371
▁plunder	-11.2377
▁estralla	-11.2377
▁philadelphia	-11.2377
▁gambl	-11.2377
▁martian	-11.2377
▁incur	-11.2379
▁patsy	-11.2382
▁acid	-11.2389
▁vary	-11.239
▁busi	-11.2391
▁locat	-11.24
▁psycholog	-11.24
▁startling	-11.2403
▁implie	-11.2423
alem	-11.2428
maker	-11.2434
▁contradict	-11.2436
▁pil	-11.2436
var	-11.2439
▁decline	-11.2442
▁despatch	-11.2442
▁discourage	-11.2442
▁prudent	-11.2442
▁relax	-11.2442
▁jerry	-11.2442
▁jimmie	-11.2442
▁illusion	-11.2442
▁ounce	-11.2442
▁calamit	-11.2442
▁introduction	-11.2444
▁fisherman	-11.2445
▁horseback	-11.2445
▁champion	-11.2447
▁soap	-11.2448
▁penn	-11.2448
▁rot	-11.2452
▁indication	-11.2455
▁heroic	-11.2461
▁bug	-11.2465
▁discern	-11.2472
▁marshal	-11.2478
▁ledge	-11.2484
▁allud	-11.2486
▁guy	-11.2488
▁rattle	-11.2495
▁brandy	-11.2506
▁tranquil	-11.2507
▁smot	-11.2507
▁advertis	-11.2507
▁obstinate	-11.2507
▁villefort	-11.2507
▁israel	-11.2508
▁digging	-11.2508
▁violat	-11.251
▁clergyman	-11.251
▁jude	-11.2511
▁falter	-11.2511
▁mike	-11.2512
▁swam	-11.2513
▁favorabl	-11.2519
▁nursery	-11.2521
▁priv	-11.2523
▁amazed	-11.2534
▁dome	-11.2542
▁prohibit	-11.2573
▁vehicle	-11.2573
▁parlor	-11.2573
▁detach	-11.2573
▁dunbar	-11.2574
▁geograph	-11.2574
▁snor	-11.2574
▁aught	-11.2574
▁republican	-11.2579
▁illustration	-11.258
▁aveng	-11.2582
▁acute	-11.2583
▁whisk	-11.2586
▁hump	-11.2597
▁plank	-11.2607
▁inherit	-11.2638
▁dominion	-11.264
▁generosit	-11.264
▁rejoicing	-11.264
▁adapt	-11.264
▁voluntar	-11.264
▁internal	-11.264
▁lazy	-11.264
▁quaint	-11.264
▁dignifie	-11.264
▁kettle	-11.264
▁haw	-11.2644
▁dependent	-11.2647
▁scant	-11.2649
▁token	-11.265
▁invite	-11.2654
▁strap	-11.2654
▁pok	-11.2668
▁tenant	-11.2672
▁yu	-11.2679
▁chateau	-11.2706
▁phoenix	-11.2706
▁conseil	-11.2706
▁cigarette	-11.2707
▁navigat	-11.2707
▁reaction	-11.2708
▁coachman	-11.2712
think	-11.2714
▁attachment	-11.2716
▁policeman	-11.2718
▁gravel	-11.2729
▁trapp	-11.273
▁babe	-11.273
▁willow	-11.2745
▁civiliz	-11.2759
▁quivering	-11.2761
▁afflict	-11.2767
▁elevat	-11.2767
▁mudd	-11.277
▁stew	-11.2772
▁scrutin	-11.2773
▁defense	-11.2773
▁embark	-11.2773
▁enlighten	-11.2773
▁splash	-11.2773
▁excite	-11.2774
▁incense	-11.2775
▁cyril	-11.2775
▁sermon	-11.2775
▁scout	-11.2777
▁hopp	-11.2786
▁prior	-11.2787
▁tooth	-11.2788
▁trott	-11.2797
▁pasture	-11.2798
▁unhe	-11.281
▁tapp	-11.2811
▁tolerabl	-11.2818
▁burg	-11.2825
▁stag	-11.2838
▁agricultur	-11.2841
▁elaborate	-11.2841
▁incessant	-11.2841
▁subdued	-11.2841
▁suspens	-11.2841
▁atlantic	-11.2841
▁bliss	-11.2841
▁martyr	-11.2841
▁senate	-11.2841
▁bubbl	-11.2841
▁vexed	-11.2841
ouquet	-11.2841
▁anthea	-11.2841
▁tragic	-11.2841
▁parcel	-11.2841
▁courtesy	-11.2842
▁loaf	-11.2843
▁gregg	-11.2844
▁picturesque	-11.2844
▁proprietor	-11.285
▁lance	-11.2854
▁coil	-11.2871
berry	-11.288
▁lame	-11.2901
▁potatoe	-11.2902
ople	-11.2903
▁comfortabl	-11.2905
▁academ	-11.2909
▁eliza	-11.2909
▁hebrew	-11.2909
▁phenomenon	-11.2909
▁amazing	-11.2909
▁surgeon	-11.2909
▁sympathetic	-11.2909
▁vibrat	-11.2909
▁hencefor	-11.2911
▁speck	-11.2912
▁mexican	-11.2915
▁chapel	-11.2915
▁abyss	-11.2917
▁construction	-11.2919
▁abundan	-11.2922
▁additional	-11.2922
▁hue	-11.2924
▁tact	-11.2926
▁crab	-11.2927
▁gross	-11.2942
rai	-11.2944
▁surg	-11.2945
▁radiant	-11.2951
▁whisker	-11.2964
▁customar	-11.2966
▁climate	-11.2977
▁granite	-11.2977
▁terrace	-11.2977
▁vacant	-11.2977
▁overtake	-11.2978
▁enforc	-11.2978
▁glen	-11.2978
▁contemptuous	-11.2978
cular	-11.2978
▁quest	-11.2982
▁frock	-11.2983
▁intensit	-11.2986
▁zo	-11.2994
▁architectur	-11.3002
▁plantation	-11.3007
▁dam	-11.3009
▁shallow	-11.3013
▁pont	-11.3038
coming	-11.3042
▁administer	-11.3046
▁gospel	-11.3046
▁chariot	-11.3046
▁temperament	-11.3046
▁guinea	-11.3046
▁chancellor	-11.3046
▁nourish	-11.3046
▁confer	-11.3046
▁identit	-11.3048
illa	-11.3056
▁afore	-11.3057
▁submitt	-11.306
▁restraint	-11.3077
▁plato	-11.3109
▁harbor	-11.3116
▁apprehend	-11.3116
▁bachelor	-11.3116
▁excursion	-11.3116
▁eyebrow	-11.3116
▁intelligibl	-11.3116
▁prominent	-11.3116
▁undertaking	-11.3116
▁gratify	-11.3116
▁screw	-11.3116
▁surpass	-11.3116
▁dexter	-11.3116
▁shatter	-11.3116
▁ninth	-11.3116
▁colony	-11.3116
▁contend	-11.3116
▁yawn	-11.3116
▁pagan	-11.3117
▁creak	-11.3118
▁bobby	-11.312
▁envi	-11.3121
▁humbl	-11.3128
▁lick	-11.313
▁yer	-11.3132
▁reel	-11.3142
▁vot	-11.3148
▁toast	-11.315
▁stem	-11.3152
▁eric	-11.3156
▁dolly	-11.3163
water	-11.3183
▁provoke	-11.3186
▁review	-11.3186
▁volunteer	-11.3186
▁dixon	-11.3186
▁particle	-11.3186
▁agnes	-11.3186
▁falsehood	-11.3188
▁revelation	-11.3189
▁greas	-11.3191
▁kitten	-11.3192
▁loom	-11.3195
▁alert	-11.3198
▁youthful	-11.3207
▁speculat	-11.325
▁artistic	-11.3254
▁apostle	-11.3256
▁apparatus	-11.3256
▁flicker	-11.3256
▁garrison	-11.3256
▁hymn	-11.3256
▁correspondence	-11.3256
▁mirth	-11.3256
▁sunrise	-11.3256
▁aramis	-11.3256
▁jerus	-11.3256
▁liking	-11.3256
▁keith	-11.3257
▁attire	-11.3262
▁associat	-11.3268
▁tray	-11.3282
▁maria	-11.3297
▁watchful	-11.3298
▁passive	-11.3326
▁accommodat	-11.3327
▁legislature	-11.3327
▁chorus	-11.3327
▁gaunt	-11.333
▁resentment	-11.333
▁traitor	-11.3333
▁encouragement	-11.3334
▁curate	-11.3336
ternation	-11.3337
rina	-11.3338
▁loath	-11.3342
▁fashionable	-11.3355
▁archer	-11.3364
▁terminat	-11.337
▁glitter	-11.3372
▁bitterness	-11.3381
▁confide	-11.3397
▁chine	-11.3398
▁streak	-11.3398
▁hamilton	-11.3398
▁harvest	-11.3399
▁drap	-11.3399
▁empti	-11.3399
▁defiance	-11.34
▁hazard	-11.3404
▁tiding	-11.3404
▁workers	-11.3411
▁missionar	-11.3417
▁argu	-11.3421
▁chuck	-11.3421
berg	-11.3429
▁salute	-11.3441
▁shawl	-11.3442
▁converse	-11.3453
ollen	-11.346
▁grin	-11.3465
▁resent	-11.3468
▁chicago	-11.347
▁glimmer	-11.347
▁carpenter	-11.347
▁dissolv	-11.347
▁dagger	-11.347
▁ghastl	-11.347
▁overflow	-11.347
▁proverb	-11.347
▁behaviour	-11.3472
▁spake	-11.3472
▁courtier	-11.3477
▁blaze	-11.348
born	-11.3481
▁felicity	-11.3486
▁stripp	-11.3487
▁homeward	-11.3488
▁constance	-11.3492
▁ladyship	-11.3493
▁foresee	-11.3494
ball	-11.3501
▁era	-11.3527
▁formation	-11.3528
▁aladdin	-11.3543
▁disciple	-11.3543
▁expert	-11.3543
▁innumerabl	-11.3543
▁magazine	-11.3543
▁refined	-11.3543
▁tulliver	-11.3543
▁fiddle	-11.3543
▁complicate	-11.3543
▁subsist	-11.3543
▁darcy	-11.3544
▁conquest	-11.3544
▁persever	-11.3545
▁pitiful	-11.3546
▁disturbance	-11.3547
▁parker	-11.3548
▁mantle	-11.3561
▁pious	-11.3565
midst	-11.3584
▁vest	-11.3615
▁expand	-11.3616
▁chauvelin	-11.3616
▁leonora	-11.3616
▁rainbow	-11.3616
▁scramble	-11.3616
▁unnatural	-11.3616
▁jungle	-11.3616
▁invalid	-11.3616
▁strive	-11.3616
▁decree	-11.3616
▁unkind	-11.3616
▁ginger	-11.3619
▁persistent	-11.3619
▁camel	-11.3621
▁fisher	-11.3621
▁speculation	-11.3623
▁armour	-11.3625
▁handful	-11.3627
agne	-11.3641
▁hart	-11.3647
▁inventor	-11.3648
▁sentimental	-11.3651
▁butterfly	-11.3655
▁kil	-11.3656
▁ku	-11.3671
▁measur	-11.3674
▁hark	-11.3681
▁cursed	-11.3687
▁buzz	-11.3689
▁consumption	-11.3689
▁facilit	-11.3689
▁feminine	-11.3689
▁fundamental	-11.3689
▁irritate	-11.3689
▁scoundrel	-11.3689
▁intimac	-11.3689
▁courteous	-11.369
▁courtyard	-11.369
▁strew	-11.369
▁gorgeous	-11.3691
▁lump	-11.3696
▁forsake	-11.3696
▁odor	-11.37
▁lac	-11.3703
▁hospitality	-11.3703
▁irresistible	-11.3708
▁copie	-11.3711
hurst	-11.3716
▁befall	-11.3751
▁snap	-11.3757
▁ambitious	-11.3763
▁perceptibl	-11.3763
▁twentieth	-11.3763
▁alliance	-11.3764
▁dramatic	-11.3765
▁foster	-11.3766
▁topic	-11.3766
▁chatt	-11.3769
▁haz	-11.3778
▁berth	-11.3783
▁foli	-11.3796
▁morn	-11.3808
▁trod	-11.3817
▁hopeful	-11.383
▁hypothes	-11.3838
▁samuel	-11.3838
▁virtuous	-11.3838
▁bruce	-11.3838
▁deceas	-11.3838
▁daniel	-11.3838
▁beckon	-11.3839
▁blunt	-11.3839
▁repress	-11.3839
▁clair	-11.3844
▁isabella	-11.3844
▁audibl	-11.3849
▁torch	-11.3851
▁ditch	-11.3851
▁fulfil	-11.3851
▁cargo	-11.3853
▁hyp	-11.3853
▁babylon	-11.3855
▁tumble	-11.3862
▁reporter	-11.3864
▁fuss	-11.3882
▁chart	-11.3883
▁knitt	-11.3891
▁popp	-11.3891
▁myles	-11.3908
▁finer	-11.3908
▁adjoin	-11.3913
▁barricade	-11.3913
▁circuit	-11.3913
▁circulat	-11.3913
▁confederate	-11.3913
▁extinguish	-11.3913
▁tuesday	-11.3913
▁distort	-11.3913
▁oat	-11.3915
▁swu	-11.3915
▁infantry	-11.3919
▁venerabl	-11.392
▁necessit	-11.3922
▁logical	-11.3933
▁hardship	-11.3938
▁remarkabl	-11.3942
▁slop	-11.3944
▁lark	-11.3948
▁connect	-11.3951
▁tuck	-11.3958
▁workman	-11.3963
▁sage	-11.3971
▁gem	-11.3972
▁controll	-11.3978
▁shrub	-11.3989
▁emphatic	-11.3989
▁fireplace	-11.3989
▁pharaoh	-11.3989
▁restaurant	-11.3989
▁splendor	-11.3989
▁animated	-11.3989
▁ingenious	-11.3989
▁cradle	-11.399
▁trench	-11.3991
▁bomb	-11.3991
▁intolerabl	-11.3996
▁uneasiness	-11.3996
▁interpretation	-11.3996
▁boom	-11.3998
▁harmless	-11.401
▁cheat	-11.401
▁hatch	-11.4014
▁jug	-11.4015
itious	-11.4018
▁fringe	-11.4021
▁continuous	-11.4029
▁sara	-11.4032
dale	-11.4041
▁menace	-11.405
▁displeas	-11.4064
▁definition	-11.4065
▁exclud	-11.4065
▁negative	-11.4065
▁suffrage	-11.4065
▁wednesday	-11.4065
▁petition	-11.4065
▁sexual	-11.4065
▁buffalo	-11.4065
▁energetic	-11.4065
▁compact	-11.4065
▁dissipat	-11.4065
▁vehemen	-11.4065
▁luncheon	-11.4065
▁humming	-11.4066
▁flint	-11.4066
▁wendy	-11.4066
▁grunt	-11.4066
▁cupboard	-11.4067
▁mabel	-11.4068
▁patent	-11.4069
▁augustine	-11.4071
▁bump	-11.4072
▁buff	-11.4074
▁accomplishment	-11.4079
▁plump	-11.4081
▁soak	-11.4087
action	-11.4097
▁exchang	-11.4113
▁boss	-11.4118
▁presid	-11.413
▁levi	-11.4137
▁spinn	-11.4139
▁multipli	-11.4142
▁admission	-11.4142
▁conform	-11.4142
▁enlarg	-11.4142
▁indulgence	-11.4142
▁museum	-11.4142
▁snuff	-11.4142
▁expir	-11.4143
iff	-11.4143
▁persian	-11.4144
▁feverish	-11.4148
▁imitation	-11.4151
▁massive	-11.4154
▁inspiration	-11.4155
▁successive	-11.4156
▁worshipp	-11.4164
▁advis	-11.4169
▁brim	-11.4177
▁bessy	-11.4191
▁panic	-11.4216
▁advent	-11.4219
twixt	-11.422
▁calculation	-11.422
▁dismount	-11.422
▁fugitive	-11.422
▁register	-11.422
▁unluck	-11.422
▁hesitating	-11.422
▁watson	-11.422
▁petersburg	-11.422
▁armie	-11.4222
▁barbara	-11.4224
▁edi	-11.4225
▁exceptional	-11.4226
▁carol	-11.4239
▁stud	-11.424
▁steed	-11.424
q	-11.4243
▁dodg	-11.4256
▁exploit	-11.4298
▁stammer	-11.4298
▁verloc	-11.4298
▁vexation	-11.4298
▁helmet	-11.4298
▁divert	-11.4298
▁estimat	-11.4299
▁vicar	-11.43
▁esther	-11.43
▁westward	-11.4301
ancy	-11.4308
▁primar	-11.4313
▁cable	-11.4316
▁brighten	-11.4317
▁perplexit	-11.4317
▁specific	-11.4345
▁dean	-11.4348
▁stimulat	-11.4357
woman	-11.4364
▁regulat	-11.437
down	-11.4372
▁estimate	-11.4376
▁henrietta	-11.4377
▁marcella	-11.4377
▁predict	-11.4377
▁saxon	-11.4377
▁orphan	-11.4377
▁conceit	-11.4377
▁pigeon	-11.4377
▁clums	-11.4377
▁tommy	-11.4378
▁champ	-11.4378
▁analysi	-11.4381
▁alien	-11.4382
▁demonstration	-11.4383
▁kindred	-11.4389
▁exhibition	-11.4395
▁gill	-11.4398
▁beech	-11.4405
▁tub	-11.441
▁wagg	-11.4416
▁ivor	-11.4429
▁gable	-11.4441
▁legg	-11.4455
▁fret	-11.4456
▁overpower	-11.4456
▁applause	-11.4456
▁astronom	-11.4456
▁plaster	-11.4456
▁simultaneous	-11.4456
▁transparent	-11.4456
▁twig	-11.4456
▁wreath	-11.4456
▁divorce	-11.4456
▁sinister	-11.4456
▁intrud	-11.4456
▁frenz	-11.4456
▁session	-11.4456
▁allusion	-11.4457
▁margin	-11.4457
▁spider	-11.4458
▁elevation	-11.4464
▁transferr	-11.4466
▁attribut	-11.4467
▁swan	-11.4477
▁olive	-11.448
▁alley	-11.4492
▁efficient	-11.4503
▁wag	-11.4507
▁sab	-11.4511
▁tract	-11.453
▁disadvantage	-11.4536
▁discontent	-11.4536
▁earthquake	-11.4536
▁ecclesiastic	-11.4536
▁everlasting	-11.4536
▁expensive	-11.4536
▁higgins	-11.4536
▁majestic	-11.4536
▁socrates	-11.4536
▁telegram	-11.4536
▁wondrous	-11.4536
▁annual	-11.4536
▁tavern	-11.4536
▁gratification	-11.4537
▁helm	-11.4537
▁governess	-11.4538
▁kara	-11.4544
▁stealth	-11.4547
▁contemplation	-11.4548
▁punch	-11.456
▁nurs	-11.4571
mination	-11.4586
▁disaster	-11.4617
▁furnace	-11.4617
▁celia	-11.4617
▁candidate	-11.4618
▁penalt	-11.4618
▁evan	-11.4619
▁marvelous	-11.462
▁annoyance	-11.462
▁historical	-11.4623
▁percy	-11.4624
▁crisp	-11.4625
▁oxen	-11.463
▁andrea	-11.463
▁veni	-11.4635
▁formula	-11.4636
▁hack	-11.4638
▁cam	-11.4646
▁weaken	-11.4662
▁pap	-11.4664
▁tumbled	-11.4672
▁waver	-11.4679
▁despis	-11.4688
▁biscuit	-11.4698
▁constrain	-11.4698
▁diploma	-11.4698
▁lanyard	-11.4698
▁pencroft	-11.4698
▁skeleton	-11.4698
▁bruis	-11.4698
▁rostov	-11.4698
▁necklace	-11.4698
▁gild	-11.4698
▁otto	-11.4698
▁clark	-11.4699
▁monaster	-11.4699
▁winchester	-11.4699
▁winning	-11.47
▁devis	-11.47
▁jenk	-11.4705
▁mysterie	-11.4706
▁slap	-11.4706
▁calf	-11.4707
▁chew	-11.4709
▁feat	-11.4714
▁knit	-11.4722
▁fearless	-11.4723
cloth	-11.4767
bird	-11.4767
▁preacher	-11.4768
▁clergy	-11.4777
▁fiction	-11.478
▁scripture	-11.478
▁striving	-11.478
▁superstition	-11.478
▁beseech	-11.478
▁impuden	-11.478
▁fiend	-11.478
▁saloon	-11.4781
▁packet	-11.4782
▁lumber	-11.4783
▁hermit	-11.4785
▁paddl	-11.4791
▁barren	-11.4796
ddling	-11.4801
▁spec	-11.4808
▁victoria	-11.4827
▁gabriel	-11.4863
▁hereafter	-11.4863
▁languid	-11.4863
▁prostrate	-11.4863
▁muffl	-11.4863
▁lurk	-11.4863
▁dispens	-11.4863
▁clement	-11.4864
▁hobb	-11.4864
▁confidential	-11.4864
strode	-11.4874
▁compli	-11.4876
▁organis	-11.4885
▁hover	-11.4885
▁shutter	-11.4891
▁jove	-11.4905
odious	-11.4919
▁imprison	-11.4943
enne	-11.4944
▁almighty	-11.4946
▁dispatch	-11.4946
▁gwynplaine	-11.4946
▁sniff	-11.4946
▁tablespoonful	-11.4946
▁conference	-11.4946
▁ravine	-11.4946
▁holmes	-11.4946
▁outlaw	-11.4946
▁otter	-11.4947
▁superintendent	-11.4947
▁relic	-11.4947
▁oxford	-11.4947
▁birthday	-11.4947
▁hamlet	-11.4948
▁rustling	-11.495
▁comte	-11.4952
▁cruis	-11.4954
▁marine	-11.4956
▁utterance	-11.4968
quest	-11.4974
▁coral	-11.4981
▁loan	-11.499
▁signor	-11.4991
▁chim	-11.5001
▁pear	-11.5012
▁demonstrat	-11.5024
▁bog	-11.5024
▁decisive	-11.503
▁discretion	-11.503
▁economy	-11.503
▁scruple	-11.503
▁signature	-11.503
▁tilney	-11.503
▁historian	-11.503
▁vizier	-11.503
▁banquet	-11.503
▁overhear	-11.5035
much	-11.5042
▁thorpe	-11.5043
▁pav	-11.5043
▁respective	-11.506
▁fain	-11.5068
▁auto	-11.5079
▁cork	-11.5086
▁reappear	-11.5115
▁advocate	-11.5115
▁freckle	-11.5115
▁mississippi	-11.5115
▁nostril	-11.5115
▁pebble	-11.5115
▁precipice	-11.5115
▁harold	-11.5115
▁dinsmore	-11.5115
▁sentinel	-11.5115
▁phase	-11.5115
▁effectual	-11.5115
▁whim	-11.5115
▁industrial	-11.5117
▁switch	-11.5117
▁edition	-11.5117
▁hostess	-11.5118
▁whatso	-11.5131
▁ojo	-11.5133
▁sect	-11.5159
▁sap	-11.5163
▁rend	-11.5165
▁gull	-11.5174
▁exercis	-11.5176
▁commonplace	-11.52
▁disregard	-11.52
▁illustri	-11.52
▁mammy	-11.52
▁tunnel	-11.52
▁prophec	-11.52
▁terrier	-11.52
▁alternate	-11.52
▁wallace	-11.52
▁rippl	-11.5201
▁click	-11.5201
hall	-11.5202
▁bacon	-11.5203
▁unhappi	-11.5204
▁placid	-11.5206
▁scornful	-11.5206
▁lugg	-11.5209
▁contradiction	-11.5209
▁fuel	-11.5209
▁rebellion	-11.5215
▁trimm	-11.5217
▁refusal	-11.5237
▁baro	-11.5266
▁trader	-11.5276
▁eccentric	-11.5286
▁senior	-11.5286
▁ascent	-11.5288
▁refreshment	-11.5292
▁canyon	-11.5292
▁impressive	-11.5292
▁litter	-11.5294
▁pronounc	-11.5294
▁interruption	-11.5295
▁abide	-11.5295
▁riot	-11.5298
▁candid	-11.5299
▁sill	-11.53
udge	-11.5302
▁fig	-11.5304
▁conqueror	-11.5314
▁gust	-11.5348
▁inflam	-11.5373
▁accusation	-11.5373
▁drows	-11.5373
▁expedient	-11.5373
▁festival	-11.5373
▁indefinite	-11.5373
▁phantom	-11.5373
▁intoxicat	-11.5373
▁achievement	-11.5373
▁preference	-11.5373
▁appall	-11.5373
▁reverend	-11.5373
▁coroner	-11.5373
▁tank	-11.5374
▁strand	-11.5374
▁clue	-11.5374
▁matron	-11.5375
▁caroline	-11.5375
▁northward	-11.5378
ello	-11.5384
▁conventional	-11.5387
▁athos	-11.539
▁expressive	-11.5398
▁fifteenth	-11.5398
mitten	-11.5399
▁signifie	-11.5409
▁payment	-11.5422
▁rustle	-11.5427
eep	-11.5433
▁tipp	-11.5438
▁revolutionar	-11.5443
▁condescend	-11.5461
▁douglas	-11.5461
▁lizzie	-11.5461
▁tribute	-11.5461
▁daddy	-11.5461
▁girdle	-11.5461
▁shabb	-11.5461
▁blunder	-11.5462
▁balcon	-11.5464
▁revel	-11.5464
▁jelly	-11.5464
▁southward	-11.5466
▁stride	-11.5468
▁urgent	-11.5469
ization	-11.5474
▁avert	-11.5477
▁panel	-11.5502
▁emergenc	-11.5511
▁shaw	-11.5511
▁lava	-11.5515
fellow	-11.5536
▁ark	-11.5539
▁musician	-11.5541
▁treacher	-11.5547
▁alexey	-11.555
▁australia	-11.555
▁explosion	-11.555
▁extravagant	-11.555
▁grotesque	-11.555
▁inconvenience	-11.555
▁neutral	-11.555
▁renown	-11.555
▁sacrament	-11.555
▁insolent	-11.555
▁announcement	-11.555
▁implore	-11.555
▁uproar	-11.555
▁barbarous	-11.5552
boat	-11.5555
▁frail	-11.5556
▁santa	-11.5556
▁favourabl	-11.5563
▁sici	-11.5567
▁duel	-11.5581
▁allowance	-11.5582
▁sacrific	-11.5594
▁successor	-11.5618
ampton	-11.5623
▁compromise	-11.5639
▁overthrow	-11.5639
▁alternative	-11.5639
▁disapprov	-11.5639
▁sulphur	-11.5639
▁vegetati	-11.5639
▁violin	-11.5639
▁advertisement	-11.5639
▁fortress	-11.5641
▁jeff	-11.5645
▁mound	-11.5646
▁yoke	-11.5647
▁terrific	-11.5647
▁adventurer	-11.5683
mphi	-11.57
▁chip	-11.5718
jah	-11.5727
▁prescrib	-11.5729
▁clump	-11.5729
▁phronsie	-11.5729
▁supposition	-11.5729
▁thursday	-11.5729
▁graduat	-11.5729
▁hyacinth	-11.5729
▁deput	-11.5729
▁gnaw	-11.5729
▁pretence	-11.5729
▁horace	-11.5729
▁stunn	-11.5729
▁malice	-11.5729
▁forbear	-11.5729
▁elapse	-11.5729
▁lynde	-11.5729
▁prosperous	-11.5731
▁breech	-11.5732
▁turf	-11.5734
iah	-11.5739
▁unlock	-11.5744
▁nobleman	-11.5756
▁radian	-11.5764
▁rite	-11.5764
▁devote	-11.5767
▁musket	-11.5819
▁compound	-11.582
▁emerald	-11.582
▁indescribabl	-11.582
▁monotonous	-11.582
▁revenue	-11.582
▁vicious	-11.582
▁coax	-11.582
▁fidel	-11.582
▁infect	-11.582
▁essay	-11.582
▁reef	-11.582
▁bucket	-11.5821
▁ankle	-11.5822
▁strok	-11.5823
▁discreet	-11.5824
court	-11.5824
▁mason	-11.5824
rches	-11.5824
▁booth	-11.5825
▁unfold	-11.5832
▁oppression	-11.5833
▁alteration	-11.5838
▁milan	-11.5849
▁breadth	-11.585
▁dye	-11.5858
▁unti	-11.5865
▁vile	-11.5875
omo	-11.5881
▁chao	-11.5888
▁experienc	-11.5895
▁personalit	-11.5898
▁exult	-11.5903
▁austria	-11.5912
▁contemporar	-11.5912
▁dazzling	-11.5912
▁forthwith	-11.5912
▁legitimate	-11.5912
▁renounc	-11.5912
▁splendour	-11.5912
▁tremulous	-11.5912
▁charlie	-11.5912
▁thenardier	-11.5912
▁sturd	-11.5912
▁usurp	-11.5912
▁arabella	-11.5912
▁beryl	-11.5913
▁muslin	-11.5914
▁bellow	-11.5921
▁severit	-11.5926
▁seventeenth	-11.593
▁spectr	-11.5933
▁grade	-11.5979
▁asylum	-11.6004
▁grushenka	-11.6004
▁junior	-11.6004
▁repetition	-11.6004
▁sombre	-11.6004
▁sydney	-11.6004
▁edwin	-11.6004
▁cherry	-11.6004
▁slack	-11.6004
▁valiant	-11.6004
▁besieg	-11.6004
▁vicin	-11.6004
▁chivalr	-11.6004
▁grandeur	-11.6004
▁orlean	-11.6005
▁prodigious	-11.6005
▁heathen	-11.6007
▁obstruct	-11.6009
▁frontier	-11.6013
▁moth	-11.6014
▁saul	-11.6016
▁brake	-11.6016
▁wholesome	-11.6025
▁representation	-11.6032
▁hap	-11.6054
▁ceremonie	-11.6074
loft	-11.6091
▁artillery	-11.6098
▁equipp	-11.6098
▁evolution	-11.6098
▁pyramid	-11.6098
▁chalk	-11.6098
▁imposing	-11.6098
▁michel	-11.6098
▁eventual	-11.6098
▁eyelid	-11.6098
▁beaver	-11.6099
▁stro	-11.6099
▁momentar	-11.6106
▁petty	-11.6111
▁sixteenth	-11.6114
▁herald	-11.6123
▁lever	-11.6132
▁usher	-11.6141
▁persecut	-11.6186
▁inevitab	-11.6187
forehand	-11.6191
▁cabbage	-11.6192
▁convenience	-11.6192
▁democrac	-11.6192
▁encouraging	-11.6192
▁lavish	-11.6192
▁stubborn	-11.6192
▁tuft	-11.6192
▁riddle	-11.6193
▁scour	-11.6195
▁puritan	-11.6195
▁senor	-11.6199
▁aristocratic	-11.6202
▁infer	-11.6209
▁pike	-11.6212
▁pic	-11.6222
▁efficien	-11.6231
▁ranch	-11.6246
fresh	-11.6271
▁caravan	-11.6287
▁catastrophe	-11.6287
▁cossack	-11.6287
▁ecstas	-11.6287
▁glisten	-11.6287
▁henriette	-11.6287
▁infirm	-11.6287
▁perspir	-11.6287
▁saunders	-11.6287
▁synonym	-11.6287
▁bumble	-11.6287
▁trivial	-11.6287
▁deform	-11.6287
▁enlist	-11.6287
▁clatter	-11.6287
▁glee	-11.6288
▁treacherous	-11.629
▁repentance	-11.6291
▁bristl	-11.6293
▁mystic	-11.6319
▁vase	-11.6341
▁superb	-11.6358
▁jem	-11.6362
▁toilet	-11.6382
▁automatic	-11.6383
▁guarantee	-11.6383
▁jonathan	-11.6383
▁rouble	-11.6383
▁shirley	-11.6383
▁treason	-11.6383
▁ridicule	-11.6383
▁scrub	-11.6383
▁wiggily	-11.6383
▁elinor	-11.6383
▁pathetic	-11.6383
▁impass	-11.6384
▁trait	-11.6384
▁creator	-11.6385
▁relationship	-11.6386
▁marianne	-11.6387
▁barbarian	-11.639
▁resignation	-11.6394
▁code	-11.6395
▁roam	-11.64
▁bandit	-11.6401
▁verge	-11.6403
▁revolv	-11.6438
lov	-11.644
▁stab	-11.648
▁montgomery	-11.648
▁precipitat	-11.648
▁remnant	-11.648
▁schooner	-11.648
▁taylor	-11.648
▁antiquit	-11.6481
▁parrot	-11.6481
▁executive	-11.6486
▁blend	-11.6488
▁sonya	-11.6489
▁decoration	-11.6491
▁package	-11.6493
▁anticipation	-11.6494
▁destination	-11.6498
▁airship	-11.6504
▁judi	-11.6523
▁magnet	-11.6558
▁berg	-11.6569
▁extinct	-11.6579
▁ingredient	-11.6579
▁preliminar	-11.6579
▁requisite	-11.6579
▁shroud	-11.6579
▁devout	-11.6579
▁lewis	-11.6579
▁rapture	-11.6579
▁therewith	-11.6579
▁baffl	-11.6579
▁operator	-11.6579
▁parsley	-11.6579
▁ogre	-11.6581
▁unfit	-11.6581
▁skipp	-11.6582
▁cyr	-11.6585
▁identifi	-11.6586
▁depression	-11.6588
▁quarrell	-11.6588
▁peck	-11.6594
▁hoop	-11.6599
▁forgetful	-11.6604
▁defi	-11.6614
▁kha	-11.6634
dition	-11.6638
▁dru	-11.6651
▁mexic	-11.6669
▁woo	-11.6676
▁calhoun	-11.6678
▁defarge	-11.6678
▁merciful	-11.6678
▁reassure	-11.6678
▁receipt	-11.6678
▁vanquish	-11.6678
▁delusion	-11.6678
▁unique	-11.6678
▁headlong	-11.6678
▁flirt	-11.6678
▁latch	-11.6678
▁bennet	-11.6678
▁transaction	-11.6678
▁mona	-11.6678
▁companie	-11.6678
▁utilit	-11.6678
▁boar	-11.6681
▁rector	-11.6686
▁consistent	-11.6688
▁peculiarit	-11.67
alais	-11.6707
▁feebl	-11.6724
served	-11.6738
▁thro	-11.6745
▁narrat	-11.6776
agement	-11.6777
terrane	-11.6777
▁adequate	-11.6778
▁antagonist	-11.6778
▁destitut	-11.6778
▁fathom	-11.6778
▁grumble	-11.6778
▁indispensabl	-11.6778
▁reproduc	-11.6778
▁rhythm	-11.6778
▁secrec	-11.6778
▁strife	-11.6778
▁tissue	-11.6778
▁ungrateful	-11.6778
▁unmistakabl	-11.6778
▁wistful	-11.6778
▁overcoat	-11.6778
▁snarl	-11.6778
▁carolina	-11.6778
▁adela	-11.6778
▁flaming	-11.6778
▁churchyard	-11.6778
▁rogue	-11.6781
▁huron	-11.6781
▁perilous	-11.6783
▁sinner	-11.6784
▁affliction	-11.6787
▁crude	-11.6789
▁badger	-11.6792
▁disappearance	-11.6794
▁theories	-11.6797
▁marvell	-11.6802
accessible	-11.6805
▁paula	-11.681
▁crave	-11.6822
▁practic	-11.6834
▁lovelie	-11.686
▁shov	-11.6875
▁vigor	-11.6876
▁cuthbert	-11.6879
▁obscurit	-11.6879
▁offensive	-11.6879
▁sculpture	-11.6879
▁forlorn	-11.6879
▁russell	-11.6879
▁canadian	-11.6879
▁gordon	-11.6879
▁meditation	-11.6879
▁odour	-11.6879
▁bryce	-11.6879
▁kentuck	-11.6879
▁inheritance	-11.6881
▁luxurious	-11.6882
▁charley	-11.6882
▁salary	-11.6883
▁lucian	-11.6884
▁berrie	-11.6887
▁filth	-11.6889
▁humiliation	-11.6889
urance	-11.6891
▁damon	-11.6891
▁daisy	-11.6896
elope	-11.6903
▁denial	-11.6908
▁amend	-11.691
course	-11.6914
ologist	-11.694
▁detest	-11.6944
▁pew	-11.6955
▁cromwell	-11.6981
▁fragrant	-11.6981
▁identical	-11.6981
▁jupiter	-11.6981
▁luminous	-11.6981
▁miraculous	-11.6981
▁suicide	-11.6981
▁chestnut	-11.6981
▁sagaci	-11.6981
▁diffus	-11.6981
▁teresa	-11.6981
▁javert	-11.6981
▁piteous	-11.6981
▁ethel	-11.6981
▁carbon	-11.6981
▁conjur	-11.6981
▁garret	-11.6981
▁postpon	-11.6981
▁sulk	-11.6981
▁smother	-11.6981
▁restrict	-11.6982
▁beautie	-11.6983
▁lonesome	-11.6983
▁francisco	-11.6985
▁insert	-11.7002
▁baba	-11.7004
▁mimi	-11.7011
▁bigge	-11.7044
thorpe	-11.7071
▁hinge	-11.7071
▁moustache	-11.7084
▁research	-11.7084
▁stuart	-11.7084
▁twitch	-11.7084
▁wizard	-11.7084
▁discord	-11.7084
▁sample	-11.7084
▁olymp	-11.7084
▁nought	-11.7084
▁grocer	-11.7085
▁flask	-11.7085
▁husk	-11.7088
▁columbia	-11.7088
▁tiptoe	-11.709
▁stress	-11.7091
▁shameful	-11.71
▁crater	-11.7101
▁politician	-11.7106
▁hive	-11.7118
▁gratifi	-11.7128
credulous	-11.714
▁twel	-11.7183
▁circl	-11.7184
▁automobile	-11.7188
▁excellence	-11.7188
▁intrigue	-11.7188
▁matrimon	-11.7188
▁mutton	-11.7188
▁sanction	-11.7188
▁supernatural	-11.7188
▁volcano	-11.7188
▁feign	-11.7188
▁ingenuit	-11.7188
▁entrust	-11.7188
▁prowl	-11.7188
munition	-11.7188
▁cripple	-11.7189
▁interference	-11.7189
▁jenny	-11.719
▁eastward	-11.7192
▁enchantment	-11.7197
▁whin	-11.7197
▁heroine	-11.7199
▁rigg	-11.72
▁manifestation	-11.7203
▁attendance	-11.7204
▁shun	-11.7208
▁presum	-11.7233
▁humiliat	-11.7253
▁psych	-11.7257
▁discharg	-11.7257
▁uneasi	-11.7262
fancy	-11.7284
seigneur	-11.7293
▁episode	-11.7293
▁financial	-11.7293
▁plentiful	-11.7293
▁submission	-11.7293
▁whirlwind	-11.7293
▁georgia	-11.7293
▁suburb	-11.7293
▁clench	-11.7293
▁gawain	-11.7293
▁planchet	-11.7293
▁behavio	-11.7293
▁tutor	-11.7293
▁coloss	-11.7293
▁bertram	-11.7293
▁waverley	-11.7295
▁victorious	-11.7296
▁pickwick	-11.7296
▁genial	-11.7297
▁correspondent	-11.7297
▁imprisonment	-11.7297
▁galley	-11.7297
▁loop	-11.7307
stein	-11.7309
▁tito	-11.7315
▁stimul	-11.7319
▁reap	-11.732
▁basil	-11.7323
▁logic	-11.7394
▁constitut	-11.7395
▁err	-11.7399
▁aristocrac	-11.7399
▁consecrat	-11.7399
▁encamp	-11.7399
▁outstretch	-11.7399
▁circus	-11.74
▁congregation	-11.74
▁cricket	-11.74
▁hospitabl	-11.74
▁sparrow	-11.74
▁thompson	-11.74
▁vigilan	-11.74
▁harriet	-11.74
▁thereafter	-11.74
▁yacht	-11.74
▁dripping	-11.74
▁compartment	-11.74
▁aversion	-11.74
▁profan	-11.74
▁fulton	-11.74
▁deficien	-11.74
▁abound	-11.74
▁tranquillit	-11.74
▁seduc	-11.74
▁avow	-11.74
▁adult	-11.74
▁morris	-11.74
▁nemo	-11.7401
▁baronet	-11.7401
▁defiant	-11.7401
▁impell	-11.7406
▁descendant	-11.7413
▁garb	-11.7414
▁rumor	-11.7437
▁agenc	-11.7443
▁socialist	-11.7503
▁annihilat	-11.7507
▁apparition	-11.7507
▁archbishop	-11.7507
▁blink	-11.7507
▁caliph	-11.7507
▁chichikov	-11.7507
▁collaps	-11.7507
▁entangl	-11.7507
▁lennox	-11.7507
▁mischievous	-11.7507
▁recruit	-11.7507
▁ruffian	-11.7507
▁scientist	-11.7507
▁subordinate	-11.7507
▁syllable	-11.7507
▁celesti	-11.7507
▁boffin	-11.7507
▁flanders	-11.7507
▁vapor	-11.7507
▁reput	-11.7507
▁clown	-11.7508
▁industrious	-11.751
▁franklin	-11.7512
▁oppressive	-11.7512
▁cycl	-11.7513
▁fluid	-11.7516
▁mantel	-11.7521
▁transfer	-11.7602
bourg	-11.7603
▁guil	-11.7607
▁abominabl	-11.7616
▁auspicious	-11.7616
▁cemeter	-11.7616
▁eminence	-11.7616
▁expenditure	-11.7616
▁insignificant	-11.7616
▁misunderstand	-11.7616
▁remonstrance	-11.7616
▁scissor	-11.7616
▁technical	-11.7616
▁imperative	-11.7616
▁kenneth	-11.7616
▁traffic	-11.7616
▁invasion	-11.7616
▁snug	-11.7616
▁knive	-11.7616
▁signify	-11.7616
▁premise	-11.7616
▁horizontal	-11.7616
▁breach	-11.7617
▁robinson	-11.7617
▁liberat	-11.7617
▁amendment	-11.7619
vsky	-11.7621
▁companionship	-11.7622
▁persecution	-11.7623
▁spat	-11.7636
discriminat	-11.7662
▁wrap	-11.7695
▁gorge	-11.7724
▁cavalier	-11.7726
▁competition	-11.7726
▁discomfort	-11.7726
▁indistinct	-11.7726
▁baggage	-11.7726
▁inference	-11.7726
▁interrogat	-11.7726
▁ruddy	-11.7726
▁license	-11.7726
▁glaring	-11.7726
▁carroll	-11.7726
▁fritz	-11.7726
▁cooper	-11.7726
▁choking	-11.7726
▁betroth	-11.7726
▁spencer	-11.7726
▁ministr	-11.7726
▁negotiation	-11.7726
▁syria	-11.7726
▁yankee	-11.7726
▁localit	-11.7727
▁meddle	-11.7727
▁ransom	-11.7727
▁insane	-11.7727
▁condens	-11.7727
▁displeasure	-11.7727
▁cedar	-11.7728
▁genie	-11.7728
▁hazel	-11.7729
▁rotten	-11.773
▁burton	-11.7732
▁morland	-11.7735
▁clash	-11.7741
▁valor	-11.7746
▁magnetic	-11.7748
▁disput	-11.7749
▁graz	-11.775
▁theater	-11.7778
▁pork	-11.7785
▁broth	-11.7819
▁hostilit	-11.7824
▁abolish	-11.7837
▁deliberation	-11.7837
▁fervent	-11.7837
▁jehovah	-11.7837
▁muzzle	-11.7837
▁oblivio	-11.7837
▁unanimous	-11.7837
▁unreasonable	-11.7837
▁hannah	-11.7837
▁lawrence	-11.7837
nburgh	-11.7837
▁determin	-11.7837
▁dedicat	-11.7837
▁denominat	-11.7837
▁analog	-11.7838
▁gould	-11.7838
▁tedious	-11.7838
▁wove	-11.7839
▁envelop	-11.7839
▁picket	-11.7842
▁communion	-11.7843
▁malad	-11.7845
▁phine	-11.7846
▁crumbl	-11.7853
▁ferry	-11.7858
laid	-11.7877
spar	-11.7921
▁barbar	-11.7936
▁mung	-11.7937
▁denounc	-11.7949
▁impossibilit	-11.7949
▁conscientious	-11.7949
▁cylinder	-11.7949
▁diameter	-11.7949
▁godfrey	-11.7949
▁indirect	-11.7949
▁landlady	-11.7949
▁lobster	-11.7949
▁oriental	-11.7949
▁philosophical	-11.7949
▁verdict	-11.7949
▁bureau	-11.7949
▁snob	-11.7949
▁squeak	-11.7949
▁mumm	-11.7949
▁shrine	-11.7949
▁grudge	-11.7949
▁turret	-11.7949
▁enrage	-11.7949
▁constable	-11.7949
▁recurr	-11.7949
▁repay	-11.7949
▁ferocious	-11.7951
▁belgi	-11.7951
▁inspection	-11.7954
▁brew	-11.7957
kov	-11.7961
▁hateful	-11.7965
▁peel	-11.7972
▁interfer	-11.7981
▁humili	-11.7994
▁birch	-11.7996
▁physic	-11.8043
▁commun	-11.8048
▁reasonabl	-11.8059
▁resound	-11.8063
▁boolooroo	-11.8063
▁delaware	-11.8063
▁dimension	-11.8063
▁impulsive	-11.8063
▁lukashka	-11.8063
▁malicious	-11.8063
▁matilda	-11.8063
▁millionaire	-11.8063
▁mohammed	-11.8063
▁persuasion	-11.8063
▁provincial	-11.8063
▁simpson	-11.8063
▁superflu	-11.8063
▁chemical	-11.8063
▁recoil	-11.8063
▁radiat	-11.8063
▁shuffl	-11.8063
▁confinement	-11.8063
▁inviting	-11.8063
▁partition	-11.8063
▁meditate	-11.8065
▁slate	-11.8065
▁fishermen	-11.8065
▁sandford	-11.8068
▁void	-11.807
▁taunt	-11.8071
▁regulation	-11.8072
▁sallie	-11.8073
cott	-11.8078
▁forego	-11.8085
▁moralit	-11.8097
▁juda	-11.811
▁magnificen	-11.8122
▁sauc	-11.814
quarters	-11.8164
▁quench	-11.8178
▁thrash	-11.8178
▁alphabet	-11.8178
▁ascrib	-11.8178
▁buccaneer	-11.8178
▁dmitri	-11.8178
▁inscription	-11.8178
▁magdalen	-11.8178
▁massachuset	-11.8178
▁mechanism	-11.8178
▁morcerf	-11.8178
▁populace	-11.8178
▁proclamation	-11.8178
▁steadfast	-11.8178
▁unbroke	-11.8178
▁zarathustra	-11.8178
▁epoch	-11.8178
▁davis	-11.8178
▁dazzle	-11.8178
▁stacy	-11.8182
▁broom	-11.8183
▁contrivance	-11.8183
▁garland	-11.8185
▁spade	-11.8187
▁grievous	-11.8187
▁choos	-11.8209
▁acquiesc	-11.8294
▁assumption	-11.8294
▁bazaar	-11.8294
▁brazil	-11.8294
▁controvers	-11.8294
▁florentine	-11.8294
▁gertrude	-11.8294
▁hopkins	-11.8294
▁pennsylvania	-11.8294
▁peppino	-11.8294
▁rhyme	-11.8294
▁stepmother	-11.8294
▁unaccountabl	-11.8294
▁empress	-11.8294
▁testament	-11.8294
▁scowl	-11.8294
▁infernal	-11.8294
▁laurel	-11.8294
▁hearken	-11.8294
▁raymond	-11.8295
▁karl	-11.8295
▁enclosure	-11.8296
▁pension	-11.8297
▁swoon	-11.8299
▁cramp	-11.8302
▁rubbish	-11.8305
▁luke	-11.8306
▁bribe	-11.8342
▁conspir	-11.8381
▁wren	-11.8391
folk	-11.8398
▁confu	-11.8403
▁explod	-11.8412
▁freight	-11.8412
▁jersey	-11.8412
▁paragraph	-11.8412
▁phillips	-11.8412
▁unequal	-11.8412
▁vincent	-11.8412
▁stack	-11.8412
▁eames	-11.8412
▁abbot	-11.8412
▁brink	-11.8412
▁redeem	-11.8412
▁scann	-11.8412
▁fanatic	-11.8413
▁penetrating	-11.8413
▁impetuous	-11.8413
▁compress	-11.8415
▁bait	-11.842
▁molly	-11.8421
▁spun	-11.8421
▁jake	-11.8422
▁grub	-11.8428
▁plight	-11.8429
▁bland	-11.8454
▁prosper	-11.8468
▁disconcert	-11.8531
▁baptism	-11.8531
▁indebted	-11.8531
▁mushroom	-11.8531
▁nelson	-11.8531
▁obstinac	-11.8531
▁ominous	-11.8531
▁sweetheart	-11.8531
▁vapour	-11.8531
▁willoughby	-11.8531
▁anthony	-11.8531
▁martial	-11.8531
▁deceit	-11.8531
▁flitt	-11.8531
▁unselfish	-11.8531
▁unaware	-11.8531
▁destructive	-11.8532
▁stony	-11.8532
▁weird	-11.8533
▁indoor	-11.8534
▁zone	-11.8535
▁stow	-11.8544
▁bah	-11.8546
▁wrench	-11.8554
▁boundar	-11.8556
▁deuce	-11.8557
▁plea	-11.8582
▁villa	-11.8619
satisfied	-11.8638
▁apologiz	-11.8638
spring	-11.8638
▁benevolent	-11.8651
▁bicycle	-11.8651
▁disobey	-11.8651
▁improper	-11.8651
▁inquisitive	-11.8651
▁irritation	-11.8651
▁pecuniar	-11.8651
▁punctual	-11.8651
▁spacious	-11.8651
▁superficial	-11.8651
▁typical	-11.8651
▁hudson	-11.8651
▁precept	-11.8651
▁wazir	-11.8651
▁susceptib	-11.8651
▁nigger	-11.8651
▁jeffrey	-11.8651
▁almah	-11.8651
▁sterling	-11.8651
▁undress	-11.8651
▁tatter	-11.8651
▁sift	-11.8652
witzer	-11.8652
▁infallibl	-11.8654
▁lilie	-11.8657
▁randal	-11.867
sensible	-11.8681
▁wade	-11.8694
▁balanc	-11.8702
▁chronicle	-11.8713
undry	-11.8724
▁towel	-11.8757
quois	-11.8773
▁abstain	-11.8773
▁applaud	-11.8773
▁blacksmith	-11.8773
▁chocolate	-11.8773
▁constituent	-11.8773
▁courier	-11.8773
▁equipment	-11.8773
▁institute	-11.8773
▁occupant	-11.8773
▁peacock	-11.8773
▁thwart	-11.8773
▁transcend	-11.8773
▁ordain	-11.8773
▁scorch	-11.8773
▁apollo	-11.8773
▁fabric	-11.8773
▁radical	-11.8773
▁astound	-11.8773
▁jarvis	-11.8773
▁slant	-11.8773
▁plaintive	-11.8773
▁dazed	-11.8774
▁headache	-11.8774
▁conservative	-11.8775
▁sorcer	-11.8775
▁uncover	-11.8776
▁merrick	-11.8781
▁fortifi	-11.8829
▁activit	-11.8829
▁reverie	-11.8833
▁forcibl	-11.8839
▁slit	-11.8863
▁diar	-11.888
▁loneli	-11.8882
▁electro	-11.8891
▁prodig	-11.8896
corporeal	-11.8897
▁bohemia	-11.8897
▁decreas	-11.8897
▁environment	-11.8897
▁exclusion	-11.8897
▁felix	-11.8897
▁handwriting	-11.8897
▁hypnotis	-11.8897
▁nickleby	-11.8897
▁osborne	-11.8897
▁rheumati	-11.8897
▁talbot	-11.8897
▁channing	-11.8897
▁stanley	-11.8897
▁veteran	-11.8897
▁virgil	-11.8897
▁bracelet	-11.8897
▁snail	-11.8897
▁tarzan	-11.8897
▁enrich	-11.8897
▁loiter	-11.8897
▁proving	-11.8897
sumptuous	-11.8897
▁vinegar	-11.8897
▁warren	-11.8898
▁corps	-11.8898
▁vacation	-11.8898
▁errant	-11.8899
▁envious	-11.8901
▁gloomi	-11.8909
▁salad	-11.891
▁clem	-11.8912
morph	-11.8918
▁designat	-11.8952
▁societ	-11.8954
▁lucki	-11.8975
▁abnormal	-11.9022
▁alexandrovitch	-11.9022
▁benevolence	-11.9022
▁bridegroom	-11.9022
▁censure	-11.9022
▁concession	-11.9022
▁ejaculate	-11.9022
▁ferdinand	-11.9022
▁insurrection	-11.9022
▁kutuzov	-11.9022
▁maurice	-11.9022
▁petticoat	-11.9022
▁refinement	-11.9022
▁smuggl	-11.9022
▁strenuous	-11.9022
▁vigour	-11.9022
▁alexandr	-11.9022
▁montoni	-11.9022
▁pulpit	-11.9022
▁zadig	-11.9022
▁dishonest	-11.9022
▁divinity	-11.9022
▁murray	-11.9022
▁ruffle	-11.9022
▁notorious	-11.9022
▁snare	-11.9022
▁mold	-11.9022
▁joking	-11.9022
▁pussy	-11.9022
▁queri	-11.9022
▁genji	-11.9022
▁salmon	-11.9024
▁stitch	-11.9027
▁gush	-11.9031
▁raid	-11.9033
▁conspirac	-11.9054
▁moderati	-11.9073
▁butterfl	-11.9081
▁absurdit	-11.9093
▁disagree	-11.9143
▁amazon	-11.9148
▁eruption	-11.9148
▁hysterical	-11.9148
▁spontaneous	-11.9148
▁theatrical	-11.9148
▁redoubl	-11.9148
▁sleigh	-11.9148
▁repast	-11.9148
▁surmise	-11.9148
▁picnic	-11.9148
▁coincidence	-11.9149
▁burglar	-11.9149
▁gyp	-11.9149
▁bulg	-11.9149
▁rumour	-11.915
animit	-11.9155
▁shovel	-11.9158
▁rescu	-11.9163
▁propertie	-11.9173
▁reluctan	-11.922
▁dominat	-11.9239
▁psychic	-11.9276
▁evaporat	-11.9276
▁emphasiz	-11.9276
▁encircl	-11.9276
▁engrav	-11.9276
▁arbitrar	-11.9276
▁chevalier	-11.9276
▁dungeon	-11.9276
▁elastic	-11.9276
▁fragrance	-11.9276
▁frivolous	-11.9276
▁incomprehensibl	-11.9276
▁insolence	-11.9276
▁magnitude	-11.9276
▁rufford	-11.9276
▁tumbling	-11.9276
▁metaphysic	-11.9276
▁famine	-11.9276
▁brazen	-11.9276
▁relish	-11.9276
▁exhort	-11.9276
▁denzil	-11.9276
▁trigger	-11.9276
▁nibbl	-11.9276
▁cambridge	-11.9277
▁strangl	-11.9277
▁titan	-11.9277
▁hatchet	-11.9277
▁fraud	-11.928
▁aisle	-11.9282
▁outfit	-11.9283
▁wilful	-11.9283
▁cheque	-11.9283
▁polar	-11.9286
▁tusk	-11.9307
▁communit	-11.9342
zzle	-11.9382
▁purit	-11.9385
▁displac	-11.9406
▁scaffold	-11.9406
▁uplift	-11.9406
▁convulsion	-11.9406
▁fitzpiers	-11.9406
▁knob	-11.9406
▁maximilian	-11.9406
▁monica	-11.9406
▁thorndyke	-11.9406
▁bramble	-11.9406
▁vrain	-11.9406
▁kirk	-11.9406
▁cynic	-11.9407
▁defy	-11.9407
▁bleak	-11.9409
▁repell	-11.941
▁label	-11.9412
▁mountaineer	-11.9412
▁dilat	-11.9421
▁monopol	-11.9429
▁originat	-11.9434
▁barbicane	-11.9538
▁caterpillar	-11.9538
▁commotion	-11.9538
▁confederac	-11.9538
▁eunuch	-11.9538
▁flavor	-11.9538
▁guiche	-11.9538
▁legislation	-11.9538
▁pioneer	-11.9538
▁sneak	-11.9538
▁venetian	-11.9538
▁haggard	-11.9538
▁buckingham	-11.9538
▁poyser	-11.9538
▁enact	-11.9538
▁clamor	-11.9538
▁ursu	-11.9538
▁avaric	-11.9538
▁nightmare	-11.9538
▁quilt	-11.9539
▁wring	-11.954
flower	-11.9573
▁undulat	-11.9581
▁miserabl	-11.9625
▁accura	-11.9669
eference	-11.9671
▁engross	-11.9671
▁aperture	-11.9671
▁apparel	-11.9671
▁aspiration	-11.9671
▁beauchamp	-11.9671
▁elegance	-11.9671
▁enigma	-11.9671
▁forefinger	-11.9671
▁immaterial	-11.9671
▁inexpressibl	-11.9671
▁kangaroo	-11.9671
▁mazarin	-11.9671
▁merciless	-11.9671
▁milburgh	-11.9671
▁overturn	-11.9671
▁piazza	-11.9671
▁pretension	-11.9671
▁pretext	-11.9671
▁alfred	-11.9671
▁brillianc	-11.9671
▁clarence	-11.9671
▁orchestra	-11.9671
▁perverse	-11.9671
▁sidney	-11.9671
▁fantine	-11.9671
▁hubert	-11.9671
▁target	-11.9671
▁corinth	-11.9671
▁hamper	-11.9671
▁unob	-11.9671
▁evinc	-11.9671
▁morsel	-11.9672
▁extension	-11.9673
▁version	-11.9673
▁integr	-11.9676
▁modifie	-11.9678
memorial	-11.9687
band	-11.9703
▁inspect	-11.9796
▁draft	-11.9806
▁approbat	-11.9806
▁colleague	-11.9806
▁flannel	-11.9806
▁hurstwood	-11.9806
▁lecoq	-11.9806
▁masculine	-11.9806
▁miriam	-11.9806
▁nimble	-11.9806
▁odysse	-11.9806
▁orthodox	-11.9806
▁participat	-11.9806
▁sarcastic	-11.9806
▁squadron	-11.9806
▁morbid	-11.9806
▁imperious	-11.9806
▁antonia	-11.9806
▁texa	-11.9807
▁offense	-11.9807
▁brenda	-11.9807
▁winterbourne	-11.9807
▁duncan	-11.9807
▁sedley	-11.9808
▁sprawl	-11.9808
▁ramble	-11.9809
▁indulgent	-11.9812
▁corneli	-11.9815
▁undu	-11.982
▁shrunk	-11.9943
▁abject	-11.9943
▁anecdote	-11.9943
▁benjamin	-11.9943
▁dialogue	-11.9943
▁disinterested	-11.9943
▁eclipse	-11.9943
▁equivalent	-11.9943
▁kadok	-11.9943
▁kenwigs	-11.9943
▁mercury	-11.9943
▁mitchell	-11.9943
▁reginald	-11.9943
▁stevens	-11.9943
▁sylvie	-11.9943
▁stupef	-11.9943
▁veranda	-11.9943
▁carthage	-11.9943
▁implement	-11.9943
▁propensit	-11.9943
▁chunk	-11.9943
▁currant	-11.9943
▁pervad	-11.9943
▁fergus	-11.9943
▁myriad	-11.9944
▁hereditar	-11.9945
▁tinkl	-11.9946
▁bartle	-11.9952
▁censor	-12.0082
▁horrifi	-12.0082
▁impenetrabl	-12.0082
▁inexplicabl	-12.0082
▁intrinsic	-12.0082
▁jacques	-12.0082
▁predecessor	-12.0082
▁saviour	-12.0082
▁scrupulous	-12.0082
▁tebrick	-12.0082
▁client	-12.0082
▁mortimer	-12.0082
▁coronel	-12.0082
▁degenerat	-12.0082
▁prowess	-12.0082
▁epistle	-12.0082
▁bewitch	-12.0082
▁scope	-12.0082
▁austin	-12.0082
▁mortification	-12.0082
▁straggl	-12.0082
▁teddy	-12.0083
▁initial	-12.0083
▁alban	-12.0083
bourne	-12.0083
▁forecast	-12.0084
▁croak	-12.0085
▁donald	-12.0086
▁grigg	-12.0087
▁mustache	-12.0088
▁tortur	-12.0159
▁desperat	-12.0166
▁abat	-12.0207
▁burrow	-12.0223
▁armstrong	-12.0223
▁conniston	-12.0223
▁desolation	-12.0223
▁harrington	-12.0223
▁insufficient	-12.0223
▁intuition	-12.0223
▁nekhludoff	-12.0223
▁repugnan	-12.0223
▁crevice	-12.0223
▁whig	-12.0223
▁futile	-12.0223
▁massacre	-12.0223
▁plunging	-12.0223
▁horde	-12.0223
▁gloss	-12.0223
▁snub	-12.0223
▁ravag	-12.0223
▁shaving	-12.0223
▁bingley	-12.0223
▁mutin	-12.0223
▁remedie	-12.0223
▁retrac	-12.0224
▁civilit	-12.0235
▁frederic	-12.0362
▁wriggl	-12.0366
▁inscrib	-12.0366
▁perturb	-12.0366
▁skirmish	-12.0366
▁apprentice	-12.0366
▁aristotle	-12.0366
▁chipmunk	-12.0366
▁elphick	-12.0366
▁expanse	-12.0366
▁imperceptibl	-12.0366
▁jervis	-12.0366
▁miniature	-12.0366
▁mukoki	-12.0366
▁romola	-12.0366
metheus	-12.0366
▁artifice	-12.0366
▁barrack	-12.0366
▁chamberlain	-12.0366
▁expend	-12.0366
▁smack	-12.0366
▁unchange	-12.0366
▁gretel	-12.0366
▁clavering	-12.0366
▁rhod	-12.0366
▁armand	-12.0367
▁install	-12.0367
▁burgund	-12.0367
aples	-12.0408
▁strawberr	-12.042
▁nothin	-12.0466
kansa	-12.0466
stock	-12.0505
▁boulder	-12.0511
▁compensation	-12.0511
▁impertinent	-12.0511
▁inexperience	-12.0511
▁irritabl	-12.0511
▁junction	-12.0511
▁pamphlet	-12.0511
▁rouletabille	-12.0511
▁screech	-12.0511
▁sojourn	-12.0511
▁telescope	-12.0511
▁transgress	-12.0511
▁rebuke	-12.0511
▁goblin	-12.0511
▁knave	-12.0511
▁brigand	-12.0511
▁recipe	-12.0511
▁ebb	-12.0511
▁patrol	-12.0511
▁augment	-12.0511
▁precisi	-12.0511
▁huntsman	-12.0512
▁exterior	-12.0512
▁frigate	-12.0512
▁poult	-12.0512
▁roost	-12.0513
▁presty	-12.0513
▁missouri	-12.0514
▁morrel	-12.0527
▁dependenc	-12.0554
▁cataract	-12.0658
▁conclusive	-12.0658
▁demeanour	-12.0658
▁diligence	-12.0658
▁diligent	-12.0658
▁embracing	-12.0658
▁outburst	-12.0658
▁perpendicular	-12.0658
▁photoplay	-12.0658
▁presbyterian	-12.0658
▁semblance	-12.0658
▁servadac	-12.0658
▁terrify	-12.0658
▁unearth	-12.0658
▁valancourt	-12.0658
▁eugene	-12.0658
▁giddy	-12.0658
▁wuz	-12.0658
▁colbert	-12.0658
▁stork	-12.0658
▁cowboy	-12.0658
▁migrat	-12.0658
▁magpie	-12.0658
▁unmov	-12.0658
▁durrance	-12.0658
▁collins	-12.0658
▁forfeit	-12.0658
▁deign	-12.0658
▁beetle	-12.0658
▁metallic	-12.0658
▁helium	-12.0659
▁pensive	-12.0659
▁enmit	-12.0672
▁concede	-12.0678
▁weave	-12.0771
disturbed	-12.0794
▁fuzz	-12.0807
▁accost	-12.0807
▁bruno	-12.0807
▁convulsive	-12.0807
▁crocodile	-12.0807
▁deception	-12.0807
▁galahad	-12.0807
▁hoopdriver	-12.0807
▁instantaneous	-12.0807
▁reinforcement	-12.0807
▁wharf	-12.0807
▁dubious	-12.0807
▁lufton	-12.0807
▁parchment	-12.0807
▁chemist	-12.0807
▁commencement	-12.0807
▁rosemary	-12.0807
▁wyat	-12.0807
▁qualifie	-12.0807
▁impend	-12.0808
▁josie	-12.0808
▁tartar	-12.0808
▁disappoint	-12.0847
sought	-12.0945
▁hydro	-12.0955
▁bayonet	-12.0959
▁cornwall	-12.0959
▁depict	-12.0959
▁edifice	-12.0959
▁flavour	-12.0959
▁fyodorovitch	-12.0959
▁hurrah	-12.0959
▁inconvenient	-12.0959
▁jerome	-12.0959
▁newcomer	-12.0959
▁remonstrat	-12.0959
▁subscrib	-12.0959
▁wardrobe	-12.0959
▁clamour	-12.0959
▁decency	-12.0959
▁dundee	-12.0959
▁thirtie	-12.0959
▁smol	-12.0959
▁gutter	-12.0959
▁bawl	-12.0959
▁musketeer	-12.0959
▁dissent	-12.096
▁authoriz	-12.1001
▁historic	-12.11
polis	-12.1111
▁arrogan	-12.1112
▁abolition	-12.1112
▁benefactor	-12.1112
▁berwin	-12.1112
▁deserving	-12.1112
▁elliot	-12.1112
▁galloway	-12.1112
▁grammar	-12.1112
▁grumbling	-12.1112
▁harrow	-12.1112
▁imploring	-12.1112
▁malignant	-12.1112
▁militia	-12.1112
▁obliterat	-12.1112
▁relinquish	-12.1112
▁sabbath	-12.1112
▁savour	-12.1112
▁bourgeois	-12.1112
▁flounder	-12.1112
▁wherewith	-12.1112
▁barrister	-12.1112
▁marchioness	-12.1112
▁pauper	-12.1112
▁vivaci	-12.1112
▁audacit	-12.1112
▁nottingham	-12.1112
▁scalp	-12.1112
▁carleton	-12.1112
▁proffer	-12.1112
▁fumbl	-12.1112
▁vassal	-12.1112
▁prevalen	-12.1113
▁yarn	-12.1113
▁provocati	-12.1113
▁harass	-12.1113
▁grappl	-12.1113
▁complication	-12.1113
▁frolic	-12.1113
▁charitabl	-12.1113
▁devoi	-12.1114
▁compris	-12.1114
▁squint	-12.1114
▁thigh	-12.1114
▁trudg	-12.1115
▁architect	-12.1213
▁columb	-12.1262
▁emancipat	-12.1269
▁seclud	-12.1269
▁accomplice	-12.1269
▁acquisition	-12.1269
▁alexandrovna	-12.1269
▁avalanche	-12.1269
▁blasphem	-12.1269
▁dejected	-12.1269
▁disfigur	-12.1269
▁dishonour	-12.1269
▁dizzy	-12.1269
▁libertie	-12.1269
▁mordaunt	-12.1269
▁splinter	-12.1269
▁klaus	-12.1269
▁whereabout	-12.1269
▁delegate	-12.1269
▁furrow	-12.1269
▁sanctuar	-12.1269
▁devastat	-12.1269
▁lydia	-12.1269
▁counsellor	-12.1269
▁humbug	-12.1269
▁southwest	-12.1269
▁corral	-12.1269
▁chord	-12.1269
▁domain	-12.1269
▁shod	-12.1269
▁subterrane	-12.1269
▁matern	-12.1269
▁estra	-12.1271
▁preoccup	-12.1306
▁battalion	-12.1427
▁commonwealth	-12.1427
▁delirium	-12.1427
▁hurricane	-12.1427
▁misgiving	-12.1427
▁qualification	-12.1427
▁submissive	-12.1427
▁unsuccessful	-12.1427
▁vagabond	-12.1427
▁gesticulat	-12.1427
▁glut	-12.1427
▁lizard	-12.1427
▁supplement	-12.1427
▁unfair	-12.1427
▁urban	-12.1427
▁mattress	-12.1427
▁damasc	-12.1427
▁mountjoy	-12.1427
▁quarry	-12.1427
▁melbury	-12.1427
▁craving	-12.1428
▁mortar	-12.1428
▁aloof	-12.1428
▁carving	-12.1428
▁unarm	-12.1428
▁johnnie	-12.1429
rpool	-12.143
▁huddl	-12.1437
▁influen	-12.1575
▁anniversar	-12.1589
▁authentic	-12.1589
▁connexion	-12.1589
▁exasperate	-12.1589
▁leopold	-12.1589
▁maxwell	-12.1589
▁pavilion	-12.1589
▁peddler	-12.1589
▁unquestionabl	-12.1589
▁wharton	-12.1589
▁appeas	-12.1589
▁focus	-12.1589
▁psalm	-12.1589
▁sunbeam	-12.1589
uccio	-12.1589
▁embass	-12.1589
▁raffle	-12.1589
▁saunter	-12.1589
▁billiard	-12.1589
▁councillor	-12.1589
▁grabb	-12.1589
▁envoy	-12.1589
▁deacon	-12.1589
▁furtive	-12.1589
▁mellow	-12.1589
▁tolerate	-12.1613
risen	-12.1646
▁rehears	-12.1753
▁arkadyevitch	-12.1753
▁cerebral	-12.1753
▁extravagance	-12.1753
▁improbabl	-12.1753
▁infidel	-12.1753
▁ivanovna	-12.1753
▁minstrel	-12.1753
▁mistrust	-12.1753
▁murphy	-12.1753
▁programme	-12.1753
▁resurrection	-12.1753
▁ronald	-12.1753
▁shahrazad	-12.1753
▁shimerda	-12.1753
▁shipwreck	-12.1753
▁sidewalk	-12.1753
▁sophia	-12.1753
▁submerg	-12.1753
▁superstitious	-12.1753
▁torpenhow	-12.1753
▁reuben	-12.1753
▁sawdust	-12.1753
▁slamm	-12.1753
▁inclos	-12.1753
▁overhang	-12.1753
▁penrod	-12.1753
▁orlando	-12.1753
▁depot	-12.1753
▁blond	-12.1754
▁grizzl	-12.1772
▁numb	-12.1875
▁mechanic	-12.1881
▁semyon	-12.1919
▁affront	-12.1919
▁armchair	-12.1919
▁bonaparte	-12.1919
▁gwendolen	-12.1919
▁humphrey	-12.1919
▁paternal	-12.1919
▁plausibl	-12.1919
▁recount	-12.1919
▁sluggish	-12.1919
▁smelt	-12.1919
▁stumbling	-12.1919
▁thoracic	-12.1919
▁turmoil	-12.1919
▁yosemite	-12.1919
▁ignomin	-12.1919
▁anoint	-12.1919
▁kennel	-12.1919
▁wield	-12.1919
▁golf	-12.192
▁amateur	-12.192
▁cleav	-12.192
▁taint	-12.192
▁crutch	-12.1923
▁graft	-12.1924
▁appropriat	-12.1948
▁trinit	-12.2014
▁bibl	-12.2029
▁animosit	-12.2089
▁berengaria	-12.2089
▁commodit	-12.2089
▁crosbie	-12.2089
▁dialect	-12.2089
▁drench	-12.2089
▁efficac	-12.2089
▁immeasurabl	-12.2089
▁implacabl	-12.2089
▁languish	-12.2089
▁lloyd	-12.2089
▁mulligan	-12.2089
▁pavlovna	-12.2089
▁philanthrop	-12.2089
▁sphinx	-12.2089
▁symphon	-12.2089
▁unspeakabl	-12.2089
▁charcoal	-12.2089
▁dublin	-12.2089
▁extort	-12.2089
▁ernest	-12.2089
▁preface	-12.2089
▁emblem	-12.2089
▁recreation	-12.2089
▁bounderby	-12.2089
▁hovel	-12.2089
▁ordeal	-12.2089
▁vertical	-12.2089
▁patricia	-12.2089
▁debray	-12.2089
▁parasol	-12.2089
▁exterminat	-12.2089
▁perkins	-12.209
▁historie	-12.2092
▁derisi	-12.2105
elain	-12.2202
powder	-12.2248
breast	-12.2248
▁discomfit	-12.2261
▁accompaniment	-12.2261
▁apprehensive	-12.2261
▁captivat	-12.2261
▁cavalcanti	-12.2261
▁complacent	-12.2261
▁glug	-12.2261
▁hypocris	-12.2261
▁incomparabl	-12.2261
▁interchange	-12.2261
▁invincible	-12.2261
▁ostensibl	-12.2261
▁rampart	-12.2261
▁relentless	-12.2261
▁shrivel	-12.2261
▁tribunal	-12.2261
▁vicomte	-12.2261
▁vindicat	-12.2261
▁bristol	-12.2261
▁clipp	-12.2261
▁fastidious	-12.2261
▁hindrance	-12.2261
▁reflex	-12.2261
▁transition	-12.2261
▁iniquit	-12.2261
▁campbell	-12.2261
▁chieftain	-12.2261
▁woozy	-12.2261
▁testify	-12.2261
▁rosalie	-12.2261
▁sierra	-12.2261
▁tremor	-12.2261
▁cherrie	-12.2261
▁partisan	-12.2261
▁auction	-12.2261
▁bridal	-12.2261
▁zeus	-12.2262
▁eliminat	-12.2262
▁oracle	-12.2262
▁scald	-12.2262
▁treatise	-12.2262
▁dimpl	-12.2264
world	-12.2423
▁chiltern	-12.2437
▁conciliat	-12.2437
▁fyodor	-12.2437
▁impertinence	-12.2437
▁nathaniel	-12.2437
▁perspective	-12.2437
▁physiolog	-12.2437
▁profusion	-12.2437
▁raskolnikov	-12.2437
▁standpoint	-12.2437
▁thermometer	-12.2437
▁varnish	-12.2437
▁wilcox	-12.2437
▁jefferson	-12.2437
▁mislead	-12.2437
▁flipp	-12.2437
▁intrust	-12.2437
▁saucepan	-12.2437
▁lagoon	-12.2437
▁twain	-12.2437
▁plait	-12.2437
▁gulp	-12.2437
▁gopher	-12.2437
▁fetter	-12.2437
throp	-12.2445
▁fatigu	-12.2562
grown	-12.2602
▁superintend	-12.2614
▁borlsover	-12.2615
▁buddhis	-12.2615
▁certificate	-12.2615
▁culprit	-12.2615
▁dejection	-12.2615
▁deprav	-12.2615
▁disconsolate	-12.2615
▁forefather	-12.2615
▁gascoyne	-12.2615
▁imprint	-12.2615
▁inadequate	-12.2615
▁inequalit	-12.2615
▁innovation	-12.2615
▁nutmeg	-12.2615
▁ordinance	-12.2615
▁recompense	-12.2615
▁refract	-12.2615
▁sculptor	-12.2615
▁unconcern	-12.2615
▁chaplain	-12.2615
▁dessert	-12.2615
▁peninsula	-12.2615
▁profile	-12.2615
▁freak	-12.2615
▁moraine	-12.2615
▁veloci	-12.2615
▁walnut	-12.2615
▁contagio	-12.2615
▁palliser	-12.2615
▁hydra	-12.2615
▁socket	-12.2615
▁bounty	-12.2615
▁wrapping	-12.2615
▁whimsical	-12.2615
▁ketch	-12.2615
▁fragil	-12.2616
▁stubb	-12.2616
▁thame	-12.2617
▁veritabl	-12.2632
▁venerat	-12.2698
precedent	-12.2708
▁hypnotiz	-12.2797
▁peremptor	-12.2797
▁amsterdam	-12.2797
▁candlestick	-12.2797
▁capricious	-12.2797
▁cynthia	-12.2797
▁disastrous	-12.2797
▁fanciful	-12.2797
▁intricate	-12.2797
▁labyrinth	-12.2797
▁muskrat	-12.2797
▁pavlovitch	-12.2797
▁prescription	-12.2797
▁sneez	-12.2797
▁thanksgiving	-12.2797
▁theoretical	-12.2797
▁visual	-12.2797
▁westminster	-12.2797
▁wilfrid	-12.2797
▁categor	-12.2797
▁immoral	-12.2797
▁martineau	-12.2797
▁rebuil	-12.2797
▁wilmot	-12.2797
▁doorstep	-12.2797
▁pretense	-12.2797
logne	-12.2797
▁droll	-12.2797
▁opulen	-12.2797
▁unexp	-12.2797
▁inhuman	-12.2797
▁utopia	-12.2798
▁lobb	-12.2799
▁dispel	-12.2799
▁unlim	-12.2802
▁feroci	-12.2802
rbace	-12.2803
bank	-12.2969
▁relaps	-12.2982
▁baptist	-12.2982
▁cleft	-12.2982
▁climax	-12.2982
▁crescent	-12.2982
▁disobedien	-12.2982
▁geometr	-12.2982
▁geronimo	-12.2982
▁gurgl	-12.2982
▁hypocrite	-12.2982
▁imminent	-12.2982
▁kennicott	-12.2982
▁municipal	-12.2982
▁octavia	-12.2982
▁paradox	-12.2982
▁populous	-12.2982
▁presumption	-12.2982
▁prosecutor	-12.2982
▁romayne	-12.2982
▁seclusion	-12.2982
▁shopkeeper	-12.2982
▁suffolk	-12.2982
▁intersect	-12.2982
▁naomi	-12.2982
▁patriarch	-12.2982
▁theodora	-12.2982
▁wrestle	-12.2982
▁razor	-12.2982
▁consort	-12.2982
▁reptile	-12.2982
▁arduous	-12.2982
▁fleming	-12.2982
▁redmain	-12.2982
▁germain	-12.2982
▁feversham	-12.2982
▁inherent	-12.2982
▁scull	-12.2982
▁tacit	-12.2982
▁vernon	-12.2982
▁ebon	-12.2983
▁actuat	-12.2983
▁egoist	-12.2983
▁grimace	-12.2988
terior	-12.3047
▁mytholog	-12.3064
▁constanc	-12.3115
▁slav	-12.312
▁agreeabl	-12.3145
▁rebellio	-12.3147
▁coincide	-12.317
▁infinit	-12.3171
▁encroach	-12.3171
▁aggravat	-12.3171
▁assimilat	-12.3171
▁catalogue	-12.3171
▁custod	-12.3171
▁distemper	-12.3171
▁florida	-12.3171
▁infamous	-12.3171
▁innkeeper	-12.3171
▁judicious	-12.3171
▁premature	-12.3171
▁provoking	-12.3171
▁stupendous	-12.3171
▁svidrigailov	-12.3171
▁unceasing	-12.3171
▁vouchsaf	-12.3171
▁witchcraft	-12.3171
▁cecily	-12.3171
▁fernand	-12.3171
▁winterborne	-12.3171
▁promontor	-12.3171
▁refut	-12.3171
▁vestige	-12.3171
▁cloister	-12.3171
▁ganem	-12.3171
▁bacch	-12.3171
▁slab	-12.3171
▁demure	-12.3171
▁northwest	-12.3171
▁giggl	-12.3172
▁carniv	-12.3172
▁tapestr	-12.3173
traddle	-12.3178
sprit	-12.3354
▁tempora	-12.3355
▁mutilat	-12.3363
▁adjutant	-12.3363
▁bailiff	-12.3363
▁blister	-12.3363
▁brigitte	-12.3363
▁competitor	-12.3363
▁duplic	-12.3363
▁festivit	-12.3363
▁identify	-12.3363
▁injunction	-12.3363
▁inseparabl	-12.3363
▁intermediate	-12.3363
▁ludicrous	-12.3363
▁nikolay	-12.3363
▁shimmer	-12.3363
▁unaccustomed	-12.3363
▁vancouver	-12.3363
▁warburton	-12.3363
▁citoyen	-12.3363
▁footnote	-12.3363
▁intercept	-12.3363
▁prussia	-12.3363
▁troph	-12.3363
▁baptiz	-12.3363
▁evolv	-12.3363
▁mosquito	-12.3363
▁sordid	-12.3363
▁swoop	-12.3363
▁efface	-12.3363
▁pooh	-12.3363
▁artisan	-12.3363
▁darnay	-12.3363
▁mattie	-12.3363
▁endanger	-12.3363
▁minnie	-12.3363
▁jorda	-12.3363
▁teapot	-12.3363
▁spiral	-12.3364
▁ballast	-12.3364
▁pounc	-12.3365
▁bounc	-12.3365
summer	-12.3546
▁shrug	-12.3554
▁yank	-12.3559
▁discredit	-12.3559
▁arithmetic	-12.3559
▁auditor	-12.3559
▁drought	-12.3559
▁extricat	-12.3559
▁grandpapa	-12.3559
▁impostor	-12.3559
▁incoherent	-12.3559
▁inconsistent	-12.3559
▁marjorie	-12.3559
▁noirtier	-12.3559
▁philistine	-12.3559
▁rapturous	-12.3559
▁reminiscence	-12.3559
▁submarine	-12.3559
▁symmetr	-12.3559
▁unfamiliar	-12.3559
▁unimportan	-12.3559
▁victual	-12.3559
▁distaste	-12.3559
▁sausage	-12.3559
▁adverse	-12.3559
▁dishonor	-12.3559
▁scoff	-12.3559
▁buddha	-12.3559
▁cadet	-12.3559
▁sceptic	-12.356
▁analyz	-12.356
▁snip	-12.3564
▁potato	-12.3579
responsive	-12.3759
▁approximat	-12.3759
▁baltimore	-12.3759
▁collision	-12.3759
▁darrow	-12.3759
▁dishearten	-12.3759
▁foreboding	-12.3759
▁hammock	-12.3759
▁implicit	-12.3759
▁juncture	-12.3759
▁langmore	-12.3759
▁metaphor	-12.3759
▁metropolis	-12.3759
▁multiply	-12.3759
▁phoenician	-12.3759
▁pinnacle	-12.3759
▁preposterous	-12.3759
▁reassuring	-12.3759
▁sarcasm	-12.3759
▁straightforward	-12.3759
▁terrestrial	-12.3759
▁uninterest	-12.3759
▁yvonne	-12.3759
▁deprecat	-12.3759
▁lunatic	-12.3759
▁egotis	-12.3759
▁tennessee	-12.3759
▁thurston	-12.3759
▁knoll	-12.3759
▁garnish	-12.3759
▁sergey	-12.3759
▁utiliz	-12.3759
▁enhanc	-12.3761
▁saturat	-12.3772
notice	-12.3857
▁suprem	-12.3865
▁conceivabl	-12.3943
prudence	-12.395
compromising	-12.3963
▁baxter	-12.3963
▁blizzard	-12.3963
▁calendar	-12.3963
▁concrete	-12.3963
▁confederation	-12.3963
▁diffiden	-12.3963
▁geoffrey	-12.3963
▁gluck	-12.3963
▁illinois	-12.3963
▁jessica	-12.3963
▁nuisance	-12.3963
▁pamela	-12.3963
▁peloponnes	-12.3963
▁prerogative	-12.3963
▁sensual	-12.3963
▁unavoidabl	-12.3963
▁vampire	-12.3963
▁vindictive	-12.3963
▁vulture	-12.3963
▁fissure	-12.3963
▁friction	-12.3963
▁thrush	-12.3963
▁triangle	-12.3963
▁meditative	-12.3963
▁bailey	-12.3963
▁jovial	-12.3963
▁slash	-12.3963
▁soviet	-12.3963
▁crocker	-12.3963
▁disengag	-12.3963
▁chirp	-12.3963
