[PAD]
[UNK]
[CLS]
[SEP]
[MASK]
'
a
b
c
d
e
f
g
h
i
j
k
l
m
n
o
p
q
r
s
t
u
v
w
x
y
z
##n
##g
##e
##r
##l
##t
##i
##a
##m
##p
##v
##o
##w
##d
##u
##s
##b
##k
##c
##h
##f
##y
##x
##z
##q
##j
th
the
##er
##nd
##in
##ed
##ou
##at
##en
and
##or
##es
to
of
##on
##is
##ing
##ar
##it
##as
##an
##ll
in
##re
wh
he
##om
be
ha
##le
##ot
##ow
##ic
##ut
it
##ld
that
sh
##ly
was
##gh
##id
##se
on
##ve
##et
##ent
you
##im
##st
##ce
##ith
for
##ir
##ion
as
##ay
his
##al
with
##ur
st
##ter
her
##ver
##ch
re
##ad
##ght
an
not
is
had
sa
at
##oo
##her
but
##ould
she
##ct
##ess
fr
se
##am
pr
we
him
so
##ill
##ain
su
##ight
me
##ere
##all
##ke
##il
de
my
they
all
##est
ch
##ich
ne
by
have
##ome
##pp
##ck
li
this
do
##ore
con
##us
which
##ri
##ul
up
said
from
##th
##ard
##ge
##ra
or
one
no
ex
were
there
##os
##pe
man
##ble
who
al
##ant
##ie
##ous
##ust
##ation
fe
##and
them
##ers
##lf
when
##ind
##ast
go
##ood
kn
##un
##our
##ist
##em
are
##out
would
##art
what
le
their
##ong
en
if
un
##if
com
##ound
ab
out
wor
##ol
will
int
br
##ak
mis
##ate
##op
##um
##ough
##la
##itt
ar
##ook
##ish
##one
##ap
been
##own
##ame
then
##ven
##self
##ive
tr
ro
##ig
fa
##reat
af
sp
qu
##ery
##ity
##ort
##ost
tw
ag
could
am
##el
##ake
any
##ure
some
your
can
more
tim
##ep
##nder
ever
##ence
##ther
##fe
into
##ry
##ose
now
##au
##ag
cl
very
##qu
##ved
bo
other
did
##ance
than
##ittle
little
##ine
##ies
##oun
look
##way
##urn
like
##ite
gr
##ear
##ach
lo
##ass
##other
##able
##ought
know
time
im
us
co
##fore
##ell
how
##hing
##cc
ad
day
##ack
about
##ade
##ice
see
over
##ci
##ide
##pt
dis
##ink
too
##wn
great
after
per
pro
again
##ment
upon
hand
has
##ree
##ked
##ather
only
car
##tain
##ally
str
mar
po
fl
well
should
##ab
##pl
say
good
##ings
two
our
thr
##ud
##ving
##oss
down
##ty
##ire
pe
before
##ves
app
##ile
every
its
pl
cr
old
off
made
##ick
##ied
long
bl
##age
##ber
where
##ress
fir
##ang
mu
never
must
sm
##ful
such
##ull
##ions
##ft
pre
came
##ro
miss
##ward
##een
##ild
##orn
##ue
even
under
these
##ord
come
part
fo
sc
##ated
rem
ind
##ness
bec
##per
may
much
think
##ious
way
mister
##ount
##led
let
ey
##ath
thought
##ect
back
spe
gl
##ady
bet
##ff
##ans
res
just
first
##ise
here
ho
own
des
##ried
ob
##ces
mo
pla
##ced
cont
##ary
##ered
went
himself
men
##me
##co
##int
might
##ily
seem
##ip
beg
##oth
##ouse
##ave
wat
comp
sw
through
##igh
away
em
get
head
don
imp
##llow
bel
##ened
without
##iz
life
most
pass
ear
make
cons
som
turn
##ac
##iv
shall
##ng
pres
acc
those
eyes
house
att
somet
jo
still
night
call
##red
op
##ew
##ens
wom
last
##ign
tell
##ause
nothing
##ark
sl
new
##ction
la
##iff
take
being
comm
many
##les
ser
word
inter
##atter
wr
##ons
ret
found
##are
##ase
while
##ory
##ix
saw
put
year
##iend
##ople
##dy
young
far
##aking
once
friend
people
##air
##ether
work
##ors
##ible
room
##ently
three
##ted
yet
##pect
##ever
count
same
father
right
child
cour
##ne
place
another
##ition
want
though
##less
##ince
king
##ian
happ
heart
end
gra
nat
face
##thing
love
took
dist
arm
##ace
inst
rep
##alk
##man
##ult
char
nor
te
ple
set
##cl
light
looked
##gg
missus
asked
mind
yes
supp
wa
ll
left
##cess
##ting
ac
##ub
##augh
##ents
##te
##ished
pers
##ways
things
sir
mom
##irl
near
##sw
##ations
sat
find
##der
##sel
##ia
world
##ower
##rew
##ject
##fect
give
cap
##av
why
mother
gu
gen
##ict
always
##so
##ling
answ
##pped
soon
##iver
##den
form
heard
war
thing
something
seemed
sub
god
door
girl
##ange
##ph
##und
wind
because
diff
mon
going
##ertain
##de
told
home
ke
##orm
got
##ither
el
##ret
##ock
sur
high
##ched
eng
gi
ma
ph
##ank
hands
moment
woman
follow
##land
dr
ve
vo
feel
##aut
##ning
poss
ev
##ical
##lt
##ple
boy
return
rest
reg
knew
each
inf
conf
oh
sil
##ner
kind
cle
##ush
hel
rel
##orr
tra
##ual
ass
wo
##ars
##cept
belie
bre
certain
against
water
##uck
exp
hard
prop
years
del
unt
quite
beh
side
##iness
##ined
appear
four
few
##ool
done
better
##ited
half
min
##ail
tre
ref
also
##cy
##oub
##vent
began
##most
##ows
ter
##ully
##act
enough
pur
##ised
dra
act
dear
having
seen
gener
lady
hum
##aster
##ared
##aken
##ash
##oke
hour
inde
##ps
##ying
cur
called
##ier
##ason
does
whole
##uth
morn
turned
pleas
##ial
gave
betw
##ense
occ
##aps
sou
course
##ib
ins
##gether
##ream
##ired
both
add
poor
col
read
bla
##ten
##selves
ste
among
between
keep
##ular
beaut
matter
care
morning
white
##ained
sure
name
##ged
toward
##ute
##owed
small
whom
par
exc
sk
pa
lar
felt
##ks
##ating
##osed
##bo
myself
open
six
es
##ru
herself
however
##xt
##ond
hund
stood
hundred
##plied
sent
inc
round
##tered
sim
##ife
##ates
##ters
days
almost
point
##eng
gre
eight
words
hor
fam
stand
land
##dden
##ung
mean
sun
##ird
##haps
##iet
perhaps
##ures
art
sle
ed
##iss
best
dark
sudden
hear
bu
replied
bar
voice
met
##ton
che
anything
till
underst
##ren
##its
until
black
##oud
looking
cried
##ned
suff
aw
##ins
prin
red
##amp
less
lay
next
law
##end
power
##vel
fact
##not
brought
##up
##ately
##enty
country
help
##als
sn
quest
wonder
use
vis
laugh
##med
##fully
together
air
unc
need
adv
wish
##ove
person
indeed
since
contin
##oney
gent
present
har
forg
full
run
rather
ra
##ok
cond
ide
sy
##eter
##rib
feet
fin
fall
##cei
five
mil
talk
##ater
bed
##ured
doct
##sh
reach
interest
lord
gone
##tle
death
consid
##fort
serv
wife
doub
adm
##ief
##pr
##ene
taken
others
hope
cannot
speak
themselves
along
ext
dire
bes
ent
master
##od
##ued
gentle
##lic
##uring
fire
large
pol
##ention
##oy
thus
##iled
sec
##ets
play
real
prom
##ments
##ield
bus
differ
##ison
thou
##ember
##ead
##ches
reason
thous
##iting
brother
##og
##akes
thousand
money
dep
answered
true
##unt
children
behind
sound
##ants
##ably
wood
##used
whose
ele
twenty
mer
rec
believe
inv
hon
book
dec
opp
hold
##ude
fair
passed
sch
##ided
##ities
##ength
##cious
sing
##cover
##ys
nature
##ering
alone
dead
##app
sever
cat
close
gold
start
hur
fur
##ont
doctor
ask
son
ground
pat
sea
strong
leave
compan
##illed
##ept
##cond
##ides
obs
fell
##body
doubt
sign
earth
remember
fear
given
##ances
therefore
ir
##oc
##ually
deep
##iful
##ressed
body
often
##du
pap
##ane
short
second
tem
##owing
##ceed
stre
fort
##mb
##ale
horse
mad
chr
order
const
ten
clear
##irc
fif
eas
##vers
bur
really
spir
##ceived
##read
##laim
ill
##osition
bra
understand
list
abs
spr
##az
pain
question
##anger
everything
aff
circ
wall
coming
##cted
##ching
##ready
above
already
least
expl
##esh
step
used
prince
itself
##ister
necess
case
around
tri
##hn
soul
##ized
suddenly
lad
evening
general
mag
num
##imes
known
quick
captain
##ific
whether
lear
within
live
times
expect
state
friends
swe
##gn
bring
##alked
sort
##men
women
table
meet
john
sum
returned
held
dri
big
walk
##eth
says
lea
##cer
obser
else
mid
during
##ident
mus
##ape
beautiful
ord
either
town
lost
sight
sleep
##vern
means
foot
cut
cal
kept
##ety
##gar
##ience
prof
fellow
dream
mist
past
became
pret
bad
##ages
stra
making
##ught
##ey
##ution
##lish
object
est
##ts
towards
dev
human
manner
strange
low
##old
##ott
##ient
##gs
##ines
ann
##here
ang
daugh
##oon
city
rich
sometimes
##aught
##airs
rose
dem
##ility
ready
ru
##cing
##itch
pal
road
ran
corn
thy
cold
##ians
##iew
##aring
acr
bit
won
didn
christ
squ
truth
##mer
##orrow
##nded
thir
soci
perfect
subject
##br
ship
mur
answer
pie
disc
arr
free
business
river
##arr
cast
family
##ountain
hus
jud
letter
##ony
hair
arms
##oken
##ote
become
sit
ut
ah
##ingly
##ouble
val
##aint
natur
possible
several
fine
##ffect
lead
express
sus
glad
arri
blood
##itting
##rie
quiet
able
##ert
idea
##iously
##itted
##bed
charac
##ah
begin
chur
story
eye
##band
##ative
consider
across
##li
except
equ
tou
##dle
cent
##isf
sto
partic
diffic
window
surpr
prov
grand
##use
flo
pen
ca
govern
wild
soft
cross
different
effect
##ased
def
longer
discover
followed
sold
thee
husband
fre
##antly
##by
exper
##ards
pub
cor
enter
win
suppose
##teen
respect
hast
##ices
proper
sal
comple
show
heav
##cul
happy
creat
taking
##essed
stay
requ
appro
spoke
daughter
wee
##une
##lly
##alth
anim
din
green
bird
mere
##ny
cra
gard
##empt
##ms
draw
reached
##ov
appeared
cover
##ley
exist
##ug
##ination
pretty
hea
opened
##anged
slow
##ize
imag
saying
##utes
common
tom
mor
coll
ap
occas
##ames
##ench
mountain
satisf
sense
succ
fav
##oura
##ising
rock
accord
scar
break
month
continued
stri
contr
church
tree
carried
spirit
##outh
cry
##ump
wanted
certainly
secret
command
##be
dest
##lled
move
lu
street
account
ought
prep
sens
##ats
##ement
purp
##ots
##riage
tear
esc
##owers
breat
dro
fan
character
##res
##ime
decl
##medi
stud
school
##itude
sla
quar
heaven
feeling
##son
sad
regard
bright
worth
##ney
dut
hot
hung
##laimed
##ric
disp
trans
delight
reco
##iling
rid
##eric
blue
hill
cloth
div
mot
disapp
##idence
produ
sweet
success
##ury
fast
english
ye
dress
port
neither
court
var
seven
##amed
##ains
princess
lived
view
##tern
##ushed
immedi
self
chief
hours
mill
exam
##wh
ce
tried
##day
entered
##ask
eat
carry
import
bear
danger
##ledge
offic
du
cause
none
forward
##umb
uncle
number
det
further
##gr
pay
##gin
added
eff
particular
deal
queen
prot
led
front
acqu
pray
##ored
happened
alth
fight
walked
later
##bit
joy
intell
##ster
comfort
prob
maj
##ening
public
bene
##uss
##ship
although
fig
direct
##ger
##iar
bat
mouth
##ality
mem
seems
sho
##side
##iam
sol
yourself
fore
##to
doing
living
desp
##oof
##pend
field
received
shad
bey
beyond
phil
line
visit
##inct
party
garden
hall
vi
##uff
americ
##ism
mat
gentleman
burn
##ested
laid
##irt
##raid
occasion
entire
age
sister
repe
##ously
prison
accom
whis
nearly
##ndon
trees
##cri
ge
eighteen
send
##wards
early
breath
lab
forth
##ior
try
##ones
med
terri
da
##ilt
princi
enem
thinking
##where
chance
minutes
cre
anx
mary
##anced
pict
wait
vill
afraid
crow
smile
##els
england
late
pleasure
bank
##bert
##ming
faith
super
news
fle
seeing
rob
neigh
##oint
##iment
hat
auth
bill
plain
trouble
silence
aunt
exclaimed
shar
coun
er
##gy
miles
##ply
glass
drew
neighb
mine
pract
heavy
standing
sevent
change
necessary
chap
##pping
purpose
concer
length
inqu
bell
##iest
natural
deter
##icked
hardly
top
caught
##ues
strength
##ives
##ounded
##aw
##ession
circum
fing
stopped
av
opin
##ament
priv
instead
##ences
##pper
grew
loved
island
knight
ago
inn
peace
watch
##inary
##iced
third
beauty
##uct
emb
conv
approach
determ
ver
##ler
##ining
##hood
##king
convers
straight
besides
position
thirty
##iter
den
attention
south
##ager
##ically
hist
##eless
comes
##aged
clock
force
plan
sitting
please
dog
whatever
##ugg
inform
hop
chair
lie
##form
build
bab
##ma
##ustom
je
girls
rom
french
struck
pull
wrong
knowledge
grace
##oom
scarce
resol
thoughts
attempt
fifty
rap
box
getting
company
crowd
##tained
##asp
##ils
class
die
drink
dinner
exact
enj
thick
saint
slight
save
maid
immediately
born
main
##ius
##crib
rev
remark
ast
##oose
north
##ists
tears
treat
##usion
meant
boys
fat
##ls
slowly
author
incl
lim
died
infl
fool
fish
sugg
post
accept
##ern
##elve
##ceive
##cient
stone
boat
paper
fright
conse
jour
ty
enc
quickly
youth
##ging
van
vict
##ified
belong
warm
##par
fix
imposs
forgot
beside
margar
leg
tone
camp
bound
makes
margaret
##mon
brown
##bs
##val
moon
##rupt
gather
lips
placed
circumst
food
filled
##iers
##ift
desire
##ee
london
distance
forest
floor
obl
##itions
spring
jack
viol
##ics
pock
following
remained
ger
grow
snow
government
ball
hors
##ented
##aded
broken
laughed
##ann
##oured
refle
safe
##ries
hen
##ively
##itten
depart
neck
easy
thank
##ope
##dom
##ham
knows
waiting
remain
hid
fresh
und
anne
dread
ash
##arch
result
proceed
gaz
##uc
shout
##dd
started
gall
complete
whisper
wide
horses
##isted
##cially
##ges
service
piece
##eness
forget
palace
guard
doll
##erv
talking
yell
##cial
lift
fun
grave
week
impossible
effort
##nding
imm
army
difficult
##let
##reme
stop
mess
narr
deg
incre
corner
society
path
weak
shut
hy
teach
cloud
##ency
##ivid
demand
##ended
##unk
nine
recogn
##cell
##fer
turning
sky
ori
##asure
##olog
opinion
sin
beat
single
dw
fly
lang
mass
outside
kiss
trust
occup
##uit
below
appearance
silver
bro
west
aftern
gun
couldn
ant
conn
showed
conversation
running
mention
nin
greater
music
##ases
##ises
##fection
mark
espe
##ror
##ories
une
spot
##ourage
peter
##ork
##anch
presence
winter
battle
hun
morrow
probably
##ection
clothes
fash
compl
wished
appar
married
arrived
suffic
eager
former
giving
pop
##pic
sand
usual
relig
simple
sym
##itation
neg
sor
moved
months
speaking
silent
cab
pun
expression
covered
afternoon
pet
##aped
occur
states
##rief
admir
##light
easily
##unity
phys
tender
beginning
duty
chapter
influ
##zz
instant
polit
enjoy
sick
tur
stream
figure
##ald
##ract
jew
vol
minute
pleasant
scarcely
conscious
terrible
kill
concl
pale
raised
##oop
fashion
thor
##yal
##ze
twelve
leaving
##ature
mel
fut
threw
flowers
attack
trying
##cked
sword
tall
marry
expected
according
##uel
forty
stick
temper
iron
oblig
train
rapid
ladies
learn
especially
##ipped
##orted
isn
##amb
evil
bread
learned
##orth
office
surprise
write
purs
written
killed
star
consequ
exh
places
condition
direction
##jo
entirely
action
##ding
##wise
##ibly
##mit
happiness
id
decided
golden
langu
##uous
note
bott
unless
books
fal
##aled
wonderful
shook
##ounds
##ech
##onel
perfectly
geor
sail
##ume
broad
closed
##atic
latter
steps
utter
merely
history
##gan
##osing
wise
wouldn
understood
middle
prev
enemy
sole
gar
simply
tast
shot
board
ring
sav
bow
##io
reply
##gress
changed
excell
grass
finally
##ital
suc
summer
sharp
fortune
experience
succeed
##uted
##retched
journey
observed
##osp
afterwards
##fast
##ec
earn
persons
lean
broke
deser
fit
mir
marriage
##acy
repres
bitter
lying
cou
rain
trave
listen
situ
##anc
##cience
##ected
origin
wit
##olute
##oses
calm
lives
escape
beneath
##ouses
clim
hes
ven
repeated
pocket
##lling
liber
oper
tail
whe
passion
dick
mut
becom
dar
allowed
famil
ow
##ivers
##mn
gate
spite
health
##str
##ission
ign
cand
habit
empl
strugg
firm
sorry
##under
madame
furn
sigh
future
##umed
nice
separ
presently
circumstances
##reh
##ples
sett
loud
worse
corr
wand
spread
letters
magn
disg
passing
pleased
darkness
##come
civ
##cies
tea
apart
disappear
important
##erable
legs
nation
delic
dressed
game
extra
walls
dry
virt
dim
rub
##idently
absolute
blind
discovered
exactly
dam
##oved
unh
cost
arch
employ
##velop
cous
beast
opport
hu
dropped
pack
subst
smiled
chee
resp
promise
##urs
host
creature
yellow
cla
notice
priest
knowing
heads
##esty
cook
shore
##ishment
individ
existence
determined
##lend
storm
seat
ears
##ours
mount
ur
##ina
conce
##anging
fixed
press
wear
major
ves
pros
##iod
motion
empt
leaves
bottom
arg
##iety
##sy
##enth
nobody
pick
##amber
##que
bag
intellig
stir
assist
dom
advant
tired
vent
##ument
##ashed
dan
##action
wrote
considered
houses
suit
cheer
clean
fla
lou
##path
##rel
cho
castle
frequ
drawing
luck
##pan
##cent
##idge
##ulty
ones
noble
splend
honor
paid
speech
estab
faint
##ires
individual
vall
##inite
##rodu
birds
allow
impress
jane
##my
song
touch
various
moder
believed
##istr
mod
somewh
period
shadow
affect
mal
extreme
judge
village
royal
somewhat
lower
##go
##zen
agree
remembered
aston
declared
##ays
ham
parts
colonel
##cil
breakfast
shr
tow
drop
surely
##ayed
##uded
scene
describ
comb
greatest
influence
custom
animal
##itary
sake
perform
soldiers
##iny
ancient
##ests
evidently
drawn
looks
ways
harm
destro
revol
##nes
##ator
##anted
picture
##ption
likely
laws
holding
difficulty
courage
inj
prevent
mort
troub
burst
angry
proud
spoken
##ron
##head
##ision
attend
watched
east
horr
pot
##na
agre
private
##bing
shop
jul
finished
anxious
##cise
fifteen
social
dism
wine
ideas
murder
mater
george
space
scr
inside
gentlemen
civil
##iently
formed
fol
fail
constit
lot
goes
thin
surf
servant
ourselves
fallen
fancy
henry
##ium
kne
advent
carriage
baby
tong
everybody
commun
##itive
ine
waited
grou
##gged
vain
##arked
##otion
favor
bal
speed
guess
narrow
windows
carefully
ice
jim
noise
meth
hero
william
pecul
promised
walking
forgotten
obliged
earnest
lose
imper
vessel
grad
glance
shoulder
animals
noticed
knock
peculiar
##cks
quietly
cup
ta
serious
tremb
generally
american
france
exer
##iction
property
stranger
shoulders
##osity
sympath
bod
flor
cow
dust
affection
conduct
##rop
##raph
higher
handsome
##iant
##nday
recover
wel
poet
pure
chamber
distinct
gh
mam
pier
grown
##uly
rough
##enced
desce
murm
##stem
personal
##osite
offered
##onsie
edge
built
whispered
skin
pieces
##arily
##itated
suffer
butter
faces
spent
##ables
interrupt
##how
##isters
develop
unk
fond
coat
touched
hol
jump
pi
##ingu
wasn
surprised
race
##af
##uce
##oted
dish
##ob
smo
educ
brave
fer
##over
weather
eld
wealth
system
german
false
##yn
##aked
cousin
##key
ben
prepared
##wood
fingers
surr
intellect
##ipp
##ites
opportunity
introdu
lovely
rag
crown
matters
companion
alar
innoc
ris
sorrow
##hern
quarter
band
lake
mix
meaning
mountains
memory
dor
##ring
##leep
##ctions
frank
finding
mach
charge
pan
gray
avo
inh
grat
greatly
dare
asleep
offer
dav
alto
##ounced
opposite
##ett
##unch
breast
bare
reading
altogether
writing
##pected
degree
exec
##fortun
hath
##eal
feelings
rail
##night
honour
fate
##attered
meeting
##ilar
alive
hide
cruel
blow
hurt
loss
defe
thrown
caused
##oned
seek
serve
profess
duke
bent
##kes
united
kingdom
situation
empty
wis
liked
swift
opening
servants
bush
suspic
freed
##ointed
surface
questions
##aff
curious
ess
accompan
christian
fill
wid
paris
satisfied
ere
pity
sides
##nds
equal
height
##osop
ordered
depend
grey
listened
##pet
##eer
rejo
capt
##ibility
despair
mart
happen
hurried
dollars
lin
loc
language
unf
yours
supposed
laughing
settled
talked
rode
perm
distingu
hurry
lifted
destroy
value
taste
##ores
##ners
square
vast
render
labor
rul
roof
stock
telling
papa
study
##ara
pin
rising
tal
sufficient
due
rise
##eds
forced
philosop
nose
sixty
egg
stat
fault
##asc
station
##ille
distur
regular
kitch
special
honest
building
shape
season
pride
smiling
orders
accompl
sacri
usually
watching
impro
##ushing
passage
valley
material
stairs
remarked
frightened
woods
wed
catch
mistress
directly
##he
prete
gloom
lines
justice
doesn
suggest
diam
growing
bless
##like
eur
##erence
ordinary
gathered
tit
threat
weeks
method
ale
ange
seized
search
discuss
ble
##ify
ignor
deb
##eping
supper
##uses
##ral
##bur
##chief
march
bold
putting
explain
##ik
nearer
york
affairs
contrary
##yr
##ishing
moving
streets
bir
##icated
wash
kitchen
bas
cit
##eder
imagine
prefer
possess
##rance
deliver
##imate
receive
monsie
por
twice
monsieur
##min
hole
sacrif
##hip
rever
reck
process
favour
dign
##aly
europe
unw
working
heat
##antic
cler
proved
##ades
pra
##lin
arth
lod
prove
##ception
pulled
pit
##ette
authority
jer
##ole
haven
movement
##tering
##usted
engaged
brothers
advantage
ber
##lished
arthur
stones
farm
difference
aside
hence
possession
observ
##etic
exte
soldier
hills
fortun
##uls
instance
ren
##iding
holy
color
flew
rate
wal
doors
trib
busy
lat
address
familiar
weight
played
##set
flower
aware
solemn
di
liter
test
indian
emper
distant
interesting
bull
thorough
ol
wore
worked
amb
explained
excellent
splendid
tongue
named
pard
shame
sam
franc
moments
trium
wil
##eav
myster
seated
spect
instantly
unkn
endeav
similar
naturally
triumph
##cr
measure
dogs
amount
elect
officer
##itable
uns
necessity
rank
##theless
brit
confidence
vir
##illa
##ulous
nevertheless
agreed
hearing
##ancho
takes
##ental
univers
fier
earl
keeping
drive
produced
aud
aug
cott
names
##con
disappeared
##agn
throw
president
gods
magic
prisoner
represent
unknown
##por
##ague
terror
contain
bri
smoke
support
detail
wicked
flat
yester
artic
dull
falling
##vey
worthy
liberty
##ulation
design
wants
evidence
companions
spirits
bid
##bers
coast
thro
mighty
particularly
witness
##ky
clever
sought
span
rare
officers
##lv
##ford
##zy
yesterday
powers
yield
organ
amaz
pointed
claim
content
possibly
cool
hom
shock
preser
terms
dwell
persu
drove
ceased
acquaint
occurred
lies
gri
gree
tor
otherwise
finger
emperor
bask
stars
knees
pair
paused
##ruction
failed
required
unhapp
diamond
aut
rat
ali
double
forms
gives
##race
bob
eliz
travel
carrying
gle
##iles
teeth
freedom
shown
forb
fruit
##umn
waters
hearts
ener
pill
##soci
example
upper
milk
affair
softly
moral
foreign
charles
excit
huge
##oes
possessed
cases
fet
##arther
counten
report
principle
inhab
proof
intended
satisfaction
shouted
farther
group
der
##asm
unfortun
unto
singing
arrange
religion
rocks
seventeen
james
works
buy
america
succeeded
rooms
events
leading
majesty
gently
dance
tele
##using
##ached
ga
##father
key
mentioned
seventy
ros
suffering
record
cabin
invent
diss
##ival
demanded
excitement
associ
progress
##angers
##road
curi
##erous
rule
vig
clearly
sheep
regret
neighbour
##iance
instinct
awful
advice
ban
fully
sen
##ena
##mend
papers
hidden
smooth
birth
hither
##bor
stuff
impat
calling
fourth
dreadful
ain
grief
pos
##pap
##ese
brill
powerful
presented
fairy
shoot
##ker
proc
joined
afford
##iments
shel
considerable
obey
interv
voices
interested
card
conqu
cred
needed
cord
pounds
wag
advanced
undert
resolved
##istic
excited
paul
bath
asse
conditions
pictures
##gen
shining
sunday
served
steam
police
sprang
jes
salt
fields
bore
##sie
indians
fierce
ride
nodd
aband
desired
edward
importance
information
hosp
memb
perceived
task
yard
##mond
crit
control
##ternal
fold
##ensive
sooner
merch
dur
suffered
absolutely
citiz
##isc
iss
##illy
completely
cart
rad
##ois
##hold
share
willing
devil
ships
imagination
superior
ep
##ancy
feather
env
anybody
stead
dawn
##asped
occupied
curiosity
fox
yo
##inal
##asant
##asons
##ams
myst
smith
##room
type
apparently
couple
extraord
welcome
bay
daily
modern
dying
##pir
feat
accident
##ension
countenance
##iot
##llen
##ortion
crime
mult
##get
reb
alas
refused
inquir
hate
whenever
thanks
regarded
suggested
##ulf
actually
pardon
size
##gment
cult
flesh
hotel
bodies
shell
##ishop
truly
betr
##with
##uced
rapidly
odd
##alous
club
horror
mile
san
sour
flight
crossed
slave
professor
oce
rushed
excl
worst
##ization
event
corre
science
##sed
##ainted
stepped
midst
foolish
##ha
##thus
brain
##acle
cottage
buck
brief
gain
tight
expressed
drag
equally
education
august
dun
nay
##com
##abel
tempt
picked
taught
elsie
lands
driven
political
resist
resem
instr
cell
lack
barb
dangerous
ken
keen
##hy
store
dozen
trade
points
ninet
sty
nob
##ability
crim
interp
relations
delighted
members
sisters
##ially
belief
asking
anger
park
wet
plat
relief
##ification
hunting
alex
cath
##aries
meat
obst
behold
mistake
inquired
remarkable
cop
nerv
##now
careful
cere
wounded
##ading
enemies
gradually
pu
##for
thorn
worn
interrupted
stup
silk
sixteen
##racted
flour
sylv
lone
nap
##kins
##asing
depth
dreams
##esp
kindly
##reg
##acity
eleven
invol
severe
##ocr
oak
wings
hal
##lace
begun
distr
##while
benef
moreover
exped
independ
artagn
buried
approached
artagnan
saved
sex
species
harry
physical
thunder
glory
creatures
newspap
sang
##kin
plenty
useful
shoes
hoped
frequently
##vert
saf
princip
##oe
chest
bran
##ication
roll
lover
famous
recoll
queer
grim
charming
aim
loose
nur
ath
indiff
consciousness
mamma
enthus
##ips
slept
fighting
enthusi
dig
##acc
##mas
##ids
stage
anyone
thrust
desper
drunk
lamp
##rant
bew
##stone
stern
evident
meanwhile
forgive
accepted
ocean
bot
tot
wondered
playing
hyp
hale
knife
closely
meas
proceeded
message
mour
##lied
sell
union
##ustomed
exceed
precious
century
unex
kat
##oops
##aming
everywhere
minds
extraordinary
arose
capital
entrance
recall
burning
magnific
##stand
plant
neighbor
assemb
lest
##orious
##uments
colle
virtue
retreat
##iana
capable
assured
##ograph
constant
governor
increased
horn
rush
removed
facts
absence
explan
ack
mud
fever
somebody
awa
admit
jealous
kissed
popular
hut
##pelled
grant
indign
friendship
sympathy
ug
##iable
thom
alice
level
objects
pressed
qual
begged
hind
highest
clouds
ghost
acknow
##oused
emp
wishes
##oking
strike
becomes
trembling
##gu
kindness
accordingly
throat
stretched
frag
confess
grandfather
wheel
bon
russ
deck
choose
eighty
##pher
miserable
contempt
##igned
military
basket
##nal
blank
listening
ahead
fro
##elt
larger
divine
##cription
tar
##iber
stories
reve
##izing
excuse
innocent
aid
et
hadn
remind
slaves
ara
##stairs
reward
manage
smell
throughout
waves
judgment
arrival
choice
unhappy
##astic
curr
advance
informed
impression
mysterious
acquaintance
ly
notes
comr
indust
ended
lights
nurse
bought
wra
##itor
spo
marked
scream
uneas
delicate
weary
##estic
join
prompt
experi
hungry
flying
pow
bridge
##aker
##umber
visible
understanding
crying
avoid
tis
stiff
sounds
bowed
caut
goods
david
stupid
##ancing
unable
bos
spark
amid
somewhere
infinite
ashamed
dignity
gay
vic
##ka
hollow
emotion
parents
admitted
hint
##pse
temple
comfortable
intelligence
virgin
bearing
##ldom
hers
##abeth
remains
contem
settle
immense
cher
weap
##ulated
lighted
baron
##gypt
elder
thoroughly
egypt
##ilst
##anges
friendly
rome
meal
intention
##achel
returning
billy
convin
ox
price
sup
rope
project
escaped
hopes
##ology
elizabeth
safety
wound
unus
##onscious
minister
horri
helped
secure
plainly
seldom
thinks
fellows
mood
pushed
exhib
##inging
fairly
pear
##irm
maiden
##mother
##ora
##orous
appears
cheeks
ease
skill
extent
practice
religious
becoming
features
pink
tied
##ential
whence
somehow
displ
greet
faithful
concerned
bishop
##isher
gro
eagerly
eating
waste
fem
bride
##ceiving
concerning
original
accustomed
recom
patient
arranged
##ointment
##ville
##iture
ate
wholly
older
mont
colour
provided
eggs
##ration
partly
prospect
##rees
fee
fled
laughter
branches
##right
whilst
slipped
violent
inhabit
sons
##bb
##yer
engage
uncom
deeply
substance
tale
tiny
yards
##icks
hastily
vague
hell
amuse
wolf
hans
##illing
supply
constantly
christmas
million
mental
wes
washing
log
corresp
nodded
correspond
rust
##oms
obtain
unconscious
prepar
roman
struggle
established
##ws
bee
hunt
##very
signs
uttered
constitution
cave
crew
##well
##reci
quant
##aud
image
merry
treated
efforts
lonely
nut
spare
glanced
portion
##ax
withd
prim
mead
feast
cliff
emer
proportion
consideration
haste
gaze
savage
resemb
##ffe
coach
conscience
mercy
exha
consent
##bits
##ators
##urd
adop
amongst
tower
hanging
rab
##oul
compar
##lessly
circle
entertain
brilliant
gained
row
troops
repro
dared
lion
ming
scot
joe
helen
bringing
anxiety
consequence
establish
fought
sout
##eem
sha
##chan
pred
scra
glim
victory
##field
obv
winds
restr
bol
##ode
##lect
##ourse
handed
indul
patience
jose
rolled
##udd
setting
profession
sylvia
##utions
feared
clo
boots
forehead
principles
rig
sink
##ture
purch
gazed
employed
murmured
##fl
##ashing
##ural
exch
trad
active
bottle
rage
##aval
treasure
invest
lux
protect
encoun
hang
sank
beard
##vere
loving
obtained
native
instru
waist
relation
discovery
nervous
tort
trail
distinguished
ach
pig
stared
print
misery
##cip
guil
warri
jumped
sac
swim
approaching
suspicion
iv
rum
managed
match
guilty
sar
wretched
bree
kings
theory
sher
shone
showing
##atherine
throne
robin
##utation
addressed
protest
admiration
troubled
ugly
flung
subs
relie
thousands
lan
od
wooden
member
sacrifice
apr
##aling
##urity
##acles
farmer
needs
condem
bade
reasons
swall
shadows
dancing
nineteen
style
manif
grate
appreh
desert
engine
terr
wisdom
jesus
pir
##ols
preced
interests
trial
nest
unl
phr
voy
illust
##iven
sear
worship
ay
adam
principal
##more
spend
stands
respons
hit
ner
whist
flash
kinds
require
described
angel
precise
proposed
produce
utterly
##ulse
novel
blame
credit
ja
pause
##ses
##osen
household
armed
follows
##upon
ninety
unb
block
##ivity
refuse
musc
sensible
national
cam
grie
##othing
reven
##plic
delightful
melancho
extremely
melancholy
lunch
enorm
spec
slightly
recognized
mystery
sacred
compreh
distress
useless
trif
philip
mounted
energy
explanation
pour
##xed
##atory
haw
chosen
everyone
##umbled
solid
correct
appreci
resumed
alexand
aven
ech
wing
intense
highly
schem
lucy
departure
agreeable
exercise
ward
dece
max
request
unexpected
joseph
cas
nort
##col
convent
leap
attract
refer
victim
lit
##ndy
forces
sport
drift
sighed
wedding
british
attitude
vision
pipe
southern
manners
flood
commission
guide
observe
concern
affected
##fall
##onstr
stret
poison
directed
medic
gest
younger
rested
confusion
parli
continue
absor
centre
##conom
horrible
bark
gown
bye
aloud
feed
careless
profound
cheerful
torn
orn
unp
sentence
mistaken
figures
accompanied
catherine
econom
##rated
##lot
##uing
shaking
atm
##ella
council
ends
knights
atmosp
shade
brow
refr
sentiment
subjects
duties
recovered
##oll
locked
composed
swept
reality
singular
assistance
louis
##vereign
wake
sovereign
loves
absurd
souls
riding
immediate
labour
connection
cheek
magnificent
prud
sugar
adj
dise
plans
leaning
surrounded
ling
proble
strict
##uding
##ailed
awake
praise
convinced
##zing
rele
frame
trot
breaking
curtain
stayed
craw
divided
inclined
previous
##edy
stair
sees
pron
glo
##board
complex
prayer
pierre
unfortunate
genius
banks
increase
sufficiently
revolution
aust
countess
sleeping
devoted
utmost
market
bosom
##ev
##alt
handker
admin
midnight
collect
senses
connected
ident
permitted
fil
gift
theat
brid
faced
desir
horiz
college
handkerchief
nurs
##isions
reader
polic
announced
nons
##ales
##ounce
fleet
ragged
##ped
##icate
coffe
parties
reser
nights
delay
sounded
merchant
cities
##zed
##owned
appointed
instit
striking
guns
astonishment
parliament
pil
page
##atched
##itate
##iform
plate
straw
thirst
##eld
asce
ruin
negro
inhabitants
rib
##inate
addition
argument
tad
##ox
##arf
##igg
scen
guests
wondering
acquainted
ax
nich
intent
##pless
treas
destroyed
coffee
##inent
tos
##lebr
sob
gets
assure
raise
valu
sharply
privile
prosper
alarm
machine
##gue
##can
##fied
appeal
deliber
reflect
mich
lock
afterward
guest
conclusion
risk
ignorant
pian
##bury
##ghter
##uries
soil
tend
commanded
practical
easter
fisher
##sey
arist
strain
beheld
quarters
degrees
nonsense
mc
offe
mechan
##keep
doubtless
violence
folk
bul
ral
##rate
##liness
##lected
##char
##ilities
contained
impr
leaf
celebr
reflection
concluded
district
scient
intend
scorn
steep
crack
muttered
darling
adventure
##win
andrew
chim
quality
polly
travell
universal
cig
dir
##atives
##uten
##cher
subm
##aces
##omp
##ulted
leis
##quis
emph
job
surround
lev
overt
retired
irr
extended
puzz
##bour
##kind
libr
spl
realized
causes
punishment
physic
leisure
##isp
shake
charm
belonged
bones
range
##iation
##mber
##pent
##nders
prec
proph
invited
detect
troubles
katy
june
tables
##non
hay
##icip
ages
anywhere
maybe
##ffin
properly
local
improve
atmosphere
rang
shed
compass
lieuten
leaned
firmly
aver
nations
##arse
##add
wept
chin
conven
uniform
julia
##amm
##unted
commer
track
obsc
sorts
difficulties
intellectual
introduced
bushes
rout
##mith
##iday
##elia
throwing
plun
humble
polite
numerous
movements
successful
protection
candle
separate
rendered
thomas
enormous
repub
sunsh
descended
unusual
fid
##ived
shows
##inder
robert
cattle
crept
deserted
astonished
arab
lap
##udes
nearest
ideal
entering
##cript
##standing
##uf
clos
ours
wherever
visited
calcul
base
gates
##sing
stamp
official
northern
##agger
##enger
painful
burned
republic
lately
ital
actions
final
startled
sensation
fatal
sore
##olic
appet
bloom
stronger
numbers
gratitude
female
western
sed
##lest
stoop
fourteen
madam
learning
forbid
citizens
rude
vers
compelled
abroad
##teenth
##arrass
reckon
francis
##house
##aine
changes
mankind
contempl
thread
stout
alt
perpet
cared
plants
weakness
apartment
accomplished
title
dart
habits
##rier
scattered
parl
lawyer
trip
hunger
prisoners
details
interview
bord
rays
##oqu
##rey
fears
##ems
rod
obed
jean
gloomy
empire
investig
grasp
##elle
richard
##atively
fanci
embarrass
slightest
climbed
coo
signal
painted
vanished
ralph
lieutenant
witch
##onies
isabel
##itty
likewise
contri
hearted
giant
helpless
actual
badly
effects
beaten
knocked
diana
mild
ray
perse
carpet
term
steady
conceal
supreme
kate
oil
rif
ruth
##inated
aspect
veget
esteem
grandmother
inex
hitherto
cultiv
source
gla
##ico
marilla
description
swear
attended
committed
countries
infer
trem
irish
squire
hastened
eaten
resolution
current
pist
pitch
##eenth
##bly
neat
##ulate
ens
ard
##icken
resc
guards
warning
spiritual
disposition
examined
results
consequently
widow
##port
abrupt
fifth
exception
occasionally
instrument
sunshine
poured
psy
##urance
anna
penet
spanish
voyage
staring
steel
check
created
ridic
pursued
shelter
qualities
psych
cries
honey
rachel
tent
flame
beloved
smaller
occasions
departed
hesitated
goodness
driving
complain
furniture
folks
execution
quantity
fulf
lamb
sof
intr
##umes
purple
##engers
leader
destruction
crowded
reflected
caval
##geon
counter
observation
alike
##acious
##ads
##unning
outl
string
desk
attached
chris
disposed
borne
safely
##uits
unm
disci
tells
continually
wandered
electric
bern
##lie
##bre
##cts
excess
unple
seriously
barn
fancied
gil
mos
wave
##enom
chain
liqu
##rily
parted
mode
committ
domestic
##vation
##otes
forever
abst
happens
venture
flag
eternal
mas
silly
##cere
##oring
##icing
intim
##quet
drank
incident
craft
operation
florence
valuable
dang
##born
##verty
##pended
trick
poverty
dearest
oliver
steadily
thornton
dil
ned
pant
beings
##ama
##olas
tristr
crist
##ewell
imagined
heavens
tristram
cy
cot
vac
##gl
##bow
##ken
##att
##cture
leather
mission
calls
separated
beasts
piano
library
swell
phenom
readily
annoy
enjoyed
##burg
walter
expedition
ju
mouse
nav
someone
seeking
eyed
glit
signific
meantime
lincol
disturbed
powder
lincoln
##bon
acts
##liest
cigar
hated
##inity
staff
marsh
##fulness
entreat
suspect
ventured
failure
philosopher
audience
pine
##ault
##uch
##ki
tones
attent
related
assumed
hundreds
washington
beach
carol
masters
dressing
repeat
tax
greek
lam
pace
##rous
##ipping
##iece
##aks
quiver
consist
farewell
insisted
humanity
heavily
sne
##fty
generous
chiefly
development
manifest
sult
granted
preach
strongly
islands
classes
dus
##pes
tomb
region
burden
summon
sadly
saddle
counsel
drinking
disturb
desperate
##hen
heap
##ola
brush
gracious
remaining
sailor
reproach
gas
pony
##worth
ton
abund
applied
families
echo
##eral
attrib
infant
dragged
attempted
anticip
describe
delivered
groan
italian
fund
##cast
##rem
heed
shrie
weeping
chuck
##eps
permit
holl
trace
propos
daughters
disappointed
##ground
probable
sincere
concealed
virginia
##isl
apple
headed
satur
reaching
services
legisl
circumstance
dwarf
noon
laun
colored
coloured
simon
suspected
fastened
abandoned
beth
anch
prize
shouldn
rights
dining
##ourable
disappointment
directions
histor
growth
acknowled
shy
weigh
chose
chann
strangers
lightly
doctr
estate
definite
wandering
dirty
##uge
gover
grav
lightning
decor
towns
freely
motive
exhausted
jen
pars
##inations
##itating
stuck
wearing
brook
perceive
flow
propri
opposition
quarrel
essential
platform
newspaper
enthusiasm
cunning
oath
pool
whit
##verse
leaped
glorious
emily
##umbling
mortal
exerc
zeal
##wick
sailed
convey
cru
series
monte
##arsh
cutting
views
washed
brig
achie
pound
outer
##umble
clay
turns
finds
trap
assert
fatig
bitterly
rules
gal
gif
##ea
##ipe
ench
cock
overcome
disag
marble
gazing
anti
mixed
critic
hed
hook
##dered
toby
inher
branch
desires
acted
falls
article
##net
##rim
##work
##inction
whirl
##ica
notion
##ails
slee
shortly
variety
dragon
indiffer
grateful
##iveness
nicholas
gor
non
##smith
knee
misfort
##ression
smoking
consult
endure
maintain
belongs
fetch
experienced
misfortune
thither
beating
timid
owner
slip
silently
deny
hiding
disgu
ambition
mingled
##keeper
apt
tick
boast
boats
flut
slain
objection
duch
pockets
volume
respond
frequent
disease
wre
##osure
contrib
writ
reputation
fearful
roses
##yard
##iel
trim
afric
metal
##ribly
recon
selfish
apparent
trembled
doroth
swiftly
wire
##uine
column
incon
invitation
formerly
fed
jun
ped
thine
##ares
italy
frog
pointing
poetry
suggestion
depths
bench
gw
jar
tin
shakes
sheet
mischief
lesson
treatment
fasc
##ums
perple
flock
fired
mock
represented
descend
threatened
horizon
unpleasant
duck
##jud
##atch
##asper
shield
consol
monarch
philosophy
bewild
closer
bernard
bert
toler
rear
rolling
tremend
reform
wishing
touching
fountain
##gest
inner
grin
coal
community
##asha
cats
millions
vessels
earlier
hospital
barbar
jan
oct
writer
uncertain
##etera
fury
enterpr
commander
encoura
majority
dismiss
pretended
ignorance
wagon
mac
nan
os
##ean
herbert
albert
intimate
marian
blessed
confused
contrast
##grat
hatred
articles
precisely
committee
ot
button
confident
thirteen
purposes
effic
conviction
furnished
benefit
harsh
pup
##mony
##otions
orch
##olate
boil
cro
smart
missed
warn
monster
male
reduced
beds
starting
luc
acquired
mirror
autumn
gesture
batter
daz
sway
vivid
heels
sust
deem
worry
thence
slender
eleg
johnson
visitor
motionless
neighbourhood
ceremony
maxim
sultan
cream
lament
fores
stable
anth
marve
apply
##coat
regiment
incred
cheap
absent
venge
discussion
renew
scientific
jap
pac
noted
deed
decision
ruff
roads
characters
tyr
teacher
stirred
yonder
feeble
scheme
problem
bun
date
eve
##ih
reign
##ifying
schol
disgrace
priests
##withstanding
fest
##isk
heir
notwithstanding
china
mans
marks
swung
consum
veh
opinions
francs
cristo
fant
lust
rh
stom
##olen
pole
fires
prey
insult
naked
torr
##ds
##case
lily
depri
portra
embra
victor
urged
pressure
absorbed
cetera
##anqu
##lla
impl
specul
compet
##acon
contrad
declare
owing
shooting
duchess
##lies
inch
##gging
phot
magistr
inev
multitude
recollect
idle
attain
shepher
unre
compared
interf
grounds
independent
stomach
ela
fitted
seas
prose
##akened
trunk
persist
possibility
##chester
element
necessarily
modest
distinctly
clerk
wrapped
medicine
tun
shiver
marvel
peasant
applic
surre
veil
deeper
earnestly
puff
porth
tide
##lict
##ino
tob
##itory
##iring
flatter
spell
##actory
cheese
considering
susan
experiment
gardens
secretary
batt
visitors
fashioned
statement
##ocratic
jaw
wives
asc
##inkled
norm
activity
tempor
central
tenderness
jewels
performed
clergy
rabbit
bud
rud
##lers
##leness
##we
##uish
fac
begins
insist
landl
landed
finish
arrive
provisions
sending
coward
tub
##nel
##gie
##eys
ingen
fred
##rand
agony
dischar
decide
respectable
wheels
japan
dale
pall
##upt
inches
sober
pepper
score
harr
collar
##ropri
withdra
##sters
##agg
repent
##iverse
stole
gravely
uneasy
##uary
##isy
##erson
flashed
prejud
happily
guessed
feels
irres
limbs
teaching
climb
fortunate
obeyed
puzzled
porthos
wol
##ael
##mes
##ata
##isible
inse
##rage
alter
remote
wrath
distinction
awk
solitary
buildings
moonlight
persuaded
scotland
revenge
eastern
ire
losing
champ
upstairs
aged
##ache
insp
raising
lively
prayers
cloak
fow
doom
altern
##apt
coin
childhood
heartily
merit
intelligent
drops
##rence
##raction
##peare
anyhow
##agon
advert
impulse
acting
merc
constru
belonging
pursuit
murderer
linen
saturday
vengeance
awkward
bund
chase
##ifully
marched
precip
passions
breed
cease
shouting
permission
containing
preserved
scenes
##rels
##emon
peril
peas
contents
capacity
surv
regarding
blew
napole
aly
damp
eag
moss
rot
##back
##inth
##anz
reasonable
elements
dutch
literature
abandon
abruptly
disagree
##off
passengers
supported
##ieth
buff
bedroom
county
gathering
russian
##lars
chall
##opes
using
wanting
norman
career
awoke
depos
strangely
stopping
preparing
slavery
pulling
ashes
germany
##guer
theatre
bor
##ike
##ule
anyway
folly
reference
prepare
wander
louise
developed
distinguish
inquiry
warriors
indifferent
cake
danced
fence
faded
jest
rav
tour
conc
agent
clut
whereas
##rov
contented
presents
princes
pains
crossing
examination
encourage
domin
favorite
revealed
engagement
breeze
bind
kitty
tip
ult
##cest
sale
##ational
brings
gran
attracted
confeder
breathing
messenger
dimin
ba
chairs
twil
lofty
daylight
marguer
rivers
attacked
plunged
appetite
marguerite
lane
rent
tap
##nat
##mo
shirt
external
india
repair
artist
musk
gladly
wilder
cryst
calmly
blessing
measures
##place
##ura
congress
concent
serge
restless
refuge
footst
gallant
gallop
gallery
funny
hunter
owe
folded
display
condemned
surrender
twilight
today
whither
receiving
emotions
expense
dreamed
songs
weapons
ornament
gifts
ireland
##oying
shir
##osha
##ooked
quoth
handle
plot
waved
neighbors
##ological
exceedingly
relieved
administr
dot
doth
pile
wilt
##inter
##irmed
weep
encl
trump
thanked
##ensible
reluct
keeps
arrow
floating
jeff
sailors
virtues
arrangement
industry
alyosha
cyr
tie
tang
vul
brut
stroke
contract
doorway
satisfy
scarlet
##whel
tales
amazement
catholic
napoleon
roused
tig
spain
##elly
genuine
resting
laying
garments
murmur
indignation
ecc
whip
stated
mex
manuf
lovers
longed
resour
natasha
henri
feathers
mourn
adopted
##ada
contact
cleared
parad
security
summ
centuries
error
increasing
masses
struggling
alarmed
physician
tremendous
cub
ded
sul
##pel
unlike
tranqu
overwhel
perfection
flushed
longing
exposed
inspect
patch
##oonful
examine
burnt
remarks
diamonds
exchange
tobacc
fain
##oot
##uously
haz
exert
roast
##cca
##inkle
commenced
lords
expecting
demonstr
penny
##ovitch
communication
ske
sancho
##eus
##ucted
##oration
solic
##ante
clothing
disord
joke
annie
center
existed
civilization
lodge
cardinal
emphas
rifle
bone
tore
velve
sauce
deer
##aph
perf
remem
remove
retorted
secured
matth
frightful
crimson
promptly
shakespeare
shepherd
bible
daring
reject
frost
conception
comment
accur
##ensity
snake
recent
driver
anxiously
jackson
consequences
intervals
comrades
pronounced
cotton
rival
thief
##itz
shaw
fog
distrib
asser
brand
ruined
romans
recognize
population
enjoyment
homes
nancy
wret
##lo
##iated
##just
##inous
##inger
##uting
##amation
restored
sunk
transl
bells
porter
meadow
convention
bess
les
mould
exquis
unse
ability
##ensions
income
preparations
jaco
danglars
dried
goss
##jean
tops
##usions
enl
spin
coffin
scre
indicated
moist
attach
avail
lucky
defend
issue
glimpse
##plicity
dorothy
bars
stu
##ria
##izes
purse
barg
finest
invisible
opposed
palm
funeral
comrade
obvious
bust
cree
cape
fame
loo
wick
##eman
outward
perman
charity
##oubted
realize
sensitive
mixture
porch
torment
positive
issued
weapon
refresh
bald
##iate
##vering
atl
tramp
glow
charged
behav
keeper
streams
detective
sofa
goose
mul
##of
heath
sew
##ulating
goat
pluck
lawn
minor
awakened
paint
corners
valjean
glasses
hideous
martin
reminded
manufact
garr
##tte
##aign
sept
allah
##outs
roots
quix
##inking
peep
advised
murdered
completed
undoubted
advantages
eldest
rejoined
favourite
exquisite
gig
##lon
##orable
##itudes
##idents
##usive
##olent
##ints
arts
temp
defence
succession
loudly
methods
conquer
betrayed
july
push
rushing
##low
##ider
sooth
soph
roar
quit
deadly
patri
solitude
despite
##oiselle
newspapers
indifference
privilege
eth
##ari
shaped
##sell
deceived
##pled
minded
steal
landing
conducted
hopeless
vanity
trusted
suitable
holes
wilson
amusement
tobacco
jos
tum
##ram
##lance
##esy
##aments
##rious
root
loaded
images
contro
emma
passes
retain
brandon
boxes
disgust
individuals
essence
copy
chimney
cure
kid
##lets
freder
bred
trained
indic
lav
provin
apolog
travelling
preserve
jealousy
uncomfort
mate
naught
congrat
##tha
##abled
apples
whereupon
youngest
confined
sunlight
signed
tomorrow
flee
determination
planet
fishing
excellency
sarah
cards
divers
pages
##iency
##inery
changing
appe
bloss
wherefore
natured
monk
eloqu
edith
accounts
inclination
forests
groups
depends
shells
betray
resistance
responded
rand
pope
lessons
stephen
musical
arrested
miller
paying
##cribed
including
politics
idiot
innocence
accomplish
debt
hospit
ivan
obedience
au
dre
om
umb
wip
##eous
##ients
shag
##lyle
ancest
thereby
copper
carlyle
throng
letting
resent
belt
fortnight
devotion
published
department
hesitation
rubbed
pillow
lantern
celebrated
dumb
kit
##nie
##alled
fathers
admired
characteristic
punish
angels
##vest
##any
inward
stim
deeds
dost
##emoiselle
arise
##igs
load
thoughtfully
subd
mademoiselle
prayed
resolute
literary
autom
citizen
inferior
matthew
jacob
jones
nic
patter
##oked
##ston
stolen
chances
clar
loyal
disple
appropri
conflict
##bridge
englishman
limit
packed
adventures
dwelling
rigid
pistol
disagreeable
gn
lil
sire
##eur
##rid
bees
##leton
##utor
##laced
##aping
mars
plains
##rog
parting
limited
legal
ashore
jews
prevented
ratt
beef
michael
holland
quixote
dad
sie
##omin
bears
alm
facing
boiled
grows
pond
flames
scare
relative
treach
easier
ladder
practically
hoping
romantic
campaign
sticks
mutual
corrid
tossed
ascertain
##ana
##ills
whoever
universe
blows
lasted
drowned
parish
standard
sunset
elsewhere
angrily
province
authorities
risen
teleph
involunt
nerves
rescue
gang
pip
til
##aves
##itively
bending
reception
orange
##olence
clasped
bond
grove
ade
interior
dram
##gram
immort
dishes
preferred
procession
yielded
##piration
landsc
criminal
ridiculous
net
##ai
##inence
##ulations
unjust
##law
adorn
wherein
scale
seconds
collected
graceful
warmth
##after
assembled
searching
average
dusk
bost
##rom
##omon
beck
bron
aren
offering
impressed
slid
wax
generation
holds
studied
denied
avoided
pretend
instruments
staircase
administration
etern
hull
ink
rein
cannon
boot
resign
counted
sixth
##okes
illness
transfer
err
captured
rosy
instructions
glaci
map
##gent
##enn
shru
##ctive
deaf
likes
miser
##eling
curiously
artific
furious
illum
apost
fanny
previously
operations
impatient
total
assembly
encounter
april
imprison
channel
vulgar
faster
hood
##eon
##oen
##icted
frown
seize
##arts
abb
brass
amused
overl
swar
jolly
mail
followers
teleg
##oman
shalt
stores
##racy
leon
brisk
##aging
namely
sweep
floated
exists
commonly
satisfactory
training
candid
faintly
erect
tribe
unfortunately
prudence
doctrine
boston
kar
revel
anton
prow
spur
##ago
##agues
crou
blown
supposing
regions
assume
extrem
balls
occupation
archite
combat
jimmy
machinery
railway
fortunes
acknowledged
velvet
oy
tid
##eg
##orter
neph
reported
richmond
corpor
americans
embro
convict
dwelt
latin
phrase
raggedy
summoned
dangers
pave
##aved
##och
##anim
##sequ
##entine
seats
conceived
brood
aroused
##udder
glen
helm
woe
proposition
continent
speaker
doubtful
##cules
pressing
balance
fortunately
neighborhood
surrounding
footsteps
cush
rings
ted
vest
##iour
##mans
##encies
rela
doc
appla
prem
##izz
regards
confession
questioned
profit
solomon
verse
wheat
horrid
railroad
recalled
recommend
fatigue
frederick
dine
shudder
felic
struct
thresh
spear
glowing
##anks
##rup
helping
runs
johnny
summit
seventh
deserve
spani
rarely
gilbert
wilderness
september
nephew
dug
##idable
upward
##ander
tram
downstairs
residence
##ubb
warned
propose
sentiments
motor
maintained
compliment
furnish
assistant
rebell
pirates
travellers
discipl
eagle
##natural
tumult
shaggy
telegraph
bou
dashed
##forth
shores
upright
##berry
##fts
moan
repose
monstr
phoen
assurance
advancing
breathe
inquire
demands
healthy
solemnly
swallowed
undoubtedly
rasc
##olet
sails
lik
monkey
terribly
pleasures
eighth
sensations
medical
lifting
delicious
imperfect
accompany
##force
intentions
##rane
toil
##iser
##anor
boiling
##enses
instances
vex
believing
humour
secretly
breathed
creation
killing
swords
injured
addressing
acknowledge
specim
portrait
bargain
creek
threshold
fi
gos
jury
link
##urer
analy
cha
nove
##ops
canv
hasn
missing
thoughtful
slope
submit
springs
schools
violently
performance
affectionate
spectacle
envy
levin
convenient
vine
woo
##iving
##uity
##cle
##fic
ing
wasted
##celot
butt
franz
brains
blast
impart
founded
survey
bloody
cheerfully
vigor
positively
curtains
launcelot
cose
mast
naut
##ya
##itute
liver
altered
brick
overhead
##athan
owned
supplied
incap
simplicity
raw
oppress
dropping
jewel
travelled
stirring
hurrying
persuade
displayed
territory
avenue
altar
africa
cu
jail
##hand
shif
rect
theirs
ponder
backward
harder
merr
catching
observing
penn
coron
requires
forgetting
injury
magician
strictly
complexion
prosperity
dense
hush
rice
##ek
##ray
##onic
##arn
##ita
saving
friday
prime
##keys
trous
fawn
agitation
monday
consented
guilt
subl
dreaming
anguish
ruins
heavenly
turkey
potat
searched
offended
compassion
persec
gossip
landscape
jason
kin
##lock
haired
section
dew
##ements
enqu
willingly
spots
prod
poets
planted
offence
lace
serpent
confessed
##ceptible
humor
recently
##ocracy
expectation
churches
transform
ridge
creep
embrace
sympt
neglected
politeness
tribes
establishment
purchase
bapt
##enched
lip
lif
disd
flies
partner
conspic
traged
decent
irre
painting
announce
leads
journal
bags
speedily
impatience
impatiently
swimming
engineer
precaut
wreck
dazz
normal
uncomfortable
cosette
sins
##fold
bea
recei
butler
conceive
##apes
grain
humil
sket
covering
motives
connect
punished
struggled
dishon
cruelty
testim
ranks
steamer
kenned
independence
frozen
alexander
anchor
gorge
bother
jam
mity
pad
stall
hercules
##umps
ambit
natives
checked
speaks
leaders
##ovna
division
protested
shoe
limits
venus
endeavour
##regular
comprehend
challen
wretch
kennedy
cents
kick
tu
##oard
##adel
alight
locks
slay
forming
confirmed
adding
irregular
staying
function
admiral
cellar
cautiously
obviously
hedge
peasants
bret
eust
wy
##rical
##atically
##orse
stove
prost
chill
##rig
spar
twisted
coarse
poem
blowing
scott
waving
keys
##grim
superst
impressions
interpret
sheriff
mitya
feder
lur
##aur
##course
##aration
bend
sailing
prol
##ula
knot
robe
amiable
flowing
beggar
judged
temperature
moderate
##etta
derived
association
greeted
cens
gasped
##burn
##fish
##esis
tools
shrew
rebe
sem
prair
##alla
##ilus
##rian
yourselves
nowhere
carr
consisted
nighting
foundation
elbow
highness
walks
riches
cavern
memories
bills
romance
boldly
withdrew
torture
magistrate
cough
cash
hare
ost
rows
wounds
##nic
##elf
##ober
##chio
seal
marius
##angle
justified
mob
certainty
planned
liberal
vigorous
reserve
pilgrim
obscure
achieve
mansion
prodig
mun
na
vap
vote
##greg
##don
##bar
##hin
chau
aboard
twas
muse
retire
##lands
arrest
slau
attempts
tenderly
couch
passionate
employment
flora
hurriedly
unwilling
bidding
mourning
encountered
perplex
inspired
rhy
rational
##gers
seed
exagger
feature
carved
induced
graham
armies
woke
steward
lads
providence
proceeding
decidedly
##burgh
arrangements
ceremon
halted
glittering
proposal
bewildered
enterprise
elegant
embraced
bundle
umbre
embroid
fare
##nut
##ta
##mie
##verted
sheer
brist
pled
mule
glancing
consists
intercourse
breth
##pson
##ibilities
smallest
needle
lordship
madness
judges
collection
rocky
gleam
tightly
temptation
caution
verses
application
rebecca
sorr
viz
##ban
sullen
lend
clam
##roll
seeming
accused
##ucky
raoul
corpse
morgan
destiny
neglect
bowl
welcom
remembr
brethren
lid
vice
##ique
##pers
##wart
##ded
##asy
##anny
##che
attained
allan
chatter
crushed
descent
endless
assum
##ashes
pleasing
colors
symb
doubts
clearing
peaceful
balloon
combined
fiercely
meadows
improvement
perpetual
photograph
prosec
bows
pav
##sis
thumb
conj
offices
smiles
backs
mostly
drum
curse
admire
remembering
respects
harmony
dismay
observations
energ
recollection
hypnot
referred
commerce
propriet
inconven
november
pul
##itious
shan
shaken
stagg
ree
brute
agric
discer
scold
swam
supplies
mothers
sna
entit
reasoning
estr
ceiling
hugh
sufferings
dissol
severely
cliffs
sinking
stretch
bart
foul
ram
##cow
haught
fors
##alf
##ieu
abode
clad
bonds
flu
mustn
remedy
interval
soup
##licted
eleph
penc
caes
crazy
secrets
terrified
prevail
picking
educated
filling
basin
russia
marvell
landlord
irresist
inspector
disorder
nautilus
dict
lent
nom
wages
##uz
##nde
reass
fruits
##allel
dod
stricken
foe
indef
incom
awe
syn
introduce
claims
inquiries
measured
preparation
gloves
policy
tendency
prophet
moscow
disguise
ec
lun
##awn
##asion
enable
cares
##ilet
##ounted
godd
hearth
advise
harmon
maggie
commands
melted
davy
britain
duration
restrain
tradition
luxury
sergeant
bite
##za
##inating
##ulars
upset
dislike
prel
laura
tread
bestowed
awaken
arrows
dresses
violet
medium
jacket
deserved
extrav
wealthy
awaiting
trousers
kent
lions
math
wont
##uated
thie
##chet
##raham
brows
clung
##assed
peer
fogg
impuls
formal
monot
existing
neighbours
enjoying
guarded
eagerness
materials
procure
awaited
december
treasures
parlour
renewed
tiger
extravag
diver
eh
lemon
##ingham
##imer
stub
abraham
closing
##cian
placing
plague
slipp
answering
largest
editor
polished
patron
entertained
superint
robbed
julius
representative
unconsciously
commercial
paradise
oven
tenth
##oons
haul
##cel
##esses
enabled
amusing
clover
slumber
serving
text
subtle
drake
prett
equality
hasty
recognition
savages
louder
comparison
axe
route
bough
dy
ell
jasper
mol
og
pag
##oh
##hov
##inge
##ington
whim
shine
sack
##usal
##lac
facul
##ques
##assad
perish
##udge
blush
answers
beautifully
plays
squir
sandy
admirable
released
encouraged
faculty
bits
dame
fern
lic
pud
pushing
wits
##lor
##dles
knelt
amend
contest
##mended
wrought
ministers
promises
election
inval
bigger
dispute
occasional
occupy
climbing
release
tremble
conspicuous
##aid
##hire
##ania
chat
conject
##arded
lee
discl
firing
scand
mayor
composition
##neys
errand
recognised
sickness
experiences
navig
inevitable
corridor
telephone
fiery
nightingale
cows
gab
games
ket
##loc
##mouth
##vous
##hib
##ican
stained
select
##antial
##ourt
amelia
childish
hearty
formidable
personally
doubted
provide
student
ringing
situated
faults
ambassad
reports
pearl
pearls
reserved
resources
gulf
nigh
vale
##tur
##iary
##yl
##lessness
behalf
visits
largely
transport
narrative
prevailed
contains
preceding
cavalry
spargo
cel
rash
sid
vib
wer
##master
sund
##rial
##acks
flowed
remorse
swinging
restore
dearly
discourse
peters
turtle
hostile
purely
unworth
cordial
adopt
printed
responsible
responsibility
muscular
economic
traveller
phenomena
gravity
october
pavement
likeness
disdain
federal
ellen
nails
psmith
rus
##ody
halt
stool
chamb
orph
unne
cove
crumb
scent
indisp
workmen
wars
drown
veins
paces
raft
milton
##inese
valentine
included
thankful
dolls
apartments
cooking
arguments
invention
horns
professional
stooped
echoed
dismissed
deemed
interfere
japanese
superintend
bunch
dix
oars
##row
##rating
##line
##ien
##atus
##adem
martha
poly
##oths
attorn
##arks
colon
skil
surprising
sweetness
rubbing
heroes
reverence
lodging
undertake
fragments
gigantic
remembrance
cakes
##xter
selected
chem
chop
bru
greatness
access
housekeeper
winding
appearances
edison
eleanor
fairies
estim
destined
rider
executed
tempted
screamed
sparkling
globe
forbidden
deprived
elabor
permanent
snapped
caesar
unnecess
dum
fitting
nun
waking
##foot
##zil
##arian
heel
shelf
defect
##iforn
ark
clust
grasped
perch
blade
droop
colours
sunny
slew
harness
californ
squee
wildly
convuls
learnt
condemn
leslie
structure
monstrous
prolong
mask
##itors
hem
thereupon
pencil
benev
reflections
guardian
candles
bodily
conquered
sanct
uncommon
apron
pouring
weighed
jaws
withdraw
discipline
eug
lots
##ji
##atisf
##omb
stif
suited
degr
nois
leagues
plough
scri
induce
betty
charlot
nora
tracks
patiently
earthly
effective
ville
villain
dreaded
paths
roughly
durham
spoil
amidst
stamped
contrived
patriot
breton
dub
gy
moses
pang
sant
wig
##ainder
##irs
##ilton
chicken
##riages
org
nod
##anda
trop
appointment
compare
passages
pleaded
persisted
##retion
raven
lowest
lowered
democratic
product
tailor
holiday
threatening
##ikov
briefly
drunken
resemblance
muscles
deliberately
