the
##s
and
##ed
of
to
a
in
i
he
that
##ly
it
was
##ing
##'
his
with
you
##y
on
for
her
had
be
as
##e
##t
is
but
not
she
##d
at
him
my
have
by
all
they
this
which
so
said
from
me
##n
one
were
we
there
no
when
or
who
an
are
##er
their
would
if
them
what
will
out
been
up
do
man
then
more
your
could
into
now
some
very
like
other
little
time
know
can
how
about
did
than
▁
great
again
has
upon
##st
any
well
##m
##r
over
see
two
our
##ce
good
##es
look
down
before
##self
made
go
long
after
day
should
old
never
come
must
such
came
us
take
where
much
these
mister
may
way
thought
first
back
say
went
##in
men
##ies
himself
here
own
##ll
think
##ness
am
might
give
seem
ask
just
through
place
even
make
away
too
life
its
hand
without
most
don
every
under
thos
##al
shall
eyes
still
##re
last
house
head
nothing
night
##en
let
many
while
call
##a
being
get
saw
face
people
##ion
off
##p
found
tell
three
room
love
yet
##on
same
father
part
another
though
un
want
right
put
young
al
took
##o
##est
ever
##le
new
king
sir
missus
work
mind
left
##ity
##ard
near
mean
heart
##c
moment
world
things
thing
why
mother
light
alway
o
##ve
home
far
answer
##able
soon
##g
something
girl
##cause
yes
told
hear
door
open
got
going
##ever
woman
##ation
##less
water
##b
find
knew
each
##us
follow
oh
side
high
name
##l
real
certain
quite
miss
##ers
few
years
hard
better
present
half
done
return
god
end
##se
pass
began
enough
##also
having
seen
hour
##k
white
course
whole
kind
voice
lady
##an
close
gave
set
both
##gether
poor
turned
dear
among
between
morning
order
sure
wish
matter
nor
speak
believe
friend
##ic
toward
de
small
whom
felt
cri
full
hands
##or
##u
hundred
stood
round
keep
leave
large
boy
repli
perhaps
##ment
words
sudden
wait
four
anything
sat
till
until
form
##th
##ry
help
does
next
black
power
rest
since
brought
word
lay
country
looking
indeed
almo
general
tree
sea
days
hope
live
t
rather
appear
##is
air
feet
question
five
fall
walk
gone
reach
fire
death
wife
thu
best
fact
s
person
case
##ther
canno
##f
along
themselves
child
##i
master
reason
lord
letter
play
less
true
thou
thousand
money
children
behind
nature
##it
##lone
doctor
sound
##w
twenty
care
remain
show
enter
re
clear
state
dead
##man
##ten
strong
talk
need
window
ground
short
happen
remember
spoke
prince
##ter
##ch
land
fell
##li
##h
red
##refore
##ful
dur
##ur
deep
d
##ri
body
##el
second
possibl
war
turn
sun
laugh
add
son
fear
##ton
often
bring
##ous
beside
table
##ar
ten
earth
horse
point
bed
whe
sent
try
use
smile
dark
everything
coming
##ready
feel
above
soul
least
evening
beautiful
read
around
quick
feeling
##ng
street
los
six
##ck
captain
rose
sort
women
brother
held
##na
manner
else
fine
strange
fair
doubt
##came
##la
year
line
dress
either
sleep
sight
town
arm
e
hair
##z
making
##il
##kept
ran
##ive
friends
sometime
sense
daughter
city
law
used
di
become
bad
road
watch
ear
spirit
listen
ready
tri
cold
thy
##ie
##ty
truth
won
run
subject
past
##ia
big
idea
business
river
family
understand
carri
perfect
consider
glad
didn
start
interest
##ro
several
foot
trouble
##ra
change
kill
different
##ish
wind
free
hold
sister
natural
blood
eye
human
quiet
says
able
count
cut
happ
wonder
arms
story
acros
late
difficult
cause
number
ma
suppose
##ance
cover
continu
piece
low
husband
green
co
stone
slow
act
regard
taking
mere
stay
seven
church
fellow
object
pretty
eat
##ling
##ne
john
##ant
allow
week
met
##ma
paper
book
save
##ent
wood
common
times
##ine
dream
##age
month
##den
school
car
la
soft
surprise
bear
saying
con
sweet
blue
##x
gold
wild
usual
ought
account
star
particular
age
art
cross
heaven
throw
worth
flower
mov
purpose
character
seat
touch
bright
##though
##co
##men
chance
direct
garden
neither
plain
##as
uncle
##v
stopp
##te
princess
immediate
die
effect
pleasure
visit
##stead
deal
##ul
##led
leg
ship
none
ye
##to
further
forward
##ath
draw
instant
meet
ho
queen
eighteen
except
chief
public
##ate
##lo
later
animal
court
grow
force
mouth
respect
##um
stand
##low
##ac
chair
exclaim
living
bow
hall
condition
cry
mine
##ical
front
##yond
secret
discover
cap
offer
sign
received
m
hat
gentleman
laid
wall
##land
entire
pay
##ily
p
tone
send
silence
##am
rich
shoulder
party
st
according
##ian
##fraid
ah
mary
figure
english
england
necessar
service
command
em
se
##ff
lip
doing
led
aunt
please
equal
minutes
position
bit
complete
drew
view
##ad
heavy
##id
warm
miles
eight
g
length
attention
ill
##ver
standing
spring
happi
bell
thinking
dog
caugh
corner
##ci
learn
probabl
opinion
finger
bar
##ta
creature
grew
sharp
self
forth
occasion
third
ago
wide
island
beauty
observ
dinner
approach
silent
##me
top
##ary
break
thirty
fift
glance
##ge
sad
explain
sitting
seeing
thank
remark
action
le
sing
final
government
grave
struck
experience
scarce
wrong
whatever
knowledge
safe
distance
gett
sit
attempt
afterward
joy
straight
utter
company
loved
evident
boat
crowd
floor
slight
train
desire
drink
##at
exact
ex
saint
direction
rock
##ir
danger
shadow
##po
careful
spot
##sh
glass
tears
accept
appearance
palace
result
lo
snow
##ure
w
battle
forest
##ha
forgot
per
margaret
ti
fail
london
whisper
##ley
brown
food
affair
##side
strength
step
##ist
express
fast
promise
anne
filled
liv
officer
bound
pleasant
circumstance
ca
fresh
broken
expression
cloud
pocket
##tic
pick
south
hid
pain
##ot
easy
##vi
##pp
plan
giv
runn
fight
##the
##pe
tom
office
wise
##be
bo
pale
french
hot
arriv
cat
impossibl
##ke
indian
tea
effort
mo
conversation
##ut
drive
scene
cast
outside
fortune
peter
writ
ta
sw
stop
##gg
boys
proper
society
##que
nine
peace
##ious
write
simple
army
single
talking
##bo
begin
##ol
escape
box
lad
post
demand
wonderful
thick
ring
possess
iron
sky
wound
mention
evil
blow
finish
join
camp
grace
marri
silver
kiss
##ca
trust
##way
chapter
afternoon
fish
breath
c
turning
##by
##most
horses
morrow
beginning
mad
youth
presence
ha
expect
especial
habit
##ni
po
pull
judge
minute
clothes
neck
##go
color
##do
##ct
eager
ro
dis
shore
shot
former
seek
##hrew
serious
carry
north
##mi
##ru
simpl
degree
notice
##mp
hill
bird
board
moon
duty
easily
thin
game
journey
sufficient
stream
ri
mountain
faint
##ated
path
leaving
grand
couldn
stranger
terrible
##om
field
noble
burn
charge
twelve
tall
agree
lie
class
comfort
shut
stick
knight
attack
address
showed
rais
marry
sword
calm
winter
suit
anxious
vi
rise
guess
inquir
nice
move
rapid
village
ladies
march
honor
##im
forty
honour
shape
##wise
rush
pray
term
##stood
broke
guard
slave
wave
expected
golden
gain
##op
decided
summer
fit
bene
##selves
shook
music
##ism
influence
principle
lead
lift
middle
belong
tin
books
broad
born
latter
history
movement
learned
marriage
ball
conduct
enemy
exist
lower
noise
yard
states
speech
grass
##ho
reply
firm
bank
succeed
gate
forget
enjoy
american
lot
dance
treat
##light
##ig
bill
contain
wear
jo
sorr
shout
measure
pen
##head
rain
makes
meant
event
sail
taste
personal
brave
comes
poet
steps
##eth
oblig
hung
dick
pro
##ud
##clock
##ial
prisoner
lock
castle
spite
repeated
future
building
health
picture
intend
sigh
coat
##ab
edge
pai
bread
ne
##kin
race
madame
loud
roll
yellow
jane
catch
spread
constant
suggest
west
important
darkness
pre
curious
proceed
carriage
dropp
press
serve
pleased
faith
passion
sick
wouldn
dry
increase
sp
space
##let
content
absolute
##out
blind
clean
en
##ory
ancient
pound
beast
cousin
private
chang
existence
knee
cook
priest
wine
narrow
colour
##un
dare
storm
support
individual
determined
skin
wing
##va
passing
declar
various
##ag
bottom
extreme
search
tru
nobody
beat
drawing
cla
fixed
k
prevent
advantage
hole
##if
opportunit
tired
wrote
plant
lu
sand
royal
imp
france
lake
actual
rid
colonel
main
walls
dollar
sake
cheek
stretch
christ
concern
da
bitter
##what
obtain
mar
period
christian
stair
wors
special
study
astonish
value
nation
##no
labor
chamber
instance
##ti
breakfast
frequent
desert
proud
handsome
passage
lives
cha
lose
grant
frighten
angr
meeting
servant
hurt
push
destroy
bag
east
mount
pan
jack
pure
courage
isn
port
disappear
tender
burst
gentle
george
settl
ears
success
##ally
birds
apparent
shop
store
language
##io
mark
b
prove
fifteen
holding
valley
##ah
season
jump
gentlemen
fool
soldiers
writing
##ade
gun
delight
ni
henry
fancy
##ber
ruin
inside
moral
inform
sin
su
everybody
receive
##tion
situation
ab
quarter
cup
goes
attend
group
vain
li
honest
cool
luck
william
earnest
vessel
report
flash
knock
wash
property
render
wor
murder
york
dust
recover
fruit
square
companion
station
fond
rough
heat
murmur
##bi
tail
fate
seiz
built
grown
news
weak
knowing
climb
promis
tongue
duke
due
laws
ordinar
surface
gent
imagine
##con
social
walking
possession
weather
##pt
system
wealth
sa
key
spen
empty
##ster
claim
bare
note
sorrow
temper
##live
el
pour
crown
swift
du
gray
##ship
difference
shoe
nose
##sleep
opposite
prepared
employ
memory
fashion
avoid
alto
row
laughing
smiling
serv
ideas
suffering
reading
material
breast
distinct
##ble
centur
##pa
brain
cur
##ka
hath
meaning
maid
lover
na
papa
virtue
kingdom
leap
fault
##vo
grey
guest
cost
mill
rode
paris
satisfied
pride
united
despair
height
bent
vast
opening
spra
pity
earl
wheel
motion
rule
hurried
conceal
double
engag
##ov
regular
rising
mountains
fur
roof
##wood
stock
supper
alarm
contrar
soldier
justice
gaz
pe
finding
emotion
example
machine
dreadful
require
bra
lean
notic
kitchen
fat
##cy
servants
forgive
supposed
pack
produc
##ile
terror
awful
peculiar
welcome
salt
buy
boil
##stone
mistress
win
##os
chose
major
descend
ra
farm
method
##ow
angel
sum
##lin
suffer
knows
reflect
unto
##gen
comp
evidence
deliver
bold
qualit
bore
gathered
tale
doesn
baby
shin
##nce
watching
advanc
loose
fly
crime
rate
smoke
##aught
twice
monsieur
pair
putt
roman
##ell
travel
patient
##ors
frank
fe
dai
lamp
hu
mass
affection
##ham
flat
devil
image
excellent
gift
share
proved
authority
arthur
milk
##ga
stepp
perceiv
consequence
charles
tower
trade
ver
heads
##while
cruel
size
impression
rare
bu
confidence
rank
familiar
busy
intention
caus
extend
perform
limit
flew
prison
band
distant
ja
##like
##ger
ice
##bu
sympath
feature
president
occurr
establish
##hi
solemn
##und
weight
aware
##time
confess
remov
telling
emperor
false
thorough
splendid
woods
depend
##che
##fi
dull
##rose
excuse
similar
obey
sixt
religion
loss
amount
violent
type
##over
working
butter
parent
treasure
million
song
mistake
necessity
holy
science
minister
cloth
advance
horror
smooth
##ip
strike
corn
consent
task
fierce
rope
mi
cart
unknown
interesting
savage
detail
##ba
prayer
##ler
sunday
powerful
cow
liberty
drove
coast
drop
van
admit
witness
german
gloom
temple
clever
ka
##ak
wicked
sought
speed
houses
hills
yesterday
original
bridge
couple
yield
message
sell
progress
shock
begg
ride
cottage
##ron
police
##ating
circle
represent
suspect
sc
##ric
native
diamond
buri
flu
eleven
paus
oak
teeth
bath
##he
depart
pardon
injur
r
##ept
charm
freedom
upper
satisfaction
##unt
insist
maiden
edward
huge
meal
ceas
##ki
lion
cheer
foreign
silk
page
brothers
america
stage
countenance
gradual
proof
ru
carrying
occupie
excitement
h
spi
superior
unfortunate
professor
james
nurse
farther
seventeen
pipe
##pi
pin
favour
majesty
price
hotel
dogs
severe
##gu
acquaintance
imagination
alas
previous
convinc
record
praise
physical
faithful
##uc
match
##ub
##ite
produce
leading
shame
cheerful
exercise
advice
cra
resolv
regret
sheep
conscious
refus
grief
stuff
hither
harm
fourth
aid
qua
##ier
##ner
curiosit
afford
practical
substance
level
pet
struggle
deck
nodd
brow
lies
slipp
dispos
float
lack
consist
article
mile
pot
dangerous
sacrifice
basket
trace
continue
wit
dozen
##ches
control
##ius
ju
protect
mor
strain
information
sevent
min
tar
custom
gi
importance
flame
##au
fer
abandon
##fe
divine
jew
excited
f
anger
##nt
considerabl
fold
meat
fairy
bottle
fill
delicate
sides
fox
##gi
anybody
dawn
miser
portion
smith
trail
governor
adam
requir
extraordinar
modern
te
fl
sentence
consideration
fa
host
check
beg
desired
throat
political
##gun
choose
si
suspicion
##ative
##hood
ser
bodie
dim
pointed
design
farmer
flesh
paint
secure
odd
rocks
sailor
flow
stars
club
neighbor
flight
suffered
entrance
foolish
##ill
lone
haven
innocent
brief
ocean
san
midst
correct
yo
frame
sensation
capital
mamma
reward
education
imagin
mis
##some
z
hurry
ga
elsie
hide
crack
##lly
##ville
specie
instrument
distress
visitor
hang
practice
worst
nay
spend
gu
proportion
keen
visibl
hunt
##em
mist
load
elder
argument
belief
relief
pause
##nder
faces
plate
mysterious
request
remarkable
jewel
mental
skill
hate
behold
wander
dread
nineteen
enemie
stern
mix
charming
refuse
fields
hasten
track
sixteen
appeal
hunting
pi
useful
announc
resum
worn
card
famous
depth
par
apple
##qui
n
ug
interrupted
nervous
operation
cit
gaze
bay
provid
shade
##our
je
accomplish
calling
wake
chain
##artagnan
reflection
merchant
choice
harry
roar
glory
newspaper
tu
bearing
##aw
interested
bob
hence
cre
helen
plenty
element
##ible
arch
willing
lest
queer
heap
union
slep
cave
hale
separate
favor
delighted
consciousness
jealous
judgment
##ford
th
companions
thrust
anyone
ease
delay
##ists
shell
root
##of
bull
sang
knife
region
candle
arrang
trip
arrival
va
grasp
observe
chest
raise
furnish
scar
absence
leader
tro
cor
precious
risk
everywhere
##rank
principal
recall
vision
##wa
aim
##mber
reader
guide
sh
fighting
apartment
##ze
squ
unhapp
retreat
thunder
ships
waste
observation
##ized
popular
horn
manage
lesson
brilliant
somebody
assured
burning
friendship
wa
##lan
includ
trembling
admire
storie
trial
labour
alice
tear
militar
blame
pace
teach
ghost
rec
hero
hut
spare
hit
base
##tted
wishes
members
##for
##ified
grandfather
cent
miserable
europe
ways
prompt
bas
kindness
exten
occasional
urg
warn
maintain
peer
##ians
infinite
await
##stair
horribl
motive
pursu
##ugh
remind
ut
gods
intelligence
hesitate
protest
mutter
smell
fancie
##mon
hans
rubb
eighty
plac
magic
scream
sold
paul
anxiet
stupid
energ
bought
somewhere
accident
explanation
religious
reckon
hollow
rang
nest
neighbour
accustom
david
stiff
##shamed
credit
vague
vo
repeat
immense
mus
cabin
active
dan
inclin
dignity
vanish
u
constitution
admitted
##ide
comfortable
##tra
stole
flying
##ldom
shelter
print
string
civil
pitch
cu
##iness
weapon
style
rome
author
gay
tremble
##ress
understanding
fla
##ward
weary
##field
doors
forc
elizabeth
project
sam
safety
mer
unusual
jesu
trick
becoming
birth
hanging
examin
mood
##za
fun
et
philip
signal
conclusion
billy
inter
che
##dying
names
brush
conscience
universal
pink
ph
shak
##liness
appoint
betray
somehow
member
marked
display
bishop
fortunate
successful
surround
jim
whil
##oo
dreams
sentiment
gleam
gra
prospect
painful
dri
lin
eggs
gar
process
christmas
##hor
continual
reduc
##held
connection
hungr
develop
##nny
hasti
wolf
peasant
##ook
robin
rat
wi
thanks
##ium
female
rage
##lt
supply
unconscious
cease
heavi
trans
centre
ob
##ach
lawyer
attitude
##house
misfortune
scatter
attain
branche
##up
##ator
throne
crew
merry
relation
apart
feast
fetch
##bra
dash
attract
reveal
cliff
delightful
ideal
cl
exhaust
quantit
bal
mercy
fled
mac
dirt
points
pu
adopt
source
dragg
setting
joe
br
haste
tis
triumph
defend
hint
concerned
rear
rag
##ette
fought
escap
expos
##har
victory
##ett
patience
sylvia
title
wasn
halt
forehead
smok
hast
val
council
describe
den
sex
older
pur
troops
pl
ow
national
describ
flag
encounter
divid
sank
entertain
positive
loving
novel
pig
sha
grim
##right
dared
duti
returning
##ea
incident
bride
relative
greek
giant
test
##her
boots
mortal
guilty
##loud
permitt
admiration
shone
##val
venture
fasten
propos
recent
clock
soil
accompanie
college
arrangement
writer
##ung
wooden
relations
build
mal
current
widow
estate
sheet
distinguished
thoughtful
##upon
chi
condemn
melanchol
fourteen
assist
cake
desperate
unc
quarrel
consult
dancing
##ney
discovery
range
wretched
worship
wisdom
volume
robert
poison
waters
##worth
magnificent
attach
august
ble
##tro
tent
becomes
swallow
useless
alter
beard
resist
arrow
obvious
select
spoil
shake
fleet
recogniz
preserv
##fa
lap
precise
market
inhabitant
wedding
arrest
intense
hearts
##rid
fad
powder
flush
ge
interval
limb
bark
heel
oppos
provision
voyage
burden
pit
household
ninety
sensible
sub
bade
agreeable
ve
meadow
solid
block
sport
##jo
fo
ain
gas
acquaint
slid
summon
lamb
mid
departure
mode
##ran
sacred
striking
southern
mystery
pine
fix
realiz
##ker
readi
park
curtain
bosom
ven
awaken
essential
everyone
instinct
blush
preparation
list
humble
joseph
british
feed
##line
##sses
unexpected
sugar
awake
patch
appli
mon
punish
experiment
victim
bi
introduc
lucy
intellect
resolution
drift
confusion
relat
mingl
verse
wire
para
din
retir
teacher
##rt
flood
lodge
##don
bri
chin
fellows
committ
improv
ke
rude
earlie
owner
pictures
parliament
reign
echo
julia
punishment
seal
anna
showing
fatal
ci
profound
gown
works
embrace
prize
wondering
careless
gre
catherine
strict
impatient
col
mistaken
assure
oil
louis
steel
veil
preced
##mar
assistance
rous
wal
trap
scrap
singular
sal
torn
curl
consequent
gesture
sovereign
saddle
compell
stir
affected
tight
pole
log
steal
disease
amuse
cal
##ize
deed
##abilit
enormous
problem
profit
struggl
description
domestic
steadi
leaning
manag
##ada
##ars
pierre
crush
conclud
agent
ere
rep
intimate
genius
gen
perceive
countess
objection
composed
devoted
discuss
adventure
bond
pile
midnight
##ven
tramp
darling
job
coal
younger
handkerchief
kate
owe
##ash
folk
official
scheme
##we
sole
bush
drown
merit
connected
nonsens
retain
cock
pa
coffee
carpet
stroke
declare
bless
negro
thirst
ignorant
ko
modest
generous
ascend
garment
baron
intellectual
trunk
squire
electric
erect
shoot
notes
fearful
##ina
absorb
stamp
##port
suggestion
stable
empire
anti
arrive
hunter
destin
privilege
wagon
assert
contract
plunge
##av
driv
violence
clasp
assum
##mond
##gratitude
button
stands
eternal
expedition
prevail
witch
sweep
buck
supplie
doubtless
jean
rub
steep
pal
tad
endeavour
neglect
fri
##ex
hay
district
leaf
offend
loft
nut
bushe
fin
luc
complain
craft
atmosphere
notion
har
expense
disposition
winds
andrew
feared
hell
recommend
creep
groan
pretend
leisure
j
polly
failure
palm
patt
settle
possibilit
puzzl
anywhere
bench
hunger
guns
reproach
stout
threaten
##work
polite
idle
fi
cab
traveller
mirror
numerous
clerk
librar
metal
drunk
invited
richard
generation
thomas
june
maybe
protection
mud
katy
earn
robber
ornament
score
##ang
affect
ba
steam
monte
gro
comb
lieutenant
uniform
regiment
bid
fro
tre
twist
collect
crep
counsel
western
flatter
sore
ceremon
barn
wandering
dig
knights
benefit
variet
flo
chris
##oon
contempt
cattle
##ug
restor
strip
##well
monster
batter
warning
plead
northern
pearl
##ole
sons
bones
##ai
vari
local
statement
banks
hopes
opera
ambition
grateful
stoop
madam
harmon
unre
rabbit
deny
##ification
dart
studie
confirm
rent
rod
province
nerve
bloom
prefer
pant
##broad
exhibit
execution
exceeding
chill
mankind
thread
spell
##oc
bestow
tra
gasp
tip
ruth
glow
noon
hospital
amid
quarters
spiritual
artist
furious
deni
neat
weakness
interview
fu
haunt
rail
factor
bon
supreme
straw
bat
impulse
sooth
monk
intent
tide
rays
isabel
confin
insult
crawl
dragon
l
##gan
slip
arise
ralph
valuable
commenc
diana
development
date
endure
##more
blessing
celebrat
convey
disappointment
desk
tax
fever
##tting
forces
assembl
##ew
beaten
tie
obedien
audience
invitation
passenger
steady
poem
stirr
arab
helpless
##tuck
cultivat
esteem
grandmother
aspect
italian
revolution
##uous
gather
thirteen
swear
marilla
irish
##ington
china
mild
feather
countrie
publish
medicine
spectacle
##ev
##zi
eaten
fifth
elect
mourn
bla
abrupt
sunshine
brook
tend
marble
conviction
handle
inspir
##cation
furniture
snake
error
total
##ries
belov
##ison
purple
shudder
mock
##rous
franc
##uch
created
independent
rachel
dwell
issue
melt
kit
physician
permit
branch
doll
destruction
##withstand
male
##nda
mont
wet
conquer
flour
walter
glorious
pierc
##can
accord
cries
linger
deserve
goat
absent
debt
mouse
pie
virginia
cro
messenger
multitude
collar
thornton
kick
oliver
commander
chap
plum
startle
griev
disgrace
florence
nail
silly
borne
catholic
poverty
lightning
chase
backward
##lon
robe
disgust
tristram
citizens
pursuit
##ib
discussion
goodness
##lli
ski
##mate
tempt
##ux
shirt
rifle
leather
student
engagement
needs
dearest
upward
beach
swell
joke
rum
div
bab
lincoln
pistol
someone
beam
instruction
folks
galler
##ake
fra
decision
philosopher
entreat
dangl
washington
polish
bidd
staff
mil
ter
##bury
border
frown
gates
##ire
absurd
slope
surrounding
scale
##pen
committee
fence
hi
tomb
russian
preserve
memor
farewell
stain
spur
mule
occur
impress
manners
enthusiasm
lunch
undertake
char
humanity
gri
cheese
##atory
disturbed
lit
compar
distinguish
dish
peep
definite
vice
sincere
kin
famili
organ
gracious
unpleasant
remote
defeat
origin
agon
cell
vote
facult
counter
com
##board
pony
simon
coward
abilit
recognize
eyed
consum
cloak
jest
##ja
wip
acquir
mari
dwarf
shriek
overcome
##ko
hook
por
starv
weeping
proceeding
disappointed
profession
fil
bolt
##ou
weigh
##chi
cutting
shy
growth
blo
ned
phrase
opposition
characteristic
honey
pool
wrappe
distinction
feeble
rejoin
glimpse
coach
monkey
nu
receiv
jol
manifest
channel
platform
appetite
reputation
##wn
murderer
cunning
institution
satisfy
boast
compliment
dining
fitt
emily
graceful
jar
dressing
prepar
oath
conception
pepper
del
##ick
teaching
toil
lane
##ith
whirl
ban
guards
sale
center
eve
recognis
slain
piano
rival
ventur
indicat
elbow
repair
dislike
clay
frog
remove
gai
horizon
nicholas
breeze
dusk
inclination
##gar
clo
breed
deriv
encourage
indifferent
product
susan
gallant
deem
vol
##all
thither
revenge
timid
twin
norman
rob
exchange
dwelling
weari
respond
column
thrill
spear
swing
cru
##hu
ages
##cut
contribut
cautious
foe
passionate
expectation
realize
luxur
rejoice
capacit
waist
humor
brick
selfish
net
##ap
forever
nan
smart
harsh
fed
perish
treatment
greet
hol
spar
##ya
recollect
ben
function
cheap
dismiss
##fare
lar
ward
causes
rein
doctrine
mischief
flutter
pillow
comment
##car
mate
italy
medi
govern
ashe
accuse
africa
prophet
flock
separat
##fall
##uff
bewilder
philosophy
shield
bernard
endeavor
monarch
herbert
theatre
approv
duck
brand
sway
decide
hopeless
restless
execut
pea
epi
perch
fascinat
sultan
tremendous
reform
chimney
beating
fountain
ignorance
##how
ram
community
##cha
industr
league
uncertain
reference
albert
bro
bowl
examine
##lock
lights
gal
grain
##sail
sk
contrast
criminal
shift
vigorous
talent
hatred
confused
belt
motionless
grove
sunk
shiver
representative
##ttle
##ana
##ency
autumn
disguise
permissi
partner
torture
purse
freely
prey
compos
retort
slender
snatch
vivid
avail
neighbourhood
dun
johnson
pressure
worry
whip
angle
disturb
belonging
rolling
##rity
scientific
renew
frightful
venge
sparkl
cream
communication
amusement
apply
sch
##gue
standard
continent
intelligent
occupation
yonder
association
plot
sur
lor
easi
super
purchase
ger
duchess
bud
secur
assume
rug
quot
##ese
cristo
favorite
planet
needle
enjoyment
damp
rules
inner
sensitive
ceter
classe
doubtful
pretended
fog
deliberate
depriv
portrait
naked
attendant
examination
gathering
yell
##day
hadn
##ctor
dale
ann
stomach
blessed
lust
hedge
whit
##han
magistrate
pupil
shepherd
glove
humour
divers
jaw
pat
##ria
tradition
hind
shar
keeper
toby
egg
shooting
egypt
lodging
central
puff
##lia
uneas
##ella
hawk
nav
exception
doom
secretary
touching
perfection
fan
pope
fr
external
anchor
suppress
snapp
##hen
sew
activity
mars
tenderness
map
shouldn
##ulat
fired
deposit
persist
##ez
pra
persuad
scholar
territor
japan
solitar
eastern
driver
merri
commission
india
crow
accompany
withdraw
wreck
francis
lily
perpetual
pointing
porter
acknowledg
eu
orange
detective
moonlight
seize
propose
explor
porthos
dar
comrade
hail
apt
doorway
literature
scotland
scratch
wrath
section
torment
engineer
kid
starting
rever
sober
amaze
prepare
sink
enable
increasing
wax
reasonable
lament
weep
boats
blank
##miss
fowl
whither
mag
childhood
deceiv
bak
heir
span
cord
legal
awkward
liberal
saturday
unit
##cast
addition
career
fame
chu
contriv
napoleon
dutch
surviv
scent
blew
grat
necessari
wiv
##woke
scorn
practis
eagle
cardinal
skirt
ray
sobb
preach
plann
##shire
barr
sca
conflict
enterprise
genuine
coffin
bedroom
affectionate
bind
mat
foundation
bun
linen
anyway
curve
moss
tap
rescue
detect
favourite
hush
woe
slavery
growl
politic
offering
paw
ya
differ
mutual
refuge
sleeve
surrender
zeal
bundle
knot
outward
folly
wilt
swor
wage
mail
outline
desires
v
comprehend
copy
trot
shouting
wel
invent
##burg
##itch
serpent
income
kitty
raising
hideous
louise
beggar
drag
##acy
##rie
marguerite
solitude
improvement
summit
proposition
germany
lend
restrain
crystal
mask
ladder
department
vein
guid
fashioned
julie
axe
securit
wick
congress
twilight
funeral
gallop
funny
scarlet
bone
respectful
lace
citizen
warriors
crop
ireland
arouse
marks
damn
hare
defence
sustain
views
una
quoth
unlike
apolog
##ridge
alyosha
moderate
civilization
assistant
##ied
##bro
referr
fatigue
masse
authorit
preferr
disc
engine
enchant
fragment
miracle
roast
population
##ignation
formal
pond
phil
cure
pulling
##atic
infant
spain
idiot
inch
proposal
sofa
hil
outer
indulg
division
natasha
resource
cotton
satisfactor
claw
coloni
crossing
acting
##titude
rap
unw
contact
prejudice
reliev
temptation
salut
##bal
assent
today
wretch
educat
porch
cats
overwhelm
tobacco
copper
muscle
assurance
repose
tread
persuade
bible
drops
dishe
breathing
chicken
crimson
survey
blanket
nap
swim
acknowledge
ripe
sob
annoy
concentrat
disorder
sancho
loyal
cordial
deer
annie
martin
solicit
barrel
##itude
drum
ridge
shad
doth
ox
ador
velvet
shakespeare
crash
peaceful
quit
rust
lands
conceive
steamer
admirabl
reject
clutch
mixture
vital
musical
jackson
sack
combat
##qua
##wick
brig
cling
frost
hire
emma
ruler
distribut
thief
trifle
moist
flee
confident
devotion
motor
nancy
penny
cellar
##tta
vow
##ju
recollection
cub
shan
##igh
shine
daring
relate
pronounced
moor
borrow
attentive
exquisite
indignant
jacob
brute
mould
transport
construct
worm
railway
determination
robb
riches
hum
retire
dorothy
invisible
obscure
performance
##app
rider
succession
clothing
miner
painting
majorit
convenient
screen
dismay
##ibilit
coarse
bullet
induc
ends
emerg
avenue
bargain
feathers
charity
minor
establishment
equ
procession
slu
peril
provide
curse
realis
essence
decent
saving
sunset
stephen
##hold
##room
blade
balance
sim
economic
holiday
pluck
valjean
corpse
goose
altar
complaint
speaker
confession
fist
##ching
lid
undoubted
inferior
residence
wilson
replac
partie
repent
couch
inward
issu
contented
miller
gang
##mmed
endur
comrades
ham
##fold
der
footstep
indifference
brandon
mechanical
##took
elde
boot
desir
apprehension
despite
ridiculous
hesitation
resistance
ensu
##foot
songs
contemplat
correspond
accent
reception
slice
handed
magician
allah
indicate
inquire
prose
resign
staircase
cherish
tendenc
advised
vine
cape
dispute
introduce
lecture
uncomfortabl
froze
bald
thence
peak
cannon
##ino
stra
suppos
wherefore
coin
lee
defin
congratulat
imperfect
manufactur
excellency
tomorrow
sarah
naught
travelling
##ola
##where
justifi
lawn
blaz
blossom
eloquen
innocenc
vegetable
breathe
edith
lash
carve
oppress
dine
affirm
drake
gravit
wak
offence
comparative
jerk
jam
creation
july
soften
##cle
##burn
##af
victor
lantern
resolute
unwilling
cigar
raft
fortnight
carlyle
##ograph
literar
throng
frederick
beef
tool
collection
guardian
appreciat
passes
arrange
##ology
partial
youngest
import
devour
sprinkl
violet
creek
convert
dumb
disagreeable
dew
triumphant
##aries
moan
gree
bodi
dense
romance
mademoiselle
matthew
michael
occupy
hammer
facing
turkey
reviv
romantic
brac
thankful
blu
campaign
trumpet
rigid
gossip
pencil
contest
jones
invention
##ora
englishman
cho
captur
rushing
bend
heav
peg
quixote
normal
hoping
brisk
ashore
holland
resid
interior
ken
ascertain
corridor
universe
bunch
administration
translat
bred
tribe
thorn
model
adventures
bur
delicious
involuntar
average
application
flourish
tiger
mun
##lar
parish
journal
promot
glid
stagger
bending
chatter
##oes
##cra
salv
adorn
beth
landscape
torrent
unjust
latin
stroll
raw
hal
sauce
angri
fishing
immortal
responsibilit
envy
slo
wolve
niece
whistl
ol
gap
anticipat
april
shilling
temporar
brass
rosy
mansion
hull
dat
submit
reserve
vulgar
sixth
hurl
fanny
deaf
egyptian
release
illness
##dor
breathless
qui
challenge
permanent
telegraph
shalt
spoon
election
awe
abuse
ji
dwel
hood
grip
republic
reconcil
boston
strick
prudence
appointment
glacier
tune
assembly
basin
maxim
solomon
jimmy
spark
stake
complexion
troubl
demon
employment
harp
wool
natured
resembl
mob
mission
interpret
procure
penetrate
telephone
temperature
stalk
richmond
patron
jail
impose
faster
##cum
convict
railroad
suspend
device
brood
twinkl
neighborhood
raggedy
wheat
link
drawer
##fish
statue
landing
wherein
forbid
septemb
ribbon
tumult
horrid
editor
stove
consol
canoe
mast
hound
dante
prop
collected
searching
joyous
cove
dug
compare
shower
fulfill
admiral
elegant
gilbert
nephew
spaniard
impart
whale
oyster
wilderness
discourse
johnny
roger
limp
advise
judg
hearti
bert
shaggy
pop
steward
indi
##gin
slipper
wan
##panish
##bel
terribl
corrupt
hercule
suffice
anguish
drain
op
jacket
medical
stall
wink
glowing
##say
pursue
prime
upright
restore
crook
rascal
errand
turtle
rational
composition
steer
gau
spin
eighth
levin
wil
abstract
believing
specimen
threshold
gru
harris
balloon
settlement
rosa
##oge
##hon
joyful
conceiv
##arch
vanit
interfere
##j
##istic
travell
assign
agitat
slumber
canvas
knel
agitation
instruct
jury
semi
stirring
entr
confound
embroider
launcelot
franz
simplicit
lemon
fred
##izing
blast
thor
pressing
pirates
nat
obstacle
sledge
combination
pavement
friday
monday
timber
##chu
plat
ponder
photograph
plague
reckless
senator
flora
guilt
fal
polic
effective
tailor
butler
inhabit
structure
swimming
slay
fawn
compassion
wail
route
impatien
tim
divide
embarrass
symptom
transform
enquir
jason
narrative
clapp
kneel
cash
politeness
forgett
##gate
tur
##bri
alexander
ceiling
disdain
precaution
ultimate
distract
overlook
captive
cosette
orchard
traged
foul
daint
despise
venus
flies
hurrying
speedi
conspicuous
independence
spectator
suspicious
testimon
tyrann
sketch
bonnet
adjust
induce
villain
cruelty
convers
european
endless
prosperit
carr
lifting
dropping
unsee
dame
refer
crest
wont
perception
surprising
kennedy
wrinkl
abode
achiev
comparison
insect
barrier
suck
spru
##ulation
##fo
profess
fright
##ural
descent
irregular
proclaim
substitut
waving
##uary
scott
pinch
piti
##dding
##rate
attribute
discipline
mitya
sheriff
amiable
extract
chop
troop
stray
bite
ki
nowhere
relieve
caution
cushion
globe
array
cavern
subtle
quitt
graham
elm
procur
##drew
bake
complex
conclude
eminent
prairie
nightingale
thumb
providence
banner
inspector
foam
painter
grind
tho
joint
tribes
greeting
##responsible
pilgrim
instinctive
cough
professional
glittering
whistle
spy
soup
deceive
statu
calculate
slaughter
reverence
twas
##arian
woke
flowing
glancing
umbrella
diminish
apron
crouch
rebel
pleasing
drear
debat
marian
##lier
entertainment
recit
boxe
critical
##tercourse
ragged
pol
rebecca
sullen
trouser
morgan
extra
swamp
maker
quiver
lordship
production
highness
melod
choke
supp
##ground
gib
associate
terrifi
envelope
universit
brethren
brutal
culture
exclamation
raoul
remembrance
sergeant
shrink
shaft
commercial
##ima
##aves
upset
capture
pall
commerc
parlour
symbol
stump
remedy
combined
resolve
turk
glasse
engage
threatening
virgin
behave
undi
constitute
phenomena
invariabl
ardent
extensive
donkey
literal
thicket
mournful
russia
drug
##piece
pad
concert
entitle
scold
sphere
muscular
parson
hugh
bother
sailing
##dder
tightly
##bar
aboard
downward
sinking
cage
mur
hinder
blowing
elephant
landlord
nautilus
caesar
crazy
declin
haught
forbidd
exertion
fitting
invad
howl
lent
adj
excit
shaken
laura
situat
arc
strengthen
interpos
##master
assault
harbour
moscow
housekeeper
decay
exalt
split
amusing
prick
sunny
scro
invest
fogg
mare
stat
mul
trim
##sight
za
britain
maggie
monstrous
tyrant
davy
marquis
slim
prim
damage
##lves
onward
##rmo
fund
##night
##mouth
mole
filling
yea
refresh
recognition
december
delicac
wrist
pledge
##far
medium
clover
strait
create
follower
discharge
hom
##mont
obligation
rak
##ik
chuckle
han
kat
investigat
defect
paradise
patriot
swarm
clung
gall
excessive
resemblance
investigation
haul
lung
pac
eh
deserved
darken
julius
probabilit
regain
resort
abraham
banish
closing
chopp
determine
##ji
nun
lil
hearth
communicat
bough
drama
artificial
jasper
valentine
detain
pretti
text
glare
chant
oven
resemble
gir
critic
rout
gardener
##town
shrill
dismal
sweat
tenth
inevitable
py
enthusiastic
##loo
marvel
##lus
lyn
fry
threat
imitat
compass
exert
ignor
escort
wrought
vault
##ida
formidabl
organization
rash
wig
rac
sorrowful
bigger
endow
reluctant
grinn
louder
commissioner
ul
abundant
disclos
illuminat
##borough
outrage
worri
breton
##ram
hostil
bre
firing
team
matur
sickness
fier
mono
ambassador
incredibl
federal
sneer
amelia
justify
nigh
##chester
mayor
subsid
exceed
childish
##half
cavalry
remorse
gulf
liquid
flank
spargo
##tail
reserved
acquire
marsh
mic
area
alleg
decorat
approve
extremit
gigantic
october
perfume
bulk
pump
pillar
rattl
sandy
unworth
dipp
beau
declaration
involv
##ological
perplex
solv
charlotte
exclusive
psmith
significant
waistcoat
bronze
stool
ellen
milton
consolation
bury
tire
gale
##ular
emphasis
droop
slew
martha
habitual
repuls
pudding
workmen
marvellous
warrior
pon
pomp
lime
##comb
democratic
oars
film
revolver
releas
crumb
##back
dora
confront
eleanor
unnecessar
##dolph
warrant
costume
edison
dictat
accidental
attractive
clara
attraction
##ware
idol
unb
##vin
pill
enclos
attorney
cluster
conjecture
leslie
prolong
squeez
travers
shelf
accurate
adher
behav
ivan
pacific
harness
studio
agreement
purchas
illustrat
california
document
liquor
refrain
skilful
sublime
uncommon
perce
grape
groom
##bridge
fir
pri
##position
veri
degrad
plough
fantastic
tempest
occurrence
goddess
shrewd
stifl
bridle
interven
shrugg
protestant
betty
potent
desirable
durham
assertion
owl
appreciate
whipp
basi
pul
appropriate
treasur
nora
reverse
inflict
comprehensi
pilot
raven
moses
acre
drunken
pang
pun
##gone
admiring
eustace
squirrel
ticket
ancestor
assassin
pattern
righteous
liver
remainder
lowest
##justice
banker
trifl
bang
convention
excess
corporal
desolate
manuscript
monument
incapab
mute
bluff
tube
throb
trout
pulse
meek
involve
enabl
isolat
propriet
convent
rue
##rick
revolt
eternity
scarecrow
skull
siege
athenian
serene
stru
fertil
loung
recess
background
separation
traveler
pirate
communicate
cask
manager
##hand
january
significance
substantial
thieve
launch
frantic
nobil
shave
bin
crust
x
quart
suitabl
rack
circular
distrust
opponent
primitive
priscilla
response
scandal
scotch
solution
stumble
dispers
commend
juice
tangle
criticism
blake
parallel
marie
butcher
commit
frenchman
##gram
highway
underne
##rum
personage
presume
argue
customer
access
accumulat
casual
cathedral
mathematic
pinocchio
subsequent
draught
imperial
smash
damsel
febr
hoarse
legend
cabinet
ample
embarrassment
armor
exile
hip
aye
organiz
##break
quin
depress
interrupt
plunder
estralla
philadelphia
gambl
martian
incur
patsy
acid
vary
busi
locat
psycholog
startling
implie
##alem
##maker
contradict
pil
##var
decline
despatch
discourage
prudent
relax
jerry
jimmie
illusion
ounce
calamit
introduction
fisherman
horseback
champion
soap
penn
rot
indication
heroic
bug
discern
marshal
ledge
allud
guy
rattle
brandy
tranquil
smot
advertis
obstinate
villefort
israel
digging
violat
clergyman
jude
falter
mike
swam
favorabl
nursery
priv
amazed
dome
prohibit
vehicle
parlor
detach
dunbar
geograph
snor
aught
republican
illustration
aveng
acute
whisk
hump
plank
inherit
dominion
generosit
rejoicing
adapt
voluntar
internal
lazy
quaint
dignifie
kettle
haw
dependent
scant
token
invite
strap
pok
tenant
yu
chateau
phoenix
conseil
cigarette
navigat
reaction
coachman
##think
attachment
policeman
gravel
trapp
babe
willow
civiliz
quivering
afflict
elevat
mudd
stew
scrutin
defense
embark
enlighten
splash
excite
incense
cyril
sermon
scout
hopp
prior
tooth
trott
pasture
unhe
tapp
tolerabl
burg
stag
agricultur
elaborate
incessant
subdued
suspens
atlantic
bliss
martyr
senate
bubbl
vexed
##ouquet
anthea
tragic
parcel
courtesy
loaf
gregg
picturesque
proprietor
lance
coil
##berry
lame
potatoe
##ople
comfortabl
academ
eliza
hebrew
phenomenon
amazing
surgeon
sympathetic
vibrat
hencefor
speck
mexican
chapel
abyss
construction
abundan
additional
hue
tact
crab
gross
##rai
surg
radiant
whisker
customar
climate
granite
terrace
vacant
overtake
enforc
glen
contemptuous
##cular
quest
frock
intensit
zo
architectur
plantation
dam
shallow
pont
##coming
administer
gospel
chariot
temperament
guinea
chancellor
nourish
confer
identit
##illa
afore
submitt
restraint
plato
harbor
apprehend
bachelor
excursion
eyebrow
intelligibl
prominent
undertaking
gratify
screw
surpass
dexter
shatter
ninth
colony
contend
yawn
pagan
creak
bobby
envi
humbl
lick
yer
reel
vot
toast
stem
eric
dolly
##water
provoke
review
volunteer
dixon
particle
agnes
falsehood
revelation
greas
kitten
loom
alert
youthful
speculat
artistic
apostle
apparatus
flicker
garrison
hymn
correspondence
mirth
sunrise
aramis
jerus
liking
keith
attire
associat
tray
maria
watchful
passive
accommodat
legislature
chorus
gaunt
resentment
traitor
encouragement
curate
##ternation
##rina
loath
fashionable
archer
terminat
glitter
bitterness
confide
chine
streak
hamilton
harvest
drap
empti
defiance
hazard
tiding
workers
missionar
argu
chuck
##berg
salute
shawl
converse
##ollen
grin
resent
chicago
glimmer
carpenter
dissolv
dagger
ghastl
overflow
proverb
behaviour
spake
courtier
blaze
##born
felicity
stripp
homeward
constance
ladyship
foresee
##ball
era
formation
aladdin
disciple
expert
innumerabl
magazine
refined
tulliver
fiddle
complicate
subsist
darcy
conquest
persever
pitiful
disturbance
parker
mantle
pious
##midst
vest
expand
chauvelin
leonora
rainbow
scramble
unnatural
jungle
invalid
strive
decree
unkind
ginger
persistent
camel
fisher
speculation
armour
handful
##agne
hart
inventor
sentimental
butterfly
kil
ku
measur
hark
cursed
buzz
consumption
facilit
feminine
fundamental
irritate
scoundrel
intimac
courteous
courtyard
strew
gorgeous
lump
forsake
odor
lac
hospitality
irresistible
copie
##hurst
befall
snap
ambitious
perceptibl
twentieth
alliance
dramatic
foster
topic
chatt
haz
berth
foli
morn
trod
hopeful
hypothes
samuel
virtuous
bruce
deceas
daniel
beckon
blunt
repress
clair
isabella
audibl
torch
ditch
fulfil
cargo
hyp
babylon
tumble
reporter
fuss
chart
knitt
popp
myles
finer
adjoin
barricade
circuit
circulat
confederate
extinguish
tuesday
distort
oat
swu
infantry
venerabl
necessit
logical
hardship
remarkabl
slop
lark
connect
tuck
workman
sage
gem
controll
shrub
emphatic
fireplace
pharaoh
restaurant
splendor
animated
ingenious
cradle
trench
bomb
intolerabl
uneasiness
interpretation
boom
harmless
cheat
hatch
jug
##itious
fringe
continuous
sara
##dale
menace
displeas
definition
exclud
negative
suffrage
wednesday
petition
sexual
buffalo
energetic
compact
dissipat
vehemen
luncheon
humming
flint
wendy
grunt
cupboard
mabel
patent
augustine
bump
buff
accomplishment
plump
soak
##action
exchang
boss
presid
levi
spinn
multipli
admission
conform
enlarg
indulgence
museum
snuff
expir
##iff
persian
feverish
imitation
massive
inspiration
successive
worshipp
advis
brim
bessy
panic
advent
##twixt
calculation
dismount
fugitive
register
unluck
hesitating
watson
petersburg
armie
barbara
edi
exceptional
carol
stud
steed
##q
dodg
exploit
stammer
verloc
vexation
helmet
divert
estimat
vicar
esther
westward
##ancy
primar
cable
brighten
perplexit
specific
dean
stimulat
##woman
regulat
##down
estimate
henrietta
marcella
predict
saxon
orphan
conceit
pigeon
clums
tommy
champ
analysi
alien
demonstration
kindred
exhibition
gill
beech
tub
wagg
ivor
gable
legg
fret
overpower
applause
astronom
plaster
simultaneous
transparent
twig
wreath
divorce
sinister
intrud
frenz
session
allusion
margin
spider
elevation
transferr
attribut
swan
olive
alley
efficient
wag
sab
tract
disadvantage
discontent
earthquake
ecclesiastic
everlasting
expensive
higgins
majestic
socrates
telegram
wondrous
annual
tavern
gratification
helm
governess
kara
stealth
contemplation
punch
nurs
##mination
disaster
furnace
celia
candidate
penalt
evan
marvelous
annoyance
historical
percy
crisp
oxen
andrea
veni
formula
hack
cam
weaken
pap
tumbled
waver
despis
biscuit
constrain
diploma
lanyard
pencroft
skeleton
bruis
rostov
necklace
gild
otto
clark
monaster
winchester
winning
devis
jenk
mysterie
slap
calf
chew
feat
knit
fearless
##cloth
##bird
preacher
clergy
fiction
scripture
striving
superstition
beseech
impuden
fiend
saloon
packet
lumber
hermit
paddl
barren
##ddling
spec
victoria
gabriel
hereafter
languid
prostrate
muffl
lurk
dispens
clement
hobb
confidential
##strode
compli
organis
hover
shutter
jove
##odious
imprison
##enne
almighty
dispatch
gwynplaine
sniff
tablespoonful
conference
ravine
holmes
outlaw
otter
superintendent
relic
oxford
birthday
hamlet
rustling
comte
cruis
marine
utterance
##quest
coral
loan
signor
chim
pear
demonstrat
bog
decisive
discretion
economy
scruple
signature
tilney
historian
vizier
banquet
overhear
##much
thorpe
pav
respective
fain
auto
cork
reappear
advocate
freckle
mississippi
nostril
pebble
precipice
harold
dinsmore
sentinel
phase
effectual
whim
industrial
switch
edition
hostess
whatso
ojo
sect
sap
rend
gull
exercis
commonplace
disregard
illustri
mammy
tunnel
prophec
terrier
alternate
wallace
rippl
click
##hall
bacon
unhappi
placid
scornful
lugg
contradiction
fuel
rebellion
trimm
refusal
baro
trader
eccentric
senior
ascent
refreshment
canyon
impressive
litter
pronounc
interruption
abide
riot
candid
sill
##udge
fig
conqueror
gust
inflam
accusation
drows
expedient
festival
indefinite
phantom
intoxicat
achievement
preference
appall
reverend
coroner
tank
strand
clue
matron
caroline
northward
##ello
conventional
athos
expressive
fifteenth
##mitten
signifie
payment
rustle
##eep
tipp
revolutionar
condescend
douglas
lizzie
tribute
daddy
girdle
shabb
blunder
balcon
revel
jelly
southward
stride
urgent
##ization
avert
panel
emergenc
shaw
lava
##fellow
ark
musician
treacher
alexey
australia
explosion
extravagant
grotesque
inconvenience
neutral
renown
sacrament
insolent
announcement
implore
uproar
barbarous
##boat
frail
santa
favourabl
sici
duel
allowance
sacrific
successor
##ampton
compromise
overthrow
alternative
disapprov
sulphur
vegetati
violin
advertisement
fortress
jeff
mound
yoke
terrific
adventurer
##mphi
chip
##jah
prescrib
clump
phronsie
supposition
thursday
graduat
hyacinth
deput
gnaw
pretence
horace
stunn
malice
forbear
elapse
lynde
prosperous
breech
turf
##iah
unlock
nobleman
radian
rite
devote
musket
compound
emerald
indescribabl
monotonous
revenue
vicious
coax
fidel
infect
essay
reef
bucket
ankle
strok
discreet
##court
mason
##rches
booth
unfold
oppression
alteration
milan
breadth
dye
unti
vile
##omo
chao
experienc
personalit
exult
austria
contemporar
dazzling
forthwith
legitimate
renounc
splendour
tremulous
charlie
thenardier
sturd
usurp
arabella
beryl
muslin
bellow
severit
seventeenth
spectr
grade
asylum
grushenka
junior
repetition
sombre
sydney
edwin
cherry
slack
valiant
besieg
vicin
chivalr
grandeur
orlean
prodigious
heathen
obstruct
frontier
moth
saul
brake
wholesome
representation
hap
ceremonie
##loft
artillery
equipp
evolution
pyramid
chalk
imposing
michel
eventual
eyelid
beaver
stro
momentar
petty
sixteenth
herald
lever
usher
persecut
inevitab
##forehand
cabbage
convenience
democrac
encouraging
lavish
stubborn
tuft
riddle
scour
puritan
senor
aristocratic
infer
pike
pic
efficien
ranch
##fresh
caravan
catastrophe
cossack
ecstas
glisten
henriette
infirm
perspir
saunders
synonym
bumble
trivial
deform
enlist
clatter
glee
treacherous
repentance
bristl
mystic
vase
superb
jem
toilet
automatic
guarantee
jonathan
rouble
shirley
treason
ridicule
scrub
wiggily
elinor
pathetic
impass
trait
creator
relationship
marianne
barbarian
resignation
code
roam
bandit
verge
revolv
##lov
stab
montgomery
precipitat
remnant
schooner
taylor
antiquit
parrot
executive
blend
sonya
decoration
package
anticipation
destination
airship
judi
magnet
berg
extinct
ingredient
preliminar
requisite
shroud
devout
lewis
rapture
therewith
baffl
operator
parsley
ogre
unfit
skipp
cyr
identifi
depression
quarrell
peck
hoop
forgetful
defi
kha
##dition
dru
mexic
woo
calhoun
defarge
merciful
reassure
receipt
vanquish
delusion
unique
headlong
flirt
latch
bennet
transaction
mona
companie
utilit
boar
rector
consistent
peculiarit
##alais
feebl
##served
thro
narrat
##agement
##terrane
adequate
antagonist
destitut
fathom
grumble
indispensabl
reproduc
rhythm
secrec
strife
tissue
ungrateful
unmistakabl
wistful
overcoat
snarl
carolina
adela
flaming
churchyard
rogue
huron
perilous
sinner
affliction
crude
badger
disappearance
theories
marvell
##accessible
paula
crave
practic
lovelie
shov
vigor
cuthbert
obscurit
offensive
sculpture
forlorn
russell
canadian
gordon
meditation
odour
bryce
kentuck
inheritance
luxurious
charley
salary
lucian
berrie
filth
humiliation
##urance
damon
daisy
##elope
denial
amend
##course
##ologist
detest
pew
cromwell
fragrant
identical
jupiter
luminous
miraculous
suicide
chestnut
sagaci
diffus
teresa
javert
piteous
ethel
carbon
conjur
garret
postpon
sulk
smother
restrict
beautie
lonesome
francisco
insert
baba
mimi
bigge
##thorpe
hinge
moustache
research
stuart
twitch
wizard
discord
sample
olymp
nought
grocer
flask
husk
columbia
tiptoe
stress
shameful
crater
politician
hive
gratifi
##credulous
twel
circl
automobile
excellence
intrigue
matrimon
mutton
sanction
supernatural
volcano
feign
ingenuit
entrust
prowl
##munition
cripple
interference
jenny
eastward
enchantment
whin
heroine
rigg
manifestation
attendance
shun
presum
humiliat
psych
discharg
uneasi
##fancy
##seigneur
episode
financial
plentiful
submission
whirlwind
georgia
suburb
clench
gawain
planchet
behavio
tutor
coloss
bertram
waverley
victorious
pickwick
genial
correspondent
imprisonment
galley
loop
##stein
tito
stimul
reap
basil
logic
constitut
err
aristocrac
consecrat
encamp
outstretch
circus
congregation
cricket
hospitabl
sparrow
thompson
vigilan
harriet
thereafter
yacht
dripping
compartment
aversion
profan
fulton
deficien
abound
tranquillit
seduc
avow
adult
morris
nemo
baronet
defiant
impell
descendant
garb
rumor
agenc
socialist
annihilat
apparition
archbishop
blink
caliph
chichikov
collaps
entangl
lennox
mischievous
recruit
ruffian
scientist
subordinate
syllable
celesti
boffin
flanders
vapor
reput
clown
industrious
franklin
oppressive
cycl
fluid
mantel
transfer
##bourg
guil
abominabl
auspicious
cemeter
eminence
expenditure
insignificant
misunderstand
remonstrance
scissor
technical
imperative
kenneth
traffic
invasion
snug
knive
signify
premise
horizontal
breach
robinson
liberat
amendment
##vsky
companionship
persecution
spat
##discriminat
wrap
gorge
cavalier
competition
discomfort
indistinct
baggage
inference
interrogat
ruddy
license
glaring
carroll
fritz
cooper
choking
betroth
spencer
ministr
negotiation
syria
yankee
localit
meddle
ransom
insane
condens
displeasure
cedar
genie
hazel
rotten
burton
morland
clash
valor
magnetic
disput
graz
theater
pork
broth
hostilit
abolish
deliberation
fervent
jehovah
muzzle
oblivio
unanimous
unreasonable
hannah
lawrence
##nburgh
determin
dedicat
denominat
analog
gould
tedious
wove
envelop
picket
communion
malad
phine
crumbl
ferry
##laid
##spar
barbar
mung
denounc
impossibilit
conscientious
cylinder
diameter
godfrey
indirect
landlady
lobster
oriental
philosophical
verdict
bureau
snob
squeak
mumm
shrine
grudge
turret
enrage
constable
recurr
repay
ferocious
belgi
inspection
brew
##kov
hateful
peel
interfer
humili
birch
physic
commun
reasonabl
resound
boolooroo
delaware
dimension
impulsive
lukashka
malicious
matilda
millionaire
mohammed
persuasion
provincial
simpson
superflu
chemical
recoil
radiat
shuffl
confinement
inviting
partition
meditate
slate
fishermen
sandford
void
taunt
regulation
sallie
##cott
forego
moralit
juda
magnificen
sauc
##quarters
quench
thrash
alphabet
ascrib
buccaneer
dmitri
inscription
magdalen
massachuset
mechanism
morcerf
populace
proclamation
steadfast
unbroke
zarathustra
epoch
davis
dazzle
stacy
broom
contrivance
garland
spade
grievous
choos
acquiesc
assumption
bazaar
brazil
controvers
florentine
gertrude
hopkins
pennsylvania
peppino
rhyme
stepmother
unaccountabl
empress
testament
scowl
infernal
laurel
hearken
raymond
karl
enclosure
pension
swoon
cramp
rubbish
luke
bribe
conspir
wren
##folk
confu
explod
freight
jersey
paragraph
phillips
unequal
vincent
stack
eames
abbot
brink
redeem
scann
fanatic
penetrating
impetuous
compress
bait
molly
spun
jake
grub
plight
bland
prosper
disconcert
baptism
indebted
mushroom
nelson
obstinac
ominous
sweetheart
vapour
willoughby
anthony
martial
deceit
flitt
unselfish
unaware
destructive
stony
weird
indoor
zone
stow
bah
wrench
boundar
deuce
plea
villa
##satisfied
apologiz
##spring
benevolent
bicycle
disobey
improper
inquisitive
irritation
pecuniar
punctual
spacious
superficial
typical
hudson
precept
wazir
susceptib
nigger
jeffrey
almah
sterling
undress
tatter
sift
##witzer
infallibl
lilie
randal
##sensible
wade
balanc
chronicle
##undry
towel
##quois
abstain
applaud
blacksmith
chocolate
constituent
courier
equipment
institute
occupant
peacock
thwart
transcend
ordain
scorch
apollo
fabric
radical
astound
jarvis
slant
plaintive
dazed
headache
conservative
sorcer
uncover
merrick
fortifi
activit
reverie
forcibl
slit
diar
loneli
electro
prodig
##corporeal
bohemia
decreas
environment
exclusion
felix
handwriting
hypnotis
nickleby
osborne
rheumati
talbot
channing
stanley
veteran
virgil
bracelet
snail
tarzan
enrich
loiter
proving
##sumptuous
vinegar
warren
corps
vacation
errant
envious
gloomi
salad
clem
##morph
designat
societ
lucki
abnormal
alexandrovitch
benevolence
bridegroom
censure
concession
ejaculate
ferdinand
insurrection
kutuzov
maurice
petticoat
refinement
smuggl
strenuous
vigour
alexandr
montoni
pulpit
zadig
dishonest
divinity
murray
ruffle
notorious
snare
mold
joking
pussy
queri
genji
salmon
stitch
gush
raid
conspirac
moderati
butterfl
absurdit
disagree
amazon
eruption
hysterical
spontaneous
theatrical
redoubl
sleigh
repast
surmise
picnic
coincidence
burglar
gyp
bulg
rumour
##animit
shovel
rescu
propertie
reluctan
dominat
psychic
evaporat
emphasiz
encircl
engrav
arbitrar
chevalier
dungeon
elastic
fragrance
frivolous
incomprehensibl
insolence
magnitude
rufford
tumbling
metaphysic
famine
brazen
relish
exhort
denzil
trigger
nibbl
cambridge
strangl
titan
hatchet
fraud
aisle
outfit
wilful
cheque
polar
tusk
communit
##zzle
purit
displac
scaffold
uplift
convulsion
fitzpiers
knob
maximilian
monica
thorndyke
bramble
vrain
kirk
cynic
defy
bleak
repell
label
mountaineer
dilat
monopol
originat
barbicane
caterpillar
commotion
confederac
eunuch
flavor
guiche
legislation
pioneer
sneak
venetian
haggard
buckingham
poyser
enact
clamor
ursu
avaric
nightmare
quilt
wring
##flower
undulat
miserabl
accura
##eference
engross
aperture
apparel
aspiration
beauchamp
elegance
enigma
forefinger
immaterial
inexpressibl
kangaroo
mazarin
merciless
milburgh
overturn
piazza
pretension
pretext
alfred
brillianc
clarence
orchestra
perverse
sidney
fantine
hubert
target
corinth
hamper
unob
evinc
morsel
extension
version
integr
modifie
##memorial
##band
inspect
draft
approbat
colleague
flannel
hurstwood
lecoq
masculine
miriam
nimble
odysse
orthodox
participat
sarcastic
squadron
morbid
imperious
antonia
texa
offense
brenda
winterbourne
duncan
sedley
sprawl
ramble
indulgent
corneli
undu
shrunk
abject
anecdote
benjamin
dialogue
disinterested
eclipse
equivalent
kadok
kenwigs
mercury
mitchell
reginald
stevens
sylvie
stupef
veranda
carthage
implement
propensit
chunk
currant
pervad
fergus
myriad
hereditar
tinkl
bartle
censor
horrifi
impenetrabl
inexplicabl
intrinsic
jacques
predecessor
saviour
scrupulous
tebrick
client
mortimer
coronel
degenerat
prowess
epistle
bewitch
scope
austin
mortification
straggl
teddy
initial
alban
##bourne
forecast
croak
donald
grigg
mustache
tortur
desperat
abat
burrow
armstrong
conniston
desolation
harrington
insufficient
intuition
nekhludoff
repugnan
crevice
whig
futile
massacre
plunging
horde
gloss
snub
ravag
shaving
bingley
mutin
remedie
retrac
civilit
frederic
wriggl
inscrib
perturb
skirmish
apprentice
aristotle
chipmunk
elphick
expanse
imperceptibl
jervis
miniature
mukoki
romola
##metheus
artifice
barrack
chamberlain
expend
smack
unchange
gretel
clavering
rhod
armand
install
burgund
##aples
strawberr
nothin
##kansa
##stock
boulder
compensation
impertinent
inexperience
irritabl
junction
pamphlet
rouletabille
screech
sojourn
telescope
transgress
rebuke
goblin
knave
brigand
recipe
ebb
patrol
augment
precisi
huntsman
exterior
frigate
poult
roost
presty
missouri
morrel
dependenc
cataract
conclusive
demeanour
diligence
diligent
embracing
outburst
perpendicular
photoplay
presbyterian
semblance
servadac
terrify
unearth
valancourt
eugene
giddy
wuz
colbert
stork
cowboy
migrat
magpie
unmov
durrance
collins
forfeit
deign
beetle
metallic
helium
pensive
enmit
concede
weave
##disturbed
fuzz
accost
bruno
convulsive
crocodile
deception
galahad
hoopdriver
instantaneous
reinforcement
wharf
dubious
lufton
parchment
chemist
commencement
rosemary
wyat
qualifie
impend
josie
tartar
disappoint
##sought
hydro
bayonet
cornwall
depict
edifice
flavour
fyodorovitch
hurrah
inconvenient
jerome
newcomer
remonstrat
subscrib
wardrobe
clamour
decency
dundee
thirtie
smol
gutter
bawl
musketeer
dissent
authoriz
historic
##polis
arrogan
abolition
benefactor
berwin
deserving
elliot
galloway
grammar
grumbling
harrow
imploring
malignant
militia
obliterat
relinquish
sabbath
savour
bourgeois
flounder
wherewith
barrister
marchioness
pauper
vivaci
audacit
nottingham
scalp
carleton
proffer
fumbl
vassal
prevalen
yarn
provocati
harass
grappl
complication
frolic
charitabl
devoi
compris
squint
thigh
trudg
architect
columb
emancipat
seclud
accomplice
acquisition
alexandrovna
avalanche
blasphem
dejected
disfigur
dishonour
dizzy
libertie
mordaunt
splinter
klaus
whereabout
delegate
furrow
sanctuar
devastat
lydia
counsellor
humbug
southwest
corral
chord
domain
shod
subterrane
matern
estra
preoccup
battalion
commonwealth
delirium
hurricane
misgiving
qualification
submissive
unsuccessful
vagabond
gesticulat
glut
lizard
supplement
unfair
urban
mattress
damasc
mountjoy
quarry
melbury
craving
mortar
aloof
carving
unarm
johnnie
##rpool
huddl
influen
anniversar
authentic
connexion
exasperate
leopold
maxwell
pavilion
peddler
unquestionabl
wharton
appeas
focus
psalm
sunbeam
##uccio
embass
raffle
saunter
billiard
councillor
grabb
envoy
deacon
furtive
mellow
tolerate
##risen
rehears
arkadyevitch
cerebral
extravagance
improbabl
infidel
ivanovna
minstrel
mistrust
murphy
programme
resurrection
ronald
shahrazad
shimerda
shipwreck
sidewalk
sophia
submerg
superstitious
torpenhow
reuben
sawdust
slamm
inclos
overhang
penrod
orlando
depot
blond
grizzl
numb
mechanic
semyon
affront
armchair
bonaparte
gwendolen
humphrey
paternal
plausibl
recount
sluggish
smelt
stumbling
thoracic
turmoil
yosemite
ignomin
anoint
kennel
wield
golf
amateur
cleav
taint
crutch
graft
appropriat
trinit
bibl
animosit
berengaria
commodit
crosbie
dialect
drench
efficac
immeasurabl
implacabl
languish
lloyd
mulligan
pavlovna
philanthrop
sphinx
symphon
unspeakabl
charcoal
dublin
extort
ernest
preface
emblem
recreation
bounderby
hovel
ordeal
vertical
patricia
debray
parasol
exterminat
perkins
historie
derisi
##elain
##powder
##breast
discomfit
accompaniment
apprehensive
captivat
cavalcanti
complacent
glug
hypocris
incomparabl
interchange
invincible
ostensibl
rampart
relentless
shrivel
tribunal
vicomte
vindicat
bristol
clipp
fastidious
hindrance
reflex
transition
iniquit
campbell
chieftain
woozy
testify
rosalie
sierra
tremor
cherrie
partisan
auction
bridal
zeus
eliminat
oracle
scald
treatise
dimpl
##world
chiltern
conciliat
fyodor
impertinence
nathaniel
perspective
physiolog
profusion
raskolnikov
standpoint
thermometer
varnish
wilcox
jefferson
mislead
flipp
intrust
saucepan
lagoon
twain
plait
gulp
gopher
fetter
##throp
fatigu
##grown
superintend
borlsover
buddhis
certificate
culprit
dejection
deprav
disconsolate
forefather
gascoyne
imprint
inadequate
inequalit
innovation
nutmeg
ordinance
recompense
refract
sculptor
unconcern
chaplain
dessert
peninsula
profile
freak
moraine
veloci
walnut
contagio
palliser
hydra
socket
bounty
wrapping
whimsical
ketch
fragil
stubb
thame
veritabl
venerat
##precedent
hypnotiz
peremptor
amsterdam
candlestick
capricious
cynthia
disastrous
fanciful
intricate
labyrinth
muskrat
pavlovitch
prescription
sneez
thanksgiving
theoretical
visual
westminster
wilfrid
categor
immoral
martineau
rebuil
wilmot
doorstep
pretense
##logne
droll
opulen
unexp
inhuman
utopia
lobb
dispel
unlim
feroci
##rbace
##bank
relaps
baptist
cleft
climax
crescent
disobedien
geometr
geronimo
gurgl
hypocrite
imminent
kennicott
municipal
octavia
paradox
populous
presumption
prosecutor
romayne
seclusion
shopkeeper
suffolk
intersect
naomi
patriarch
theodora
wrestle
razor
consort
reptile
arduous
fleming
redmain
germain
feversham
inherent
scull
tacit
vernon
ebon
actuat
egoist
grimace
##terior
mytholog
constanc
slav
agreeabl
rebellio
coincide
infinit
encroach
aggravat
assimilat
catalogue
custod
distemper
florida
infamous
innkeeper
judicious
premature
provoking
stupendous
svidrigailov
unceasing
vouchsaf
witchcraft
cecily
fernand
winterborne
promontor
refut
vestige
cloister
ganem
bacch
slab
demure
northwest
giggl
carniv
tapestr
##traddle
##sprit
tempora
mutilat
adjutant
bailiff
blister
brigitte
competitor
duplic
festivit
identify
injunction
inseparabl
intermediate
ludicrous
nikolay
shimmer
unaccustomed
vancouver
warburton
citoyen
footnote
intercept
prussia
troph
baptiz
evolv
mosquito
sordid
swoop
efface
pooh
artisan
darnay
mattie
endanger
minnie
jorda
teapot
spiral
ballast
pounc
bounc
##summer
shrug
yank
discredit
arithmetic
auditor
drought
extricat
grandpapa
impostor
incoherent
inconsistent
marjorie
noirtier
philistine
rapturous
reminiscence
submarine
symmetr
unfamiliar
unimportan
victual
distaste
sausage
adverse
dishonor
scoff
buddha
cadet
sceptic
analyz
snip
potato
##responsive
approximat
baltimore
collision
darrow
dishearten
foreboding
hammock
implicit
juncture
langmore
metaphor
metropolis
multiply
phoenician
pinnacle
preposterous
reassuring
sarcasm
straightforward
terrestrial
uninterest
yvonne
deprecat
lunatic
egotis
tennessee
thurston
knoll
garnish
sergey
utiliz
enhanc
saturat
##notice
suprem
conceivabl
##prudence
##compromising
baxter
blizzard
calendar
concrete
confederation
diffiden
geoffrey
gluck
illinois
jessica
nuisance
pamela
peloponnes
prerogative
sensual
unavoidabl
vampire
vindictive
vulture
fissure
friction
thrush
triangle
meditative
bailey
jovial
slash
soviet
crocker
disengag
chirp
