#version: 0.2
Ġ t
Ġ a
h e
i n
r e
o n
Ġt he
e r
Ġ s
a t
Ġ w
Ġ o
e n
Ġ c
i t
i s
a n
o r
e s
Ġ b
e d
Ġ f
in g
Ġ p
o u
Ġa n
a l
a r
Ġt o
Ġ m
Ġo f
Ġ in
Ġ d
Ġ h
Ġan d
i c
a s
l e
Ġt h
i on
o m
l l
en t
Ġ n
Ġ l
s t
Ġ re
v e
Ġ e
r o
l y
Ġb e
Ġ g
Ġ T
c t
Ġ S
i d
o t
Ġ I
u t
e t
Ġ A
Ġ is
Ġ on
i m
a m
o w
a y
a d
s e
Ġth at
Ġ C
i g
Ġf or
a c
Ġ y
v er
u r
Ġ u
l d
Ġs t
Ġ M
' s
Ġ he
Ġ it
at ion
it h
i r
c e
Ġy ou
i l
Ġ B
Ġw h
o l
Ġ P
Ġw ith
Ġ 1
t er
c h
Ġa s
Ġw e
Ġ (
n d
i ll
Ġ D
i f
Ġ 2
a g
er s
k e
Ġ "
Ġ H
e m
Ġc on
Ġ W
Ġ R
he r
Ġw as
Ġ r
o d
Ġ F
u l
at e
Ġa t
r i
p p
o re
ĠT he
Ġs e
u s
Ġp ro
Ġh a
u m
Ġa re
Ġd e
a in
an d
Ġo r
ig h
es t
is t
a b
r om
Ġ N
t h
Ġc om
Ġ G
u n
o p
0 0
Ġ L
Ġn ot
es s
Ġe x
Ġ v
re s
Ġ E
e w
it y
an t
Ġb y
e l
o s
or t
o c
q u
Ġf rom
Ġha ve
Ġs u
i ve
ou ld
Ġs h
Ġth is
n t
r a
p e
igh t
ar t
m ent
Ġa l
u st
en d
- -
al l
Ġ O
ac k
Ġc h
Ġ le
i es
re d
ar d
â Ģ
ou t
Ġ J
Ġa b
e ar
i v
al ly
ou r
o st
g h
p t
Ġp l
as t
Ġc an
a k
om e
u d
T he
Ġh is
Ġd o
Ġg o
Ġh as
g e
' t
Ġ U
r ou
Ġs a
Ġ j
Ġb ut
Ġw or
Ġa ll
e ct
Ġ k
am e
Ġw ill
o k
Ġw he
Ġthe y
id e
0 1
f f
ic h
p l
t her
Ġt r
. .
Ġin t
i e
u re
ag e
Ġn e
i al
a p
in e
ic e
Ġm e
Ġo ut
an s
on e
on g
ion s
Ġwh o
Ġ K
Ġu p
Ġthe ir
Ġa d
Ġ 3
Ġu s
at ed
ou s
Ġm ore
u e
o g
ĠS t
in d
i ke
Ġs o
im e
p er
. "
b er
i z
a ct
Ġon e
Ġsa id
Ġ -
a re
Ġyou r
c c
ĠT h
Ġc l
e p
a ke
ab le
i p
Ġcon t
Ġwh ich
i a
Ġ im
Ġab out
Ġwe re
ver y
u b
Ġh ad
Ġ en
Ġcom p
, "
ĠI n
Ġu n
Ġa g
i re
ac e
a u
ar y
Ġw ould
as s
r y
Ġ âĢ
c l
o ok
e re
s o
Ġ V
ig n
i b
Ġof f
Ġt e
v en
Ġ Y
i le
o se
it e
or m
Ġ2 01
Ġre s
Ġm an
Ġp er
Ġo ther
or d
ul t
Ġbe en
Ġl ike
as e
an ce
k s
ay s
ow n
en ce
Ġd is
ct ion
Ġan y
Ġa pp
Ġs p
in t
res s
ation s
a il
Ġ 4
ic al
Ġthe m
Ġhe r
ou nt
ĠC h
Ġa r
Ġ if
Ġthe re
Ġp e
Ġy ear
a v
Ġm y
Ġs ome
Ġwhe n
ou gh
ac h
Ġth an
r u
on d
ic k
Ġo ver
ve l
Ġ qu
Ċ Ċ
Ġs c
re at
re e
ĠI t
ou nd
p ort
Ġal so
Ġp art
f ter
Ġk n
Ġbe c
Ġt ime
en s
Ġ 5
op le
Ġwh at
Ġn o
d u
m er
an g
Ġn ew
-- --
Ġg et
or y
it ion
ing s
Ġj ust
Ġint o
Ġ 0
ent s
o ve
t e
Ġpe ople
Ġp re
Ġit s
Ġre c
Ġt w
i an
ir st
ar k
or s
Ġwor k
ad e
o b
Ġs he
Ġo ur
w n
in k
l ic
Ġ1 9
ĠH e
is h
nd er
au se
Ġh im
on s
Ġ [
Ġ ro
f orm
i ld
at es
ver s
Ġon ly
o ll
Ġs pe
c k
e ll
am p
Ġa cc
Ġb l
i ous
ur n
f t
o od
Ġh ow
he d
Ġ '
Ġa fter
a w
Ġat t
o v
n e
Ġpl ay
er v
ic t
Ġc ould
it t
Ġa m
Ġf irst
Ġ 6
Ġa ct
Ġ $
e c
h ing
u al
u ll
Ġcom m
o y
o ld
c es
at er
Ġf e
Ġbe t
w e
if f
Ġtw o
oc k
Ġb ack
) .
id ent
Ġu nder
rou gh
se l
x t
Ġm ay
rou nd
Ġp o
p h
is s
Ġd es
Ġm ost
Ġd id
Ġad d
j ect
Ġin c
f ore
Ġp ol
on t
Ġag ain
cl ud
ter n
Ġkn ow
Ġne ed
Ġcon s
Ġc o
Ġ .
Ġw ant
Ġse e
Ġ 7
n ing
i ew
ĠTh is
c ed
Ġe ven
Ġin d
t y
ĠW e
at h
Ġthe se
Ġp r
Ġu se
Ġbec ause
Ġf l
n g
Ġn ow
ĠâĢ ĵ
c om
is e
Ġm ake
Ġthe n
ow er
Ġe very
ĠU n
Ġse c
os s
u ch
Ġe m
Ġ =
ĠR e
i ed
r it
Ġin v
le ct
Ġsu pp
at ing
Ġl ook
m an
pe ct
Ġ 8
ro w
Ġb u
Ġwhe re
if ic
Ġyear s
i ly
Ġd iff
Ġsh ould
Ġre m
T h
I n
Ġe v
d ay
' re
ri b
Ġre l
s s
Ġde f
Ġr ight
Ġs y
) ,
l es
00 0
he n
Ġth rough
ĠT r
_ _
Ġw ay
Ġd on
Ġ ,
Ġ1 0
as ed
Ġas s
ub lic
Ġre g
ĠA nd
i x
Ġ very
Ġin clud
ot her
Ġim p
ot h
Ġsu b
ĠâĢ Ķ
Ġbe ing
ar g
ĠW h
= =
ib le
Ġdo es
an ge
r am
Ġ 9
er t
p s
it ed
ation al
Ġb r
Ġd own
Ġman y
ak ing
Ġc all
ur ing
it ies
Ġp h
ic s
al s
Ġde c
at ive
en er
Ġbe fore
il ity
Ġwe ll
Ġm uch
ers on
Ġth ose
Ġsu ch
Ġ ke
Ġ end
ĠB ut
as on
t ing
Ġl ong
e f
Ġth ink
y s
Ġbe l
Ġs m
it s
a x
Ġo wn
Ġpro v
Ġs et
if e
ment s
b le
w ard
Ġsh ow
Ġp res
m s
om et
Ġo b
Ġs ay
ĠS h
t s
f ul
Ġe ff
Ġg u
Ġin st
u nd
re n
c ess
Ġ ent
ĠY ou
Ġgo od
Ġst art
in ce
Ġm ade
t t
st em
ol og
u p
Ġ |
um p
Ġhe l
ver n
ul ar
u ally
Ġa c
Ġm on
Ġl ast
Ġ2 00
1 0
Ġst ud
u res
ĠA r
sel f
ar s
mer ic
u es
c y
Ġm in
oll ow
Ġc ol
i o
Ġm od
Ġc ount
ĠC om
he s
Ġf in
a ir
i er
âĢ Ķ
re ad
an k
at ch
e ver
Ġst r
Ġpo int
or k
ĠN ew
Ġs ur
o ol
al k
em ent
Ġus ed
ra ct
we en
Ġs ame
ou n
ĠA l
c i
Ġdiff ere
Ġwh ile
---- ----
Ġg ame
ce pt
Ġs im
.. .
Ġin ter
e k
Ġre port
Ġpro du
Ġst ill
l ed
a h
Ġhe re
Ġwor ld
Ġth ough
Ġn um
ar ch
im es
al e
ĠS e
ĠI f
/ /
ĠL e
Ġre t
Ġre f
Ġtr ans
n er
ut ion
ter s
Ġt ake
ĠC l
Ġcon f
w ay
a ve
Ġgo ing
Ġs l
u g
ĠA meric
Ġspe c
Ġh and
Ġbet ween
ist s
ĠD e
o ot
I t
Ġe ar
Ġagain st
Ġh igh
g an
a z
at her
Ġex p
Ġo p
Ġin s
Ġg r
Ġhel p
Ġre qu
et s
in s
ĠP ro
is m
Ġf ound
l and
at a
us s
am es
Ġp erson
Ġg reat
p r
Ġs ign
ĠA n
' ve
Ġs omet
Ġs er
h ip
Ġr un
Ġ :
Ġt er
ire ct
Ġf ollow
Ġd et
ic es
Ġf ind
1 2
Ġm em
Ġc r
e red
e x
Ġex t
ut h
en se
c o
Ġte am
v ing
ou se
as h
at t
v ed
Ġsy stem
ĠA s
d er
iv es
m in
Ġle ad
ĠB l
c ent
Ġa round
Ġgo vern
Ġc ur
vel op
an y
Ġc our
al th
ag es
iz e
Ġc ar
od e
Ġl aw
Ġre ad
' m
c on
Ġre al
Ġsupp ort
Ġ1 2
.. ..
Ġre ally
n ess
Ġf act
Ġd ay
Ġb oth
y ing
Ġs erv
ĠF or
Ġth ree
Ġw om
Ġm ed
od y
ĠThe y
5 0
Ġex per
t on
Ġe ach
ak es
Ġc he
Ġc re
in es
Ġre p
1 9
g g
ill ion
Ġg rou
ut e
i k
W e
g et
E R
Ġm et
Ġs ays
o x
Ġd uring
er n
iz ed
a red
Ġf am
ic ally
Ġha pp
ĠI s
Ġch ar
m ed
v ent
Ġg ener
i ent
p le
i et
re nt
1 1
v es
pt ion
Ġ2 0
form ation
Ġc or
Ġoff ic
ie ld
Ġto o
is ion
Ġin f
Ġ Z
t he
o ad
Ġp ublic
Ġpro g
r ic
* *
Ġw ar
Ġp ower
v iew
Ġf ew
Ġl oc
Ġdiffere nt
Ġst ate
Ġhe ad
' ll
Ġp oss
Ġst at
re t
ant s
Ġv al
Ġis s
Ġc le
i vers
an c
Ġex pl
Ġan other
Ġ Q
Ġa v
th ing
n ce
W h
Ġch ild
Ġs ince
i red
l ess
Ġl ife
Ġde velop
itt le
Ġde p
Ġp ass
ã ĥ
Ġt urn
or n
Th is
b ers
ro ss
ĠA d
Ġf r
Ġres p
Ġsec ond
o h
Ġ /
Ġdis c
Ġ &
Ġsomet hing
Ġcomp le
Ġ ed
Ġf il
Ġmon th
a j
u c
Ġgovern ment
Ġwith out
Ġle g
Ġd ist
Ġp ut
Ġqu est
an n
Ġpro t
2 0
Ġne ver
i ence
Ġle vel
Ġar t
Ġth ings
Ġm ight
Ġeff ect
Ġcont ro
Ġc ent
Ġ1 8
Ġall ow
Ġbel ie
ch ool
ot t
Ġinc re
Ġfe el
Ġres ult
Ġl ot
Ġf un
ot e
Ġt y
ere st
Ġcont in
Ġus ing
Ġb ig
2 01
Ġas k
Ġb est
Ġ )
I N
Ġo pp
3 0
Ġnum ber
in ess
S t
le ase
Ġc a
Ġm ust
Ġd irect
Ġg l
Ġ <
Ġop en
Ġp ost
Ġcom e
Ġse em
ord ing
Ġwe ek
ate ly
it al
Ġe l
ri end
Ġf ar
Ġt ra
in al
Ġp ri
ĠU S
Ġpl ace
Ġfor m
Ġto ld
" :
ain s
at ure
ĠTr ump
Ġst and
Ġ #
id er
ĠF r
Ġne xt
Ġs oc
Ġp ur
Ġle t
Ġl ittle
Ġh um
Ġ i
r on
1 5
Ġ1 5
Ġcomm un
Ġm ark
ĠThe re
Ġw r
ĠTh at
Ġin formation
w ays
Ġb us
a pp
Ġinv est
m e
Ġh ard
ain ed
e ad
Ġim port
Ġapp ro
Ġt est
Ġt ri
Ġre st
os ed
Ġf ull
Ġc are
ĠS p
Ġc ase
O N
Ġs k
Ġl ess
Ġ +
Ġpart ic
ĠP l
ab ly
u ck
is hed
ch n
b e
Ġl ist
at or
Ġto p
Ġad v
ĠB e
ru ct
Ġd em
r ation
l ing
g y
re en
g er
Ġh ome
Ġle ft
Ġbet ter
Ġd ata
Ġ1 1
Ġatt ack
Ġpro ble
l ine
ard s
Ġbe h
r al
ĠH ow
ĠS he
ar ge
Ġ --
: //
Ġb ro
ĠP h
at s
Ġbu ild
w w
id ed
a im
as es
en cy
Ġm ain
in ed
Ġinclud ing
Ġ {
Ġg ot
Ġint erest
Ġke ep
Ġ X
Ġe as
ain ing
Ġcl ass
âĢ ¦
ĠN o
Ġv ar
Ġsm all
amp le
A T
Ġ ide
ĠS o
Ġre ce
Ġpol it
Ġm ov
Ġpl an
Ġper cent
iv ing
Ġc amp
Ġp ay
1 4
s c
is ed
Ġu nt
one y
pl oy
== ==
Ġdid n
ĠI nd
el s
ert ain
Ġp os
__ __
i ver
Ġpro cess
Ġprog ram
if ied
ĠR ep
1 6
u ro
olog y
at ter
in a
Ġn ame
ĠA ll
Ġf our
Ġret urn
v ious
b s
Ġcall ed
Ġm ove
ĠS c
ir d
Ġgrou p
Ġb re
Ġm en
Ġc ap
t en
e e
Ġd ri
le g
he re
uth or
Ġp at
Ġcur rent
id es
Ġp op
t o
ent ion
Ġal ways
Ġm il
Ġwom en
Ġ1 6
Ġo ld
iv en
ra ph
ĠO r
r or
ent ly
Ġn ear
ĠE x
re am
s h
Ġ1 4
Ġf ree
iss ion
st and
ĠC on
al ity
us ed
1 3
Ġdes ign
Ġch ange
Ġch ang
Ġb o
Ġv is
em ber
Ġb ook
read y
Ġk ill
2 5
pp ed
Ġa way
Ġab le
Ġcount ry
Ġcon st
ar n
Ġor der
A R
i or
i um
or th
1 8
ail able
Ġs w
Ġm illion
Ġ1 3
at ic
t ed
ĠG o
Ġo per
en g
Ġth ing
aj or
con om
ĠCom m
Ġwh y
u red
ur al
Ġs chool
b y
ĠM ar
Ġa ff
Ġd ays
Ġan n
us h
an e
I f
e g
Ġpro f
Ġhe alth
ou th
B ut
ion al
. ,
Ġs ol
Ġal ready
Ġ3 0
Ġchar act
H e
Ġf riend
E S
i ans
ic le
' d
ĠO n
Ġle ast
Ġp rom
Ġd r
Ġh ist
it her
Ġ est
i qu
1 7
s on
Ġte ll
Ġt alk
oh n
o int
le ction
A N
Ġunt il
au gh
Ġl ater
Ġ ve
Ġv iew
end ing
iv ed
Ġwor d
w are
Ġc ost
Ġen ough
Ġg ive
ĠUn ited
Ġte chn
are nt
O R
Ġp ar
ĠD r
Ġ201 6
r ist
er ing
Ġ Â
Ġl arge
s ide
ac y
cc ess
Ġw in
Ġimport ant
Ġ19 9
Ġdoes n
Ġ1 7
Ġbus iness
Ġcle ar
Ġre se
" ,
ur y
Ġe qu
as ter
al f
ĠAmeric an
n ect
Ġex pect
ivers ity
Ġo cc
ĠF l
Ġk ind
Ġme an
Ġp ast
Ġde v
Ġb as
le t
ra ft
Ġor gan
Ġde l
Ġper form
Ġst ory
Ġse ason
ĠC ol
Ġcl aim
Ġc ame
Ġwith in
Ġl ine
Ġpro ject
ĠA t
Ġcontro l
end ed
ĠS y
Ġa ir
iz ation
Ġ *
le y
Ġm oney
id d
Y ou
f or
Ġfam ily
Ġm aking
Ġb it
Ġpol ice
Ġhapp en
Ġ vers
on y
u ff
ĠW hen
Ġs it
ide o
l f
is on
Ġsu re
g in
Ġapp ear
Ġl ight
Ġ es
o f
Ġw ater
Ġt imes
n ot
Ġg row
Ġcomp any
ĠT e
ow s
Ġm ar
our ce
i ol
ar m
b r
Ġex ample
Ġcon c
Ġf ore
ĠT o
p ro
E N
ri es
Ġ2 5
ĠC an
ne y
Ġact ually
Ġe ver
ur ity
ak en
ap s
Ġt ax
Ġm ajor
am a
Ġof ten
er al
Ġhum an
Ġj ob
is ter
Ġav ailable
oc r
en n
a id
iv id
Ġrec ord
? "
Ġs ing
ĠA m
id ence
Ġnew s
st er
Ġe conom
Ġfollow ing
ĠB r
is ing
Ġh our
m ost
um ent
Ġse x
Ġdes c
Ġbec ome
ĠE d
Ġto ok
Ġha ving
Ġprodu ct
a ult
A s
ar ing
Ġme ans
Ġh op
un e
Ġch o
Ġc ertain
Ġn on
Ġde al
2 4
le ment
oc i
en e
Ġs ide
ĠP r
ĠM ay
Ġre ason
u ed
c hed
ul ation
Ġe lect
Ġoffic ial
Ġposs ible
Ġh old
and s
ot s
Ġc ity
or ies
Ġse ver
Ġchild ren
Ġon ce
Ġact iv
l er
Ġn ight
it ions
ĠJ ohn
a pe
pl ay
Ġd one
Ġl im
Ġwork ing
ĠP res
or ld
e b
ĠC o
Ġb ody
ail s
ut es
ĠM r
Ġwhe ther
Ġa uthor
ro p
Ġpro per
Ġse en
) ;
Ġf ac
ĠS u
Ġcon d
it ing
Ġcour se
Ġ }
-------- --------
a ign
Ġev ent
Ġen g
Ġp ot
Ġin tern
i am
Ġsh ort
em pt
ã Ĥ
ĠG od
il ar
8 0
Ġor ig
I S
our n
ab ility
it ive
Ġd am
Ġ1 00
Ġp ress
Ġdo ing
Ġprot ect
r ing
Ġthough t
Ġquest ion
re w
ĠW ar
Ġsever al
ĠSt ate
Ġg iven
Ġf und
ĠT w
Ġw ent
an ces
w ork
p or
m y
4 0
Ġar g
art ment
ust om
Ġpol ic
Ġme et
Ġc reat
2 2
ĠSt ates
Ġg ames
ra w
ut ure
Ġunder stand
ur s
ĠO b
l ish
s y
Ġm akes
Ġw on
ag on
Ġh tt
Ġl ove
ent ial
Ġcomple te
p ar
ĠI m
A L
Ġacc ount
Â ł
ore d
ver t
Ġ ident
Ġ201 5
Ġother s
ĠM in
i ber
ver age
The re
ition al
d d
Ġpro b
Ġyou ng
Ġal ong
Ġacc ording
Ġy et
Ġmem bers
ĠWh at
o id
ĠM an
A nd
Ġam ong
a i
Ġem ploy
ĠR es
Ġ >
Ġinv ol
Ġl ow
a f
ĠC ar
Ġh ig
ĠO ne
ĠS ec
in ation
Ġlike ly
Ġan t
ag ed
ĠR uss
Ġb en
Ġre le
F or
b ack
ĠN ot
Ġpres ident
b all
Ġacc ess
ivid ual
ĠD em
ĠE uro
6 0
Ġkn own
ir l
ĠG r
Ġear ly
u se
iet y
âĢ ĵ
Ġf ight
Ġs ent
Ġto day
Ġmark et
" .
Ġb ased
Ġstr ong
ur ther
Ġde b
m ber
Ġproble m
Ġde ath
Ġsoc ial
im ate
A S
ort un
Ġcamp aign
er y
C h
Ġe y
i ally
Ġm us
w h
p os
Ġ er
Ġsa f
Ġmonth s
ir on
Ġv iol
Ġf ive
Ġst re
Ġplay ers
in c
al d
y ear
a un
Ġsu ccess
Ġpres ent
ere nce
Ġ201 4
Ġsu gg
Ġpartic ular
Ġtr y
Ġsugg est
ĠCh rist
on es
Ġpri v
2 3
Ġc rit
Ġl and
Ġloc al
if y
2 9
Ġa ut
E D
ĠG u
Ġm ult
Ġpolit ical
Ġask ed
Ġfor mer
it ter
ri pt
Ġcl ose
Ġp ract
ĠY ork
Ġget ting
Ġac ross
Ġcom b
Ġbelie ve
Ġ z
Ġto get
Ġtoget her
ĠC ent
ir c
Ġind ividual
ĠM c
2 7
is k
ĠE ng
Ġf ace
Ġ2 4
Ġval ue
Ġare a
e v
Ġw rit
ĠPres ident
Ġv ot
Ġke y
Ġm om
p ut
Ġany thing
Ġexper ience
att le
Ġm ind
a ff
om m
Ġf uture
g ed
Ġc ut
Ġto t
it ch
Ġv ideo
Ġinvest ig
Ġn et
ĠM y
r ict
i en
. )
Ġimp ro
th ough
ward s
Ġcon nect
ĠM ed
sel ves
ens ive
m b
o ber
at ors
A n
Ġ5 0
Ġre du
res ent
Ġab ove
Ġf re
ĠEuro pe
s w
Ġam ount
ĠA pp
Ġe ither
Ġmil it
Ġan al
Ġf ail
ĠE n
al es
Ġspec ial
Ġbl ack
I T
c her
Ġlook ing
Ġf ire
y n
Ġal most
o on
Ġstud y
Ġm iss
c hes
ro wn
Ġt re
Ġcommun ity
Ġmed ia
Ġf ood
Ġcom es
ĠUn iversity
Ġsing le
Wh at
u ly
Ġh alf
ag ue
h od
ĠRep ublic
Ġstart ed
Ġqu ick
ot o
b ook
Ġiss ue
it or
Ġel se
Ġcons ider
2 6
ro du
Ġt aken
2 8
9 9
ĠW ith
Ġtr ue
Ġw a
Ġtr ad
Ġag o
Ġm ess
ie f
Ġadd ed
o ke
Ġb ad
Ġf av
3 3
Ġsim ilar
as k
ĠD on
Ġcharact er
ort s
ĠH ouse
Ġreport ed
Ġty pe
v al
i od
ĠHow ever
Ġt arg
Ġent ire
pp ing
Ġhist ory
Ġl ive
ff ic
.... ....
ed eral
Ġtr ying
Ġdisc uss
ĠH ar
ac es
l ished
Ġse lf
os p
re st
Ġro om
el t
Ġf all
ol ution
Ġe t
Ġ x
Ġis n
Ġide a
b o
Ġs ound
ĠD ep
Ġsome one
ci ally
ull y
Ġf oc
Ġob ject
if t
ap er
Ġplay er
Ġr ather
Ġserv ice
as hing
ĠD o
ĠP art
ru g
m on
p ly
Ġm or
Ġnot hing
Ġprov ide
I C
un g
Ġpart y
Ġex ist
Ġm ag
7 0
Ġr ul
Ġh ouse
Ġbeh ind
Ġhow ever
ĠW orld
Ġs um
Ġapp lic
Ġ ;
Ġfun ction
g r
ĠP ol
Ġfr ont
2 00
Ġser ies
Ġt em
Ġty p
ill s
Ġo pt
Ġpoint s
Ġbel ow
itt ed
Ġspec ific
Ġ201 7
um b
Ġr a
Ġpre vious
Ġpre t
re me
Ġc ustom
Ġcour t
ĠM e
Ġre pl
Ġwho le
g o
c er
Ġt reat
ĠA ct
Ġprob ably
Ġle arn
end er
ĠA ss
Ġvers ion
n ow
Ġche ck
ĠC al
R E
min ist
O n
our ces
Ġben ef
Ġd oc
Ġdet er
Ġen c
Ġsu per
Ġadd ress
Ġv ict
Ġ201 3
Ġme as
t r
Ġf ield
W hen
Ġsign ific
u ge
Ġfe at
Ġcomm on
l oad
Ġbe gin
Ġbr ing
Ġa ction
er man
Ġdesc rib
Ġind ust
Ġwant ed
ri ed
m ing
Ġatt empt
4 5
f er
Ġd ue
ress ion
# #
Ġsh all
Ġs ix
o o
Ġst ep
Ġp ub
Ġhim self
Ġ2 3
Ġc op
Ġd est
Ġst op
A C
ib ility
Ġl ab
ic ult
Ġhour s
Ġcre ate
Ġf urther
ĠAmeric a
ĠC ity
Ġd ou
he ad
S T
ĠN orth
c ing
Ġn ational
u le
ĠIn st
Ġt aking
ĠQ u
ir t
Ġre d
Ġrese arch
v iron
ĠG e
Ġbre ak
an a
Ġsp ace
ater ial
Ġrec ent
ĠA b
Ġgener al
Ġh it
Ġper iod
Ġevery thing
ive ly
Ġph ys
Ġsay ing
an ks
Ġc ou
Ġc ult
ac ed
e al
u ation
Ġc oun
l u
Ġinclud e
Ġpos ition
ĠA fter
ĠCan ad
ĠE m
Ġim m
ĠR ed
Ġp ick
Ġcom pl
Ġm atter
re g
e xt
ang u
is c
o le
a ut
Ġcomp et
e ed
f ect
Ġ2 1
ĠS en
ĠThe se
as ing
Ġcan not
Ġin it
Ġrel ations
ac hed
Ġb ar
Ġ4 0
ĠT H
Ġ201 2
Ġv ol
Ġg round
Ġsec urity
Ġup d
il t
3 5
Ġconc ern
ĠJ ust
Ġwh ite
Ġseem s
ĠH er
pe cially
i ents
Ġann oun
Ġf ig
ight s
Ġst ri
l ike
id s
Ġs us
Ġw atch
Ġ â
Ġw ind
ĠC ont
Ġit self
Ġm ass
A l
y le
iqu e
ĠN ational
Ġab s
Ġp ack
Ġout side
Ġan im
Ġp ain
et er
Ġman ag
du ct
og n
Ġ ]
ĠSe pt
se c
o ff
ĠJ an
Ġf oot
ad es
Ġth ird
Ġm ot
Ġev idence
int on
Ġth reat
a pt
pl es
c le
Ġl o
Ġde cl
Ġit em
med i
Ġrep resent
om b
am er
Ġsignific ant
og raph
s u
Ġc al
i res
00 00
I D
A M
Ġsim ply
Ġlong er
Ġf ile
O T
c he
S o
ate g
or g
ĠH is
Ġen er
Ġd om
Ġup on
il i
": "
Ġthem selves
Ġcom ing
Ġqu ite
Ġdiff icult
ĠB ar
il ities
re l
end s
c ial
6 4
Ġwom an
ra p
y r
Ġne cess
ip s
Ġte xt
Ġrequ ire
Ġmilit ary
Ġre view
Ġresp ons
7 5
Ġsub ject
Ġinst ead
Ġiss ues
Ġg en
" ,"
Ġmin utes
Ġwe ap
r ay
am ed
t ime
b l
H ow
Ġc ode
ĠS m
Ġhig her
ĠSt e
r is
Ġp age
Ġstud ents
ĠIn tern
Ġmet hod
ĠA ug
ĠP er
ĠA g
Ġpolic y
ĠS w
Ġex ec
Ġac cept
um e
rib ut
Ġword s
Ġfin al
Ġchang es
ĠDem ocr
Ġfriend s
Ġres pect
Ġe p
Ġcomp an
iv il
Ġdam age
** **
og le
viron ment
Ġne g
ent al
Ġa p
Ġtot al
iv al
! "
l im
Ġneed s
Ġag re
Ġdevelop ment
Ġa ge
ip le
2 1
Ġresult s
ĠA f
S h
Ġg un
ĠOb ama
ro ll
Ġ @
Ġright s
ĠB rit
Ġrun ning
Ġwas n
Ġp ort
Ġr ate
Ġpret ty
Ġtarg et
Ġsa w
Ġc irc
Ġwor ks
ic ro
al t
o ver
ww w
Th at
l ier
Ġevery one
ud e
Ġp ie
idd le
ra el
Ġr ad
Ġbl ock
Ġw alk
T o
ã ģ
n es
ĠA ust
a ul
ro te
ĠS outh
ess ion
op h
Ġshow s
Ġs ite
Ġj o
Ġr isk
cl us
l t
Ġin j
id ing
ĠS pe
Ġch all
ir m
Ġ2 2
itt ing
st r
Ġh y
L E
ke y
Ġbe gan
at ur
ashing ton
l am
ĠD av
b it
Ġs ize
ĠP ar
3 8
ourn al
f ace
Ġdec ision
Ġl arg
Ġj ud
re ct
Ġcontin ue
ĠO ct
ove red
ĠI nt
==== ====
Ġp arent
ĠW ill
Ġeas y
Ġd rug
ang er
Ġs ense
Ġd i
id ay
Ġener gy
ist ic
Ġass oci
ar ter
ob al
e ks
ĠE l
ur ch
Ġg irl
o e
it le
Ġ2 8
ĠC he
Ġrequ est
Ġso on
Ġh ost
k y
Ġst ates
om es
Ġm aterial
le x
Ġmom ent
Ġan sw
on se
Ġes pecially
Ġn orm
Ġserv ices
p ite
r an
Ġro le
4 4
) :
Ġc red
C l
____ ____
Ġm at
Ġl og
ĠCl inton
O U
Ġoff ice
Ġ2 6
Ġch arg
Ġtr ack
m a
Ġhe art
Ġb all
Ġperson al
Ġbuild ing
n a
s et
b ody
ĠBl ack
Ġincre ase
itt en
Ġneed ed
3 6
3 2
= "
Ġl ost
Ġbec ame
Ġgrou ps
ĠM us
Ġw rote
ĠP e
Ġpro p
j oy
Ã ©
ĠWh ite
Ġde ad
. '
Ġhtt p
Ġwe bs
O S
Ġins ide
Ġwr ong
Ġstat ement
Ġ ...
y l
Ġfil m
Ġmus ic
Ġsh are
ific ation
Ġre lease
Ġfor ward
Ġst ay
Ġcomp ut
it te
s er
Ġorig inal
Ġc ard
Ġc and
Ġd iv
at ural
Ġfav or
O M
Ġc ases
us es
Ġse ction
Ġle ave
g ing
ov ed
ĠW ashington
3 9
ĠG l
Ġrequ ired
act ion
ap an
o or
it er
ĠK ing
Ġcount ries
ĠG erman
ll ing
Ġ2 7
3 4
Ġquest ions
Ġpr im
Ġc ell
Ġsh oot
Ġany one
ĠW est
Ġaff ect
ep end
Ġon line
ĠIs rael
ĠSept ember
Ġab ility
Ġcont ent
is es
Ġre ve
Ġl aun
Ġind ic
Ġfor ce
c ast
Ġso ld
av ing
f l
Ġso ft
Ġcompan ies
ce ed
Ġart icle
Ġa ud
Ġre v
Ġed uc
Ġplay ing
0 5
Ġhe ld
ct or
Ġrele ased
Ġf ederal
3 7
Ġad minist
Ġinter view
Ġinst all
Ġrece ived
Ġs ource
u k
P h
Ġser ious
Ġcre ated
Ġc ause
Ġim medi
Ġdef in
u el
ĠDep artment
ct ions
ĠC our
ĠN ow
z e
it es
it ution
Ġl ate
Ġspe ak
n ers
Ġleg al
ar i
ĠC or
Ġwe eks
Ġmod el
Ġp red
Ġex act
B C
ĠB y
IN G
os ing
Ġt akes
Ġreg ard
Ġopp ortun
Ġpr ice
Ġ19 8
ĠA pr
f ully
Ġor d
Ġproble ms
ru ction
h am
ĠC ount
le ge
Ġlead ers
E T
le v
Ġde ep
olog ical
es e
h aps
ĠS ome
Ġp ers
Ġcont ract
Ġrelations hip
s p
ou d
Ġb ase
4 8
m it
A d
anc ial
Ġcons um
Ġpot ential
Ġl angu
re m
et h
Ġrel ig
ress ed
6 6
Ġl ink
Ġl ower
ay er
ĠJ une
Ġf em
un t
er c
ur d
Ġcont act
Ġ ill
Ġm other
Ġest ab
h tt
ĠM arch
ĠB ro
ĠCh ina
Ġ2 9
Ġs qu
Ġprov ided
Ġa verage
as ons
Ġ201 1
Ġex am
l in
5 5
n ed
Ġper fect
Ġt ou
al se
u x
Ġbu y
Ġsh ot
Ġcol lect
Ġph ot
Ġplay ed
Ġsur pr
Ġofficial s
Ġsim ple
av y
Ġindust ry
Ġhand s
g round
Ġp ull
Ġr ound
Ġus er
Ġr ange
u ary
Ġpriv ate
op s
e es
Ġw ays
ĠM ich
Ġve h
Ġex cept
Ġter ms
im um
pp er
I ON
ore s
ĠDr agon
ou l
Ġd en
Ġperform ance
Ġb ill
c il
4 7
Ġen vironment
Ġex c
ad d
Ġwor th
Ġp ict
Ġch ance
Ġ201 8
b or
Ġspe ed
ict ion
Ġal leg
ĠJ apan
at ory
re et
Ġm atch
ĠI I
Ġst ru
ord er
Ġst e
Ġl iving
Ġst ruct
in o
Ġse par
her n
Ġresp onse
Ġen joy
Ġv ia
A D
um ents
ace book
Ġmem ber
ib r
iz ing
Ġto ol
ĠM on
ĠWh ile
h ood
ĠA ng
ĠD ef
Ġoff er
T r
a ur
Ġturn ed
ĠJ uly
d own
an ced
Ġrec ently
ĠE ar
Ġc e
ĠSt ar
ĠC ong
rough t
Ġbl ood
Ġhop e
Ġcom ment
ain t
Ġar ri
il es
Ġpartic ip
ough t
ri ption
0 8
4 9
Ġg ave
Ġse lect
Ġkill ed
sy ch
Ġgo es
i j
Ġc oll
Ġimp act
at ives
ĠS er
0 9
ĠAug ust
Ġb oy
d e
ĠD es
Ġf elt
U S
Ġexpect ed
Ġim age
ĠM ark
cc ording
o ice
E C
ĠM ag
en ed
h old
ĠP ost
Ġpre vent
N o
Ġinvol ved
Ġey es
Ġquick ly
A t
un k
Ġbeh av
Ġ ur
Ġl ed
c ome
e y
Ġcand id
Ġear lier
Ġfoc us
et y
P ro
led ge
ix ed
ill ed
Ġpop ular
A P
Ġset t
l ight
Ġvar ious
in ks
Ġlevel s
Ġro ad
ell ig
ab les
he l
itte e
ĠG ener
y pe
Ġhe ard
ic les
Ġm is
Ġus ers
ĠS an
Ġimpro ve
Ġf ather
Ġse arch
The y
v il
Ġprof ess
Ġkn ew
Ġl oss
Ġev ents
6 5
Ġb illion
0 7
0 2
ĠNew s
ĠA M
Ġco ver
w here
ens ion
Ġb ott
Ġare as
en ces
op e
ĠTw itter
a el
Ġget s
ĠGo ogle
Ġs n
i ant
Ġv ote
Ġnear ly
Ġinclud ed
Ġrec ogn
z z
m m
al ed
Ġhappen ed
0 4
Ġh ot
Ġwho se
Ġc ivil
Ġsu ff
o es
it iz
ĠSy ri
Ġresp ond
Ġh on
Ġfeat ures
Ġeconom ic
ĠApr il
r im
Ġtechn ology
Ġo ption
ag ing
Ġpur ch
R e
Ġl at
ch ie
is l
Ġrec omm
u f
Ġtr aining
Ġeffect s
Ġf ast
Ġ201 0
Ġocc ur
Ġwebs ite
Ġem ail
Ġs ens
e ch
Ġo il
Ġinf lu
Ġcurrent ly
ĠS ch
ĠAd d
Ġgo al
Ġsc ient
Ġcon v
1 00
em y
Ġdec ided
Ġtra vel
Ġm ention
L L
0 3
Ġe lection
Ġph one
Ġlook s
Ġsit uation
Ġc y
Ġh or
b ed
ĠCour t
a ily
av es
Ġqu ality
ĠCom p
w ise
Ġt able
Ġst aff
ĠW ind
et t
Ġtri ed
ide red
Ġadd ition
Ġb ox
Ġl ack
ar ily
Ġw ide
Ġm id
Ġbo ard
ys is
Ġant i
h a
Ġd ig
en ing
Ġd ro
C on
6 8
Ġsl ow
b ased
se qu
Ġp ath
E x
ak er
Ġwork ed
Ġp en
Ġeng ine
Ġlook ed
ĠSu per
ĠS erv
Ġvict im
U n
Ġproper ty
Ġint rodu
Ġexec ut
ĠP M
L e
Ġcol or
ĠM ore
Ġ6 0
Ġnet work
Ġd ate
c ul
id ge
Ġext ra
3 1
Ġs le
6 7
Ġw ond
Ġreport s
j ust
ĠAust ral
Ġcap ital
Ġen s
Ġcomm and
Ġallow ed
Ġpre p
Ġca pt
h ib
Ġnum bers
ch an
Ġf air
m p
om s
Ġre ach
W ith
t ain
Ġbro ad
Ġcou ple
ec ause
ly ing
ĠF eb
Ġsc reen
Ġl ives
Ġpri or
ĠCong ress
A r
Ġappro ach
Ġe mer
ar ies
ĠD is
s erv
ĠN e
Ġbu ilt
c ies
Ġre pe
Ġrul es
for ce
ĠP al
Ġfin ancial
Ġcons idered
ĠCh ar
n ces
ĠI S
Ġb rought
Ġb i
i ers
ĠS im
O P
Ġproduct s
Ġvis it
Ġdoc ument
Ġcon duct
Ġcomplete ly
in ing
ĠCal if
ib ly
Ġwr itten
ĠT V
em ents
Ġd raw
O ne
Ġpub lished
Ġsec ret
r ain
he t
ĠF acebook
ond ay
ĠU p
Ġsex ual
Ġth ous
ĠP at
Ġ ess
Ġstand ard
Ġar m
g es
ect ion
Ġf ell
Ġfore ign
an i
ĠFr iday
Ġreg ular
in ary
Ġincre ased
Ġus ually
Ġdem on
Ġd ark
Ġadd itional
ro l
ĠO f
Ġprodu ction
! !
und red
Ġintern ational
id ents
ĠF ree
rou p
Ġr ace
Ġm ach
Ġh uge
A ll
le ar
ove mber
Ġto wn
Ġatt ention
ĠO ff
y ond
ĠThe n
f ield
Ġter ror
ra z
ĠB o
Ġmeet ing
ĠP ark
Ġar rest
Ġf ear
Ġa w
ĠV al
or ing
' ,
Ġext reme
ar r
Ġwork ers
A fter
Ġ3 1
n et
am ent
Ġdirect ly
Ġpop ulation
ub e
ĠOct ober
ĠI N
ĠJan uary
5 9
ĠDav id
Ġc ross
ce mber
ĠF irst
Ġmess age
ir it
Ġn ation
Ġp oll
is ions
Ġansw er
n y
is ode
Ġcar ry
ĠRuss ia
Ġhe ar
eng th
ro y
Ġn atural
in ally
Ġdo g
m itted
Ġtr ade
Ġsub st
Ġmult iple
ĠAf ric
Ġf ans
Ġs ort
Ġgl obal
ic ation
ĠW ed
ar a
Ġa chie
Ġlangu age
ve y
Ġt al
Ġnecess ary
Ġdet ails
Ġs en
ĠS und
ĠRe g
ĠR ec
0 6
Ġs il
ress ive
Ġmed ical
un ch
orn ia
Ġu nd
f ort
oc ks
ĠM onday
ues day
c raft
7 7
ur t
Ġ ver
ĠH ill
Ġrece ive
Ġmor ning
es tern
Ġb ank
Ġs at
ir th
ĠH igh
Ġdev ice
ĠTH E
ĠCent er
Ġsaf e
Ġp le
ĠCanad a
Ġsystem s
Ġass ist
Ġsur v
Ġb attle
ĠS oc
vert is
S he
Ġp aper
Ġgrow th
Ġc ast
S c
Ġpl ans
ll ed
Ġpart s
Ġw all
Ġmove ment
Ġpract ice
im ately
Ġdis play
Ġsomet imes
om p
ĠP aul
ĠY es
k ing
5 8
o ly
Ġs on
Ġav oid
ok es
ĠJ ew
Ġto wards
as c
Ġ //
ĠK ore
Ġtalk ing
Ġcor rect
Ġsp ent
ic ks
i able
e ared
Ġter m
Ġwant s
om ing
Ġ ut
Ġdou b
Ġfor ces
Ġp lease
6 9
ĠN ovember
at form
ond on
Ġon es
Ġimmedi ately
ĠRuss ian
ĠM et
Ġde g
Ġparent s
C H
ĠAmeric ans
al y
ĠM od
Ġsh own
Ġcond itions
Ġst uff
Ġre b
ĠY our
Ġinclud es
n own
ĠS am
Ġexper ien
m ission
ĠE ven
augh t
Ġannoun ced
ĠRepublic an
Ġdeter min
Ġdescrib ed
ĠCount y
( )
Ġdo or
Ġchang ed
Ġne igh
ĠH ere
Ġcle an
Ġp an
ĠDe cember
ĠEurope an
ir ing
ap ter
Ġcl ub
ĠT uesday
Ġp aid
ĠN et
Ġattack s
Ġcharact ers
Ġal one
Ġdirect or
d om
Ġ3 5
Ġl oad
Ġr out
ĠCalif ornia
Ġfin ally
Ġr ac
Ġcont r
Ġexact ly
res h
p ri
ĠIs lam
Ġn ature
Ġcare er
Ġlat est
Ġcon vers
ĠS l
p ose
ci ent
ĠIn c
iv ity
8 8
ĠA tt
ĠM or
nes day
Ġwe ight
k en
Ġnot e
Ġteam s
Ġ \
air s
ĠG reen
Ġh undred
on ent
Ġstre ng
Ġcons ist
ic ated
Ġreg ul
Ġl ic
ast ic
Ġt en
urs day
ellig ence
ous ly
ĠU K
B I
Ġcost s
Ġind epend
ĠA P
Ġnorm al
Ġh om
Ġob vious
Ġs we
Ġst ar
Ġread y
ac her
Ġimp lement
g est
Ġs ong
ĠG et
ĠL ab
Ġinterest ing
us ing
Ġg iving
ĠSund ay
Ġet c
Ġm iddle
Ġrem ember
r ight
os ition
ut ions
Ġm ax
4 6
Ġyour self
Ġdem and
Ġtreat ment
Ġd anger
ĠC ons
Ġgu y
ĠBrit ish
Ġphys ical
Ġrel ated
Ġrem ain
Ġcould n
Ġref er
Ġc itiz
b ox
EN T
bo ard
Ġin n
I G
er o
ĠSt reet
osp ital
ren ch
cher s
Ġst ra
O L
ag er
ĠA N
Ġeas ily
I A
en ge
in y
Ġcl os
ock ed
Ġus es
ĠC oun
I m
u ild
? ?
m ore
Ġan g
Ġwr ite
ol ute
5 7
Ġlead er
Ġread ing
< /
Ġaut om
est s
4 3
Ġleg isl
ĠG old
Ġdesign ed
ĠS T
ĠLe g
a res
Ġbe aut
ĠT ex
Ġappear s
Ġstru gg
ĠR om
Ġ 00
Ġcho ice
Ġparticular ly
ĠF rom
op er
ĠL ondon
ann ed
Ġallow s
ob ile
Ġdiffere nce
âĢ ¢
ĠV iew
ĠWed nesday
Ġal though
Ġrel ative
Ġapplic ation
ate ver
Ġare n
Ġmy self
Ġim ag
Ġdis e
Ġsoc iety
Ġfre qu
ĠEng lish
Ġpo or
ĠD ay
Ġwrit ing
Ġse ven
Ġstart ing
Ġb ud
Ġpr int
ĠTr ans
uf act
ĠSt ud
n ew
Ġcr im
Ġg ives
Ġco ol
a e
i ance
ĠGener al
Ġthink ing
Ġsa ve
Ġlim ited
ĠPart y
Ġmean ing
p en
ow ers
ĠJ ack
E M
Ġn ice
ru pt
Ġg as
Ġe ight
Ġfe et
Ġeff ort
Ġ ign
ic it
B l
co in
Ġop in
Ġbr ain
Wh ile
he st
ĠTh ursday
Ġwould n
augh ter
Ġtou ch
le ments
Ġstud ies
Ġcent er
c ont
or ge
Ġcomput er
Ġinvestig ation
P l
or ks
Ġ200 8
Ġincre asing
Ġst ore
Ġcom ments
Ġb al
m en
Ġdo ll
Ġl iber
Ġw ife
Ġlaw s
atur day
it ness
Ġmod ern
ĠS k
Ġadminist ration
Ġopportun ity
Ġs al
Ġpower ful
M y
Ġclaim s
ĠEar th
ord s
Ġt itle
Ġes c
n ame
N ot
om en
Ġbe yond
Ġc amer
Ġse ll
it ute
ear ch
Ġapp l
im ent
4 2
ĠAr t
Ġun f
Ġviol ence
ur g
ĠE ast
Ġcomp ared
Ġopt ions
Ġthrough out
Ġv s
ig r
. [
ac hes
7 8
Ġfil es
F L
E L
ar ian
ĠJ ames
ĠA ir
an ch
Ġdet ail
Ġpie ce
P S
Ġn amed
Ġeduc ation
Ġdri ve
Ġitem s
Ġstud ent
ic ed
: :
ic o
Ġth row
Ġsc ene
Ġcomple x
Ġ200 9
Ġpre c
ĠB re
7 9
Ġcon cept
Ġstat us
am ing
Ġd ied
Ġknow ledge
Ġbegin ning
O D
ru ary
Ġcertain ly
Ġgu ys
Ġsl ight
in n
ound s
Ġf ine
Ġf at
ic ations
Ġper haps
ĠA nt
Ġinc ome
Ġhtt ps
Ġmajor ity
port s
st on
Ġgreat er
Ġfe ed
ent ially
Ġsaf ety
Ġun ique
and om
Ġg one
Ġshow ed
Ġhist or
Ġcoun ter
i us
id a
Ġlead ing
i pe
Ġs end
ĠDon ald
er ve
Ġdef ense
ines e
Ġy es
ĠF ire
ĠMus lim
ra q
Ġcontin ued
os h
Ġprov ides
Ġpr ison
ĠP re
Ġhapp y
Ġeconom y
Ġtr ust
ag s
ĠG ame
Ġweap ons
um an
ĠC le
it ation
Ġanal ysis
ĠT imes
Ġsc ience
- >
Ġfig ure
Ġdis app
ent y
Ġsoft ware
Ġu lt
Ġoffic ers
N ew
I s
Ġrem ains
ĠInd ia
Ġp sych
ri ef
Ġc at
es c
Ġob serv
Ġst age
ĠD ark
Ġent er
ch ange
Ġpass ed
Ġdes pite
ĠO ut
Ġmov ie
r s
Ġv oice
m ine
ĠPl ay
Ġto ward
ĠT er
Ġreg ion
Ġval ues
or ters
Ġm ount
Ġoffic er
ĠO ther
b an
Ġh ous
w ood
ro om
I V
ĠS un
se e
ĠO ver
ro g
9 0
Ġl ay
ĠT ur
a wn
Ġpress ure
ĠS ub
Ġbook s
ed om
ĠS and
A A
ag o
Ġre asons
f ord
Ġactiv ity
U T
N ow
ĠSen ate
ce ll
n ight
Ġcall s
in ter
Ġlet ter
ĠR ob
ĠJ e
Ġcho ose
ĠL aw
G et
B e
Ġro b
Ġtyp es
Ġpl atform
Ġqu arter
R A
ĠT ime
Ġmay be
ĠC r
9 5
p re
Ġmov ing
Ġl if
Ġgo ld
Ġs om
Ġpat ients
Ġtr uth
ĠK e
ur ance
ant ly
m ar
Ġchar ge
ĠG reat
Ġce le
---------------- ----------------
Ġro ck
ro id
an cy
Ġcred it
a ud
B y
ĠE very
Ġmov ed
ing er
rib ution
Ġn ames
Ġstra ight
ĠHe alth
ĠW ell
Ġfe ature
Ġr ule
Ġsc he
in ated
ĠMich ael
ber g
4 1
il ed
b and
Ġcl ick
ĠAng el
on ents
Â Ń
ĠI raq
ĠS aturday
Ġa ware
p art
Ġpat tern
O W
ĠL et
Ġgr ad
ign ed
Ġassoci ated
Ġst yle
n o
i ation
a ith
il ies
Ġst ories
ur ation
Ġindividual s
ĠâĢ ¦
m iss
ĠAss oci
ish ing
ab y
Ġsum mer
ĠB en
Ġ3 2
Ġar ch
ut y
ĠTex as
h ol
Ġfull y
Ġm ill
Ġfollow ed
ĠB ill
ĠInd ian
ĠSec ret
ĠB el
ĠFeb ruary
Ġjob s
Ġseem ed
ĠGo vern
i pped
Ġreal ity
Ġl ines
Ġp ark
Ġmeas ure
ĠO ur
I M
Ġbro ther
Ġgrow ing
Ġb an
Ġest im
Ġc ry
ĠS chool
Ġme chan
ĠO F
ĠWind ows
Ġr ates
ĠO h
Ġpos itive
Ġcult ure
ist ics
ic a
Ġh ar
y a
ite ly
i pp
Ġm ap
en cies
ĠWill iam
I I
ak ers
5 6
ĠM art
ĠR em
Ġal tern
it ude
Ġco ach
row d
D on
Ġk ids
Ġj ournal
Ġcor por
Ġf alse
Ġwe b
Ġsle ep
Ġcont ain
Ġst o
Ġb ed
iver se
ĠR ich
ĠCh inese
Ġp un
Ġme ant
k nown
Ġnot ice
Ġfavor ite
a ven
Ġcond ition
Ġpur pose
) )
Ġorgan ization
Ġchall eng
Ġman ufact
Ġsus p
ĠA c
Ġcrit ic
un es
uc lear
Ġm er
vent ion
Ġ8 0
Ġm ist
ĠU s
ĠT or
htt p
ol f
Ġlarg er
Ġadv ant
Ġrese ar
Ġact ions
m l
Ġke pt
Ġa im
, '
c ol
Ġbenef its
if ying
Ġact ual
ĠIntern ational
Ġveh icle
Ġch ief
Ġeff orts
ĠLe ague
ĠM ost
Ġwa it
Ġad ult
Ġover all
Ġspe ech
Ġhigh ly
Ġfem ale
Ġer ror
Ġeffect ive
5 4
Ġenc our
w ell
Ġfail ed
Ġcons erv
Ġprogram s
Ġt rou
Ġa head
5 00
vertis ement
I P
ĠF ound
p ir
Ġ %
Ġcr ime
and er
Ġloc ation
ĠI ran
Ġbehav ior
az ing
Ġr are
Ġem b
Ġca used
Ġsh ip
Ġact ive
Ġcont ribut
Ġg reen
Ġac qu
Ġref lect
ven ue
Ġf irm
Ġb irth
] .
Ġclear ly
Ġem ot
Ġag ency
ri age
Ġmem ory
9 8
S A
ĠSe e
ac ing
C C
Ġbig gest
Ġr ap
Ġbas ic
Ġb and
e at
Ġsus pect
ĠM ac
Ġ9 0
m ark
ist an
Ġsp read
am s
k i
as y
ra v
ĠR ober
Ġdemon str
r ated
Ġabs olute
Ġpl aces
Ġim pl
ibr ary
Ġc ards
Ġdest roy
Ġv irt
ve re
Ġapp eared
y an
p oint
Ġbe g
Ġtem per
s pe
ant ed
ear s
ĠD irect
Ġl ength
Ġbl og
am b
Ġint eg
Ġres ources
ac c
if ul
Ġsp ot
Ġfor ced
Ġthous ands
ĠMin ister
Ġqu al
ĠF rench
at ically
Ġgener ally
Ġdr ink
Ġth us
I L
od es
Ġappro pri
ĠRe ad
Ġwh om
Ġey e
Ġcol lege
Ġ4 5
ire ction
Ġens ure
Ġapp arent
id ers
Ġrelig ious
Ġmin or
ol ic
Ġt ro
ĠWh y
rib ute
m et
Ġprim ary
Ġdevelop ed
Ġpe ace
Ġsk in
st e
av a
Ġbl ue
Ġfam ilies
Ġ ir
Ġapp ly
Ġin form
ĠSm ith
C T
i i
Ġlim it
Ġres ist
........ ........
um n
Ġconf lic
Ġtw e
ud d
ĠT om
Ġl iter
qu e
b on
Ġha ir
Ġevent ually
Ġp us
Ġhelp ed
Ġag g
or ney
ĠApp le
Ġf it
ĠS ur
Ġpre m
Ġs ales
Ġsecond s
Ġstreng th
Ġfeel ing
¿ ½
Ġt our
Ġknow s
o om
Ġex erc
Ġsom ew
ï ¿½
> >
Ġsp okes
Ġide as
Ġreg ist
so ft
ĠD el
ĠP C
Ġpro pos
Ġlaun ch
Ġbott om
T H
ĠP lease
v est
it z
ĠIn ter
Ġsc ript
Ġr at
ar ning
Ġ il
ĠJ er
ĠA re
Ġwh atever
ok en
ci ence
Ġmod e
Ġag ree
Ġs ources
Ġinit ial
Ġrest rict
Ġwond er
us ion
## ##
ĠS il
vil le
Ġb urn
t w
as ion
ĠÂ £
Ġn or
u ing
Ġre ached
Ġs un
Ġc ateg
ig ration
Ġc ook
Ġprom ot
Ġm ale
Ġcl imate
Ġf ix
Ġalleg ed
U R
all ed
Ġim ages
C ont
ot a
Ġschool s
i os
Ġd rop
Ġst ream
ĠM o
Ġprevious ly
al ing
Ġp et
Ġdou ble
Ġ( @
ann el
Ġdef ault
t ies
Ġr ank
ĠD ec
ĠCoun cil
Ġweap on
Ġst ock
Ġanal y
ĠSt r
Ġpict ure
ĠPol ice
f erence
Ġcent ury
Ġcitiz ens
Ġon to
Ġexp and
Ġhe ro
ĠS ol
Ġw ild
Ġupd ate
Ġcustom ers
r ont
d ef
Ġl ik
Ġcrim inal
ĠChrist ian
S P
7 6
Ġle aving
Ġother wise
ĠD ist
Ġbas is
5 2
5 3
ic ip
ĠB er
Ġrecomm end
Ġfl oor
Ġc rowd
ol es
Ġ7 0
Ġcent ral
ĠE v
Ġd ream
Ġdown load
Ġconf ir
ĠTh om
Ġwind ow
Ġhapp ens
Ġun it
Ġt end
Ġs pl
Ġbec omes
Ġfight ing
Ġpred ict
ĠP ress
ĠP ower
Ġhe avy
ak ed
Ġf an
or ter
ate gy
B A
iz es
Ġsp end
H ere
Ġ200 7
Ġad op
ĠH am
Ġfoot ball
ĠP ort
od ay
5 1
amp ions
Ġtrans fer
h t
Ġ3 8
ter m
ac ity
Ġb ur
] ,
tern al
r ig
b ut
Ġthere fore
ĠB ecause
res p
re y
Ġm ission
S ome
Ġnot ed
Ġass um
Ġdise ase
Ġed it
Ġprog ress
r d
ĠB rown
oc al
Ġadd ing
Ġra ised
ĠAn y
Ġt ick
Ġsee ing
ĠPe ople
Ġagre ement
Ġser ver
Ġw at
Ġdeb ate
Ġsupp osed
il ing
Ġlarg est
Ġsuccess ful
ĠP ri
ĠDemocr atic
Ġj ump
ĠSyri a
Ġown ers
Ġoff ers
Ġshoot ing
Ġeff ic
se y
Ġha ven
ver se
te red
ĠL ight
im al
ĠB ig
Ġdef end
Ġbe at
Ġrecord s
% )
Ġsc en
Ġemploy ees
Ġdev ices
he m
Ġcom mer
ĠM ex
Ġbenef it
ĠPro f
Ġil leg
Ġsur face
ĠAl so
Ġh arm
ing ly
w ide
ĠA lex
Ġsh ut
ĠC ur
Ġl ose
p m
Ġchall enge
se mb
Ġst ation
Ġint elligence
Ġacc ur
ĠFl or
Ġrequ ires
ĠM al
b um
Ġh ospital
Ġsp irit
Ġoff ered
Ġprodu ce
ĠComm un
Ġcreat ing
Ġcr is
s pect
Ġend ed
Ġd aily
Ġvot ers
land s
i as
i h
on a
Ġsm art
ĠOff ice
ĠL ord
ri al
ĠIntern et
Ġcirc um
Ġextreme ly
' .
Ġopin ion
ĠM il
Ġg ain
B S
ĠF in
y p
Ġuse ful
Ġbud get
Ġcom fort
is f
Ġback ground
el ine
Ġep isode
Ġen emy
Ġtri al
Ġestab lish
d ate
ĠC ap
Ġcontin ues
Ġshow ing
ĠUn ion
w ith
Ġpost ed
ĠSy stem
Ġe at
ri an
Ġr ise
ĠGerman y
il s
Ġsign ed
Ġv ill
Ġgr and
m or
ĠEng land
Ġproject s
um ber
Ġconf erence
z a
Ġrespons ible
ĠAr ab
Ġlearn ed
âĢĶ âĢĶ
i pping
ĠGe orge
O C
Ġreturn ed
ĠAustral ia
Ġb rief
Q u
Ġbr and
ill ing
ab led
Ġhig hest
Ġtr ain
ĠComm ission
wh ile
Ġn om
cept ion
Ġm ut
ĠBl ue
Ġinc ident
v ant
8 6
ĠI D
Ġn uclear
7 4
ĠL ike
ĠR E
ĠM icro
l i
m ail
Ġcharg es
8 9
Ġad just
ad o
Ġear th
N A
Ġpr ices
P A
Ġd raft
Ġrun s
Ġcandid ate
ens es
Ġmanag ement
ĠPh il
ĠM iss
Ġte ach
g ram
Ġunderstand ing
a it
ic ago
A dd
ĠE p
sec ut
Ġsepar ate
Ġinst ance
Ġe th
Ġun less
**** ****
ĠF ore
in ate
Ġoper ations
S p
Ġf aith
g ar
ĠCh urch
ron ic
Ġconf ig
os ure
Ġactiv ities
Ġtrad itional
Ġ3 6
Ġd irection
Ġmach ine
Ġsur round
Ġp ush
un ction
ĠE U
Ġeas ier
Ġarg ument
G B
Ġm icro
Ġsp ending
iz ations
Ġthe ory
ad ow
Ġcall ing
ĠL ast
Ġd er
Ġinflu ence
Ġcomm it
Ġph oto
Ġun c
ist ry
g n
ast e
ack s
Ġdis p
ad y
d o
ĠG ood
Ġ `
Ġw ish
Ġreve aled
Âł Âł
l ig
Ġen force
ĠComm ittee
Ġche m
Ġmil es
Ġinterest ed
Ġsol ution
ic y
in ct
Ġ- >
ĠD et
Ġrem oved
Ġcomp ar
e ah
Ġpl ant
ĠS ince
Ġachie ve
Ġadvant age
Ġslight ly
b ing
Ġpl aced
u nder
201 5
ĠM ad
Ġt im
os es
Ġc ru
ĠR ock
Ġmost ly
Ġneg ative
Ġset ting
Ġprodu ced
Ġm ur
Ġconnect ion
ĠM er
Ġdri ver
Ġexecut ive
Ġass ault
Ġb orn
ĠV er
t ained
Ġstruct ure
Ġredu ce
Ġdec ades
Ġd ed
u ke
ĠM any
idd en
Ġle ague
S e
Ġjo in
Ġdis co
Ġd ie
c ks
act ions
Ġass ess
ag n
Ġgo als
our s
I R
Ġsen ior
ill er
m od
ip ment
oc ol
u y
ĠQ ue
Ġpart ies
ir gin
Ġle arning
it able
Ġstre et
Ġcamer a
A pp
Ġsk ills
b re
c ious
Ġcele br
ĠFr anc
Ġexist ing
Ġwill ing
l or
Ġ id
ĠSp ace
Ġcrit ical
ĠL a
ortun ately
Ġser ve
Ġc old
Ġspec ies
T S
Ġanim als
ĠB ay
Ġold er
ĠU nder
est ic
ĠT re
Ġte acher
Ġpre fer
v is
Ġth read
ĠM att
Ġmanag er
ãĥ »
Ġprofess ional
ĠV ol
Ġnot es
The se
ul a
Ġf resh
ent ed
u zz
ed y
clus ion
ĠR el
Ġdoub t
E O
Ġopen ed
ĠB it
Ad vertisement
Ġgu ess
ĠU N
Ġse qu
Ġexpl ain
ott en
Ġatt ract
ak s
Ġstr ing
Ġcont ext
oss ible
ĠRepublic ans
Ġsol id
Ġc ities
Ġask ing
Ġr andom
u ps
ur ies
ar ant
dd en
g l
ĠFlor ida
Ġdep end
ĠSc ott
Ġ3 3
Ġi T
ic on
Ġmention ed
Ġ2 000
Ġclaim ed
Ġdefin itely
ul f
Ġc ore
Ġopen ing
ĠCon st
wh ich
ĠT ra
A G
7 2
Ġbelie ved
ad a
Ġ4 8
ĠSec urity
yr ight
ĠP et
ĠL ou
Ġhold ing
======== ========
Ġ ice
Ġb row
Ġauthor ities
h ost
w ord
Ġsc ore
ĠD iv
Ġcell s
Ġtrans l
Ġneigh bor
Ġrem ove
u ct
Ġdist rict
ĠA ccording
Ġwor se
Ġconcern s
Ġpresident ial
Ġpolic ies
ĠH all
7 3
Ġh us
A Y
Ġ200 6
ĠJ ud
Ġindepend ent
ĠJust ice
ili ar
pr int
igh ter
Ġprotect ion
z en
Ġsu dden
h ouse
ĠJ es
P R
ĠIn f
Ġb ul
Ġ _
ĠServ ice
ĠP R
Ġstr ategy
ff ect
Ġgirl s
Ġmiss ing
oy al
ĠTe am
ul ated
Ġd at
Ġpolit ics
ab or
A ccording
Ġspe ll
Ġg raph
ort hern
T C
A b
Ġlab or
is her
Ġk ick
ĠiT unes
Ġstep s
pos es
Ġsmall er
E n
ber t
Ġro ll
Ġresear chers
Ġcl osed
Ġtrans port
Ġlaw y
________ ________
ĠCh icago
Ġas pect
Ġn one
Ġmar riage
9 6
Ġe lements
ĠF re
ĠS al
Ġd ram
F C
t op
e qu
Ġhe aring
Ġsupport ed
Ġtest ing
co hol
Ġmass ive
Ġst ick
Ġgu ard
is co
ph one
F rom
How ever
Ġb order
Ġcop y
ograph y
l ist
7 1
Ġown er
cl ass
ru it
r ate
ĠO nce
Ġdig ital
Ġt ask
ER S
Ġinc red
t es
+ +
ĠFr ance
Ġb reat
ow l
Ġiss ued
ĠW estern
Ġdet ect
Ġpart ners
Ġsh ared
ĠC all
Ġcan cer
ac he
rib e
Ġexpl ained
Ġhe at
{ "
Ġinvest ment
ĠB ook
Ġw ood
Ġtool s
ĠAl though
Ġbelie f
Ġcris is
Ġg e
ĠM P
Ġoper ation
ty pe
~ ~
g a
Ġcont ains
ant a
Ġexp ress
ĠG roup
ĠJ ournal
k a
Ġam b
ĠUS A
Ġfind ing
Ġfund ing
h ow
Ġestab lished
ide os
Ġdeg ree
Ġdanger ous
ang ing
Ġfre edom
pp ort
out hern
Ġch urch
Ġc atch
ĠTw o
Ġpres ence
ĠGu ard
U p
Ġauthor ity
ĠPro ject
Ġbut ton
Ġcon sequ
Ġval id
Ġwe ak
Ġstart s
Ġref erence
ĠM em
" )
U N
or age
ĠO pen
Ġcol lection
y m
g ency
Ġbeaut iful
ro s
Ġtell s
Ġwa iting
n el
Ġprov iding
ĠDemocr ats
Ġd aughter
Ġm aster
Ġpur poses
ĠJapan ese
Ġequ al
Ġturn s
Ġdoc uments
Ġwatch ing
R es
Ġr an
201 4
Ġre ject
ĠKore a
Ġvictim s
Le vel
ere nces
Ġw itness
Ġ3 4
Ġre form
com ing
Ġocc up
Ġc aught
Ġtra ffic
ad ing
Ġmod els
ar io
Ġserv ed
Ġb atter
u ate
ĠSecret ary
Ġagre ed
Ġtr uly
yn am
ĠR et
Ġun its
ĠRes earch
h and
az ine
ĠM ike
Ġvar iety
ot al
Ġam azing
Ġconfir med
Ġentire ly
Ġpurch ase
Ġe lement
Ġc ash
Ġdeter mine
D e
Ġc ars
ĠW all
â ĸ
Ġview s
Ġdrug s
Ġdep artment
ĠSt ep
u it
Ġ3 9
as ure
ĠCl ass
Ġc overed
ĠB ank
Ġme re
u ana
Ġmult i
Ġm ix
Ġun like
lev ision
Ġsto pped
Ġs em
ĠG al
ul es
Ġwe l
ĠJohn son
l a
Ġsk ill
Ġbec oming
ri e
Ġappropri ate
f e
ell ow
ĠPro t
ul ate
oc ation
Ġweek end
od ies
Ġsit es
Ġanim al
ĠT im
Ġsc ale
Ġcharg ed
Ġinst ruct
ill a
Ġmethod s
Ġc ert
Ġjud ge
ĠH el
Ġdoll ars
Ġstand ing
ĠS qu
Ġdeb t
l iam
Ġdri ving
ĠS um
ĠEd ition
Ġal bum
and on
I F
ĠU k
6 3
ad er
Ġcommer cial
es h
ĠGovern ment
Ġdisc overed
Ġout put
ĠHill ary
ĠCar ol
Ġ200 5
Ġab use
anc ing
Ġsw itch
Ġann ual
T w
Ġst ated
ag ement
in ner
Ġdem ocr
Ġres idents
Ġallow ing
Ġfact ors
od d
Ġf uck
em ies
Ġoccur red
ot i
Ġn orth
ĠP ublic
Ġinj ury
Ġins urance
C L
oll y
ã Ģ
Ġrepe ated
Ġar ms
ang ed
Ġconst ruction
Ġf le
P U
ic ians
Ġfor ms
ĠMc C
ant ic
Ġm ental
p ire
Ġequ ipment
Ġf ant
Ġdiscuss ion
Ġregard ing
k in
ar p
Ġch air
og ue
Ġpro ceed
ĠI d
O ur
Ġmur der
M an
Ġ4 9
as p
Ġsupp ly
Ġin put
Ġwe alth
liam ent
Ġpro ced
or ial
ĠSt at
ĠN FL
hen s
ĠInst itute
Ġput ting
ourn ament
et ic
Ġloc ated
Ġk id
er ia
r un
Ġpr inc
Ġ !
go ing
ĠB et
Ġcl ot
Ġtell ing
Ġprop osed
i ot
or ry
Ġfund s
g ment
ĠL ife
Ġb aby
ĠB ack
Ġsp oke
Im age
Ġear n
ĠA T
g u
Ġex change
ĠL in
ov ing
Ġp air
M ore
az on
Ġarrest ed
Ġkill ing
c an
ĠC ard
y d
Ġident ified
Ġm obile
Ġthan ks
ony m
ĠF orm
Ġhundred s
ĠCh ris
ĠC at
Ġtre nd
h at
ĠA v
om an
Ġelect ric
ĠW il
S E
O f
Ġrest aur
ot ed
Ġtr ig
Ġn ine
Ġb omb
Wh y
Â ¯
Ġco verage
Ġapp eal
ĠRober t
ĠS up
Ġfin ished
Ġfl ow
Ġdel iver
Ġcal cul
Ġphot os
Ġph il
Ġpie ces
Ġapp re
k es
Ġr ough
D o
Ġpart ner
Ġconcern ed
Ġ3 7
ĠG en
C ol
ct ors
Ġ= >
st ate
Ġsuggest ed
ĠFor ce
C E
Ġher self
ĠPl an
w orks
o oth
ren cy
Ġcor ner
Ġhus band
Ġintern et
ĠA ut
em s
os en
ĠAt l
g en
Ġbal ance
6 2
Ġsound s
te xt
Ġar r
ov es
Ġmill ions
Ġrad io
Ġsat isf
ĠD am
M r
G o
S pe
Ġcomb at
r ant
ĠG ree
Ġf uel
Ġdist ance
Ġtest s
Ġdec re
ĠE r
Ġman aged
D S
Ġt it
Ġmeas ures
ĠL iber
Ġatt end
as hed
ĠJ ose
ĠN ight
d it
ĠN ov
ĠE nd
out s
Ġgener ation
Ġadv oc
y th
Ġconvers ation
ĠS ky
act ive
ce l
ri er
ĠFr ank
Ġg ender
Ġcon cent
Ġcar ried
and a
ĠV irgin
Ġarri ved
ic ide
ad ed
Ġfail ure
Ġmin imum
le ts
Ġwor st
Ġkeep ing
Ġint ended
Ġilleg al
Ġsub sc
Ġdetermin ed
Ġtri p
Y es
Ġra ise
Ġ ~
Ġfeel s
Ġpack age
ĠJ o
h i
201 6
re al
Ġf ra
Ġsy mb
M e
uck y
p ret
ĠK h
ĠEd it
ĠWe b
em ic
ĠCol or
Ġjust ice
I nt
Ġfar m
ck now
" >
el ess
Ġredu ced
Ġ5 00
x x
ĠR ad
ĠW ood
Ġcl in
Ġhy p
il er
ur a
k ins
8 5
6 1
ĠThe ir
ĠM ary
Ġs an
Ġno vel
ĠWh o
Ġcap acity
Ġimp ossible
Ġpl ays
Ġmin ister
ij uana
ic ate
ĠS et
Ġf ram
Ġ ing
Ġcommun ities
ĠF BI
it a
Ġb on
Ġstr ateg
Ġinterest s
l ock
g ers
m as
ĠAN D
Ġconflic t
Ġrequire ments
Ġs ac
Ġoper ating
in i
rel ated
Ġcomm itted
Ġrelative ly
Ġs outh
Â¯ Â¯
Ġaff ord
Ġident ity
Ġdec isions
Ġacc used
pl ace
Ġvict ory
o ch
i at
N ame
C om
t ion
ed s
Ġsee k
Ġt ight
ĠIm ages
Ġinit i
Ġhum ans
Ġfam iliar
Ġaud ience
Ġintern al
vent ure
Ġs ides
ĠT O
Ġd im
Ġcon clud
Ġapp oint
Ġenforce ment
ĠJ im
ĠAssoci ation
Ġcircum st
ĠCanad ian
Ġjo ined
Ġdiffere nces
ĠL os
Ġprot est
Ġtw ice
w in
Ġgl ass
ars h
ĠAr my
Ġexp ression
Ġdec ide
Ġplan ning
an ia
Ġhand le
ĠMicro soft
ĠN or
Ġmax imum
ĠRe v
Ġse a
Ġev al
Ġhel ps
re f
Ġb ound
Ġm outh
Ġstand ards
Ġcl im
ĠC amp
ĠF ox
cl es
Ġar my
ĠTe chn
ack ing
x y
S S
Ġ4 2
Ġbu g
ĠUk rain
ĠM ax
ĠJ ones
ĠSh ow
l o
Ġplan et
Ġ7 5
Ġwin ning
Ġf aster
Ġspe ct
Ġbro ken
T R
Ġdef ined
Ġhealth y
Ġcompet ition
htt ps
ĠIs land
ĠF e
Ġannoun ce
ĠC up
ĠInst ead
Ġcl ient
Ġposs ibly
se ction
ock et
l ook
Ġfin ish
Ġcre w
Ġres erv
Ġed itor
Ġh ate
Ġs ale
Ġcontro vers
Ġp ages
w ing
Ġnum er
Ġopp osition
Ġ200 4
Ġref uge
Ġfl ight
Ġap art
ĠL at
A meric
ĠAfric a
Ġapplic ations
ĠPal est
ĠB ur
Ġg ar
ĠSoc ial
Ġup gr
Ġsh ape
Ġspe aking
ans ion
a o
ĠS n
Ġwor ry
ĠBrit ain
P lease
rou d
Ġh un
Ġintrodu ced
Ġd iet
I nd
ĠSec ond
Ġfun ctions
ut s
ĠE ach
ĠJe ff
Ġst ress
Ġaccount s
Ġgu arant
ĠAn n
ed ia
Ġhon est
Ġt ree
ĠAfric an
ĠB ush
} ,
Ġs ch
ĠOn ly
Ġf if
ig an
Ġexerc ise
ĠEx p
Ġscient ists
Ġlegisl ation
ĠW ork
ĠS pr
Ã Ĥ
ĠH uman
Ġ è
Ġsur vey
Ġr ich
ri p
Ġmain tain
Ġfl o
Ġleaders hip
st ream
ĠIslam ic
Ġ 01
ĠCol lege
Ġmag ic
ĠPr ime
Ġfig ures
201 7
ind er
x ual
ĠDe ad
Ġabsolute ly
Ġfour th
Ġpresent ed
resp ond
rib le
Ġal cohol
at o
ĠD E
por ary
Ġgr ab
Ġvar i
Ġqu ant
ĠPh oto
Ġpl us
r ick
ar ks
Ġaltern ative
Ġp il
Ġappro x
th at
Ġobject s
ĠR o
ĠAnd roid
Ġsignificant ly
ĠR oad
k ay
R ead
av or
Ġa cknow
ĠH D
ĠS ing
O r
ĠM ont
Ġun s
pro f
Ġneg oti
ĠAr ch
ik i
Ġte levision
ĠJew ish
Ġcomm ittee
Ġmot or
Ġappear ance
Ġs itting
Ġstri ke
ĠD own
com p
ĠH ist
Ġf old
ac ement
ĠLou is
Ġbel ong
ĠâĢ ¢
Ġm ort
Ġprep ared
Ġ6 4
ĠM aster
Ġind eed
ĠD en
Ġre nt
T A
our ney
ar c
S u
9 7
Ġadv ice
Ġchang ing
Ġlist ed
Ġlaun ched
is ation
ĠP eter
is hes
Ġl ived
ĠM el
ĠSup reme
ĠF ederal
Ġ) ;
ruct ure
Ġset s
Ġphil os
u ous
ĠÂ ł
Ġappl ied
ĠN OT
Ġhous ing
ĠM ount
Ġo dd
Ġsu st
D A
ffic ient
Ġ ?
ol ved
Ġp owers
Ġth r
Ġrem aining
ĠW ater
L C
Ġca uses
ãģ ®
Ġman ner
ad s
Ġsuggest s
Ġend s
stand ing
f ig
ĠD un
id th
Ġg ay
Ġter min
ĠAngel es
M S
Ġscient ific
Ġco al
ap ers
b ar
ĠThom as
Ġsy m
ĠR un
th is
P C
igr ants
Ġmin ute
ĠDist rict
cell ent
Ġle aves
Ġcomple ted
am in
Ġfoc used
Ġmon itor
Ġveh icles
M A
ĠM ass
ĠGr and
Ġaffect ed
itution al
Ġconst ruct
Ġfollow s
Ġt on
re ens
Ġh omes
ĠE xt
ĠLe vel
r ast
ĠI r
Ġel im
Ġlarge ly
ĠJ oe
Ġvot es
all s
Ġbusiness es
ĠFound ation
ĠCent ral
Ġy ards
Ġmaterial s
ul ner
Ġgu ide
Ġclos er
um s
Ġsp orts
ed er
J ust
Ġtax es
8 4
ĠO ld
Ġdec ade
ol a
Ġv ir
Ġdro pped
Ġdel ay
it ect
Ġsec ure
ste in
le vel
Ġtre ated
Ġfil ed
ain e
Ġv an
Ġm ir
Ġcol umn
ict ed
e per
Ġro t
Ġcons ult
Ġent ry
Ġmar ijuana
ĠD ou
Ġapparent ly
ok ing
clus ive
Ġincre ases
an o
Ġspecific ally
Ġte le
ens ions
Ġrelig ion
ab ilities
Ġfr ame
ĠN ote
ĠLe e
Ġhelp ing
Ġed ge
ost on
Ġorgan izations
Ã ĥ
ĠB oth
hip s
Ġbig ger
Ġbo ost
ĠSt and
Ġro w
ul s
ab ase
Ġr id
L et
are n
ra ve
Ġst ret
P D
Ġv ision
Ġwe aring
Ġappre ci
Ġa ward
ĠU se
Ġfact or
w ar
ul ations
) (
Ġg od
Ġter rit
Ġpar am
ast s
8 7
Ġen emies
ĠG ames
F F
Ġacc ident
W ell
ĠMart in
T ER
Ġat h
ĠHe ll
Ġfor g
Ġve ter
ĠMed ic
f ree
Ġst ars
Ġexp ensive
Ġac ad
ra wn
ĠW he
Ġl ock
Ġform at
Ġsold iers
s m
Ġag ent
Ġrespons ibility
or a
ĠS cience
Ġrap id
Ġt ough
ĠJes us
Ġbelie ves
M L
Ġwe ar
le te
Ãĥ ÃĤ
ĠD ri
Ġcomm ission
ĠB ob
O h
ap ed
Ġwar m
ÃĥÃĤ ÃĥÃĤ
Ġ200 3
ort ion
Ġhas n
ust er
Ġun ivers
ĠI ll
Ġk ing
olog ies
9 4
ĠT em
ĠM os
Ġpat ient
ĠMex ico
ce an
ĠDe ath
ĠSand ers
y ou
ĠC ast
ĠComp any
pt y
Ġhappen ing
F P
ĠB attle
Ġb ought
A m
M od
U s
ut ers
ĠC re
ĠTh ose
Ġ4 4
is er
Ġs oul
ĠT op
ĠHar ry
ĠA w
Ġse at
ff ee
Ġrev olution
Ġ( "
ĠD uring
et te
Ġr ing
Ġoff ensive
Ġreturn s
Ġv ideos
Ġdis cl
Ġfam ous
en ced
ĠS ign
ĠR iver
Ġ3 00
P M
ĠB us
ĠC H
Ġcandid ates
ard en
Ġpercent age
Ġvis ual
Ġthan k
Ġtrou ble
ner gy
Ġ200 1
Ġpro ve
ash ion
Ġen h
ĠL ong
U M
Ġconnect ed
Ġposs ibility
O ver
Ġexper t
Ġl ibrary
art s
ĠDirect or
Ġfell ow
9 2
ir ty
Ġd ry
Ġsign s
ĠL ove
Ġqu iet
f oot
Ġp ure
ĠH un
Ġf illed
ph as
ĠE lect
end ment
ĠEx pl
Ġun able
n s
m o
Ġv ast
ob e
Ġident ify
app ing
ĠCarol ina
g ress
Ġpro te
Ġf ish
Ġcircumst ances
raz y
ĠPh ot
Ġb odies
ĠM ur
Ġdevelop ing
ĠA R
Ġexperien ced
Ġsubst ant
ĠBo ard
es ome
Ġdom estic
Ġcomb ined
ĠP ut
Ġchem ical
ĠCh ild
Ġpo ol
ĠC y
Ġe gg
c ons
st ers
Ġh urt
Ġmark ets
Ġconserv ative
Ġsupp orters
Ġag encies
id el
O b
ur b
Ġ4 3
ĠDef ense
y e
ĠA p
du le
Ġtemper ature
Ġconduct ed
ĠCh ief
Ġpull ed
Ġf ol
L ast
ont o
os is
V ER
D es
ĠP an
F irst
Ġadv ance
Ġlic ense
r ors
ĠJ on
Ġimag ine
Ġhe ll
Ġf ixed
Ġinc or
os ite
ĠL og
ick en
] :
Ġsurpr ise
h ab
Ġc raft
ol t
ĠJ ul
Ġd ial
Ġrele vant
Ġent ered
Ġlead s
ĠA D
ĠCle an
Ġpict ures
ess or
Ġal t
Ġpay ing
P er
ĠMark et
Ġupd ates
am ily
ĠT ype
ĠH ome
Ġ5 5
semb ly
rom e
8 3
Ġgreat est
Ġhe ight
Ġhe av
ain ts
Ġlist en
as er
ĠS H
Ġcap able
ac le
Ġpers pect
in ating
Ġoff ering
ry pt
ĠDe velop
ab in
r c
Ġbr ight
al ty
ar row
Ġsupp l
ind ing
ack ed
gy pt
ĠAn other
p g
ĠVirgin ia
ĠL u
Ġpl anned
Ġp it
Ġswe et
T ype
ĠD i
Ġtyp ically
ĠFranc isco
Ġpro spect
ĠD an
Ġte en
re es
Ġsc hed
Ġh ol
Ġsc r
Ġlot s
l ife
Ġnews p
Ġfor get
ĠN one
ĠM iddle
ĠR yan
ed d
Ġse vere
Ġsu it
ll er
9 3
Ġcor respond
Ġexpl os
u ations
Ġfl ag
g ame
r id
Ġpr in
ĠD ata
Ġde ploy
ĠEn ter
su it
gh an
ĠM en
Ġthough ts
Ġmat ters
Ġad apt
ĠA ri
Ġf ill
Ġfor th
Ġs am
Ġ4 1
Ġpay ment
ĠH or
Ġsp ring
du c
Ġl osing
Ġbring ing
F O
al a
Ġdist ribution
he red
b our
ĠIsrael i
om a
Ġcomb ination
Ġpl enty
V E
C an
ĠH aw
Ġper man
ĠSpe cial
Ġto w
Ġsee king
Ġexam ples
Ġclass es
c r
Ġbe er
Ġmov es
ĠI P
ĠK n
Ġpan el
E ven
Ġproper ly
Ġr is
Ġpl ug
Ġestim ated
E very
Ġdef ensive
ag raph
Ġpre gn
Ġinst it
ĠV ict
Ġvol ume
Ġpos itions
Ġl inks
ĠPro gram
ĠWe ek
ag ues
Ġtrans form
k er
ĠC EO
Ġc as
Ġopp onent
Ġtwe et
ĠC ode
Ġsh op
Ġf ly
Ġtal ks
Ġb ag
Ph one
Ġa id
Ġpl ants
Ġ6 5
Ġatt orney
ar ters
qu est
ĠMag ic
Ġbeg ins
Ġmy ster
Ġenvironment al
Ġst orage
N N
Ġm arg
Ġs ke
Ġmet al
ell y
Ġord ered
Ġrem ained
Ġl oved
Ġprom pt
Ġupd ated
Ġexper ts
Ġwalk ing
Ġan cient
Ġperform ed
AT E
Ġne ither
i ency
Ġmanufact ure
ĠP ak
Ġselect ed
Ġm ine
Ġult imately
Ġexpl an
Ġlab el
ĠServ ices
ribut ed
Tr ump
Ġsy n
ĠU lt
S C
Ġme at
Ġg iant
ĠW ars
ĠO N
Ġad m
Ġinter pret
Ġeven ing
Ġev il
ĠB oston
ĠW ild
Ġ Ã
ĠBit coin
ĠAm azon
D r
ĠIn formation
Ġobvious ly
Ġadv anced
Ph oto
ol ar
Ġwe ather
Ġsymb ol
Ġso le
Ġpot entially
ost er
Ġorig inally
m un
3 00
az e
ess ions
Ġde ck
Ġst ood
Ġyou th
ĠB ern
R ep
ĠT est
Ġbas ically
ot ic
Ġinvol ve
ol it
ly n
S ee
Ġair craft
Ġconf irm
E W
Ġmess ages
ĠRich ard
Ġk it
Ġpro hib
Ġv ulner
is ters
Ġexist ence
Ġturn ing
ĠS P
Ġdes ire
Ġfl at
Ġm ent
se ason
ang es
Ġneighbor hood
ĠL ake
AT ION
Ġpoint ed
b ur
Ġinn ov
uc ks
U L
Ġprofess or
Ġexp ressed
A B
ic ious
Ġ200 2
ĠDe v
Ġs ession
Ġb are
s en
Ġdis s
ĠC ath
ĠP ass
ĠP oint
Ġdo ctor
or row
ail ed
ĠR ub
ĠD C
ĠChar l
p erson
Ġwrit er
igh ters
ure au
Ġob lig
Ġrecord ed
Ġbro ke
Ġord ers
il ty
Ġmot ion
in ity
l aw
ad ium
Ġimm igration
Ġcontr ast
Ġb att
Ġex cellent
Ġtechn ical
am i
Ġt un
Ġcl oud
ĠY ear
ge on
Ġcre ation
Ġstr ange
Ġa uth
Ġfor t
b orn
Ġext ent
ĠT oday
ĠCl ub
Ġr ain
Ġs ample
Ġaccept ed
Ġt act
Ġf ired
ĠS on
Ġstand s
Ġb oot
Ġ4 7
Ġstat ements
Ġvers ions
Ġse lling
ound ed
Ġ199 0
Ġwere n
ĠW atch
Ġexper iment
P ost
Ġret ail
ul ed
In st
un te
ãĥ ¼
Ġdep art
Ġb ond
i very
om pl
Ġre action
ĠSyri an
ĠP ac
app ed
ani el
D P
Ġres olution
Ġre act
Ġappro ved
on om
m ond
ĠO ffic
-- -
Ġrepl ace
Ġt ack
Ġsp ort
Ġch ain
Ġemer gency
r ad
ĠPalest in
Ġ4 6
Ġautom atically
Ġrout e
Ġp al
Ġb anks
ĠPar is
ĠMed ia
ro ad
ic ing
i xt
ist ed
Ġg rew
Ġco ord
ĠW here
om in
Ġsub s
ï¿½ ï¿½
ĠÂ ±
Ġcorpor ate
Ġse lection
n oon
ĠRep ort
c s
clud ing
ord ers
anc he
ĠIt s
Ġslow ly
ĠE gypt
ĠA cc
Ġcol le
iqu es
E X
Ġattempt s
ur l
ĠC ross
Ġfind ings
ĠS C
ĠO R
Ġind ex
ens ity
ĠW ay
ĠL and
Ġsh ock
d is
Ġd ynam
Ġc art
m osp
S ince
i est
ĠB oy
Ġst orm
ĠCont in
201 3
he w
il it
Ġess ential
iqu id
O ther
ive red
Ġreason able
A ct
Ġsub sequ
ĠP ack
ĠF ort
Ġconsider ing
Ġun iversity
l og
Ġmar ried
Ġill ust
ĠTr ue
£ ı
Ġnumer ous
rast ructure
Ġserious ly
Ġrefer red
u a
Ġconsist ent
on na
ĠRe al
ru ption
ci ples
Ġfact s
9 1
ot es
er g
The n
Ġacc ompl
N ote
Ġre venue
Ġpass ing
Ġm al
e en
ĠY et
Ġg ather
ter day
ew ork
ĠA uthor
P e
Ġopt im
Ġr ub
Ġè £ı
Ġun known
st one
Ġun ion
ol ve
Ġopportun ities
Ġbrow ser
ĠW al
ĠC ost
Ġreport ing
st s
p et
Ġs and
Ġsudden ly
Ġsurpr ising
ĠV R
Ġsomew hat
ĠB as
ult ure
iz z
ĠC D
Ġchalleng es
Ġsett ings
Ġexperien ces
ĠF ull
Ġcan n
Ġrece iving
ES T
Ġj oint
Ġcult ural
Ġa st
8 2
as tern
ce ived
ĠC ru
Ġb ull
p ired
am m
Ġfac ing
p ower
Ġb oss
ĠH ol
Ġinst r
Ġincreasing ly
Ġsh ift
Ġstre ets
ĠWilliam s
ab b
Ġl ie
Ġl augh
ĠC a
P L
Ġadult s
Ġcustom er
Ġob tained
Ġsupport ing
ht ml
f ire
Ġdetail ed
Ġpick ed
ĠR ight
ld er
E E
st ood
ĠK im
Ġw ire
Ġs ight
Ġdevelop ers
Ġpers ons
Ġs ad
Ġc up
Ġwar ning
Ġboy s
l ong
Ġb ird
f o
Ġw al
Ġobserv ed
Ġz one
iven ess
Ġch annel
c ript
Ġref used
ĠAg ain
Ġsu c
Ġspokes man
ĠRe f
r ite
ou ston
ãĥ ³
ĠS her
Ġact s
ĠN ame
Ġstrugg le
ar ry
omet imes
Ġdisc rim
H T
Ġcateg ory
Ġreal ize
Ġemploy ee
ĠAf ghan
en ger
Ġgun s
ĠSte ve
ĠM ot
ĠO l
ok ed
Ġth ick
Ġfair ly
ill y
Ġsur ve
ĠM at
we ight
â Ķ
Ġtro ops
Ġag ents
Ġbatter y
Ġmot iv
Ã ¡
S ec
d en
o very
L S
Ġfl u
Ġconf ident
ĠO per
Ġem pty
Ġp hen
Ġse ctor
Ġexc ited
Ġrem ote
ap h
o en
Ġdestroy ed
Ġmor al
ĠH P
ĠR on
Ġd ress
ĠB at
Ġl it
ĠM S
Ġa f
H L
r um
is ms
Ġshould n
Ġsym pt
ĠTor onto
het ic
Ġcar bon
Ġinstall ed
Ġviol ent
Ġsol ar
j a
Ġpract ices
Ġr ide
ĠP enn
Ġimpro ved
Ġaud io
Ġbehav i
ĠP S
Ġe ating
D ata
ĠRe view
p ass
cl aim
u ated
ang ers
c hen
Ġproper ties
Ġany where
An other
Ġbl ow
ĠJack son
Ġp roud
Ġplan e
l ines
Ġsqu are
Ġpro of
ans as
Ġtalk ed
m akers
Ġs ister
Ġhold s
Ġres ident
Ġ= =
Ġresist ance
Ġspl it
Ġpro secut
Ġconf idence
res ents
Ġcut s
Ġexcept ion
Ġz ero
Get ty
Ġcop yright
Ġtot ally
orm al
ific ations
ĠAustral ian
Ġs ick
Ġ1 50
Ġhouse hold
Ġfe es
Ġdri vers
og en
ĠN Y
Ġnecess arily
Ġregul ations
ear ing
s l
Ġperspect ive
c are
ic ial
H is
Ġesc ape
Ġsurpr ised
ĠV an
ur rent
Ġv ac
8 1
ĠTh us
Ġem phas
ĠCh ampions
ĠI ce
Ġn arr
Ġhead s
Ġca using
b el
f ortunately
ĠM a
Ġtarg ets
ci pl
Ġafter noon
Ġadd s
ĠMay be
ĠF our
ess ed
ple te
Ġus ual
ch o
ing u
Ġwith d
ĠE nergy
ĠE conom
O O
Ġart icles
Ġinj ured
Ġman age
Ġexpl ains
Ġdi agn
R ec
at ures
Ġlink ed
Ġdiscuss ed
Ġexpl o
Ġocc asion
ath an
Ġopp osite
Ġfac es
Ġden ied
ĠK night
Ġn ut
Ġapprox imately
Ġdisapp oint
onym ous
ĠB est
ĠL o
ĠH y
ĠA ff
Ġvot ing
an while
ĠII I
Ġinstit utions
ag ram
ĠD aily
Ġdr ag
Ġnear by
Ġgu ilty
Ġcon ver
P re
s hip
Ġre ward
Ġphilos oph
ĠS S
u gh
Ġapp s
f riend
Ġu pper
Ġad vert
Ġs now
Ġfr ust
Ġour selves
F r
ĠD ie
amp ion
Ġdis miss
Ġc ere
Ġsign al
f rom
Ġ ).
Ġ5 2
Ġcr imes
it ors
est ival
use um
Ġcoun cil
ĠS aud
M ay
ĠG un
ic ian
et her
Ġsu fficient
ĠH en
so le
Ġhistor ical
ĠF ar
ĠT urn
Ġp in
Ġsuc ceed
m at
ly mp
Ġtrad ition
ĠO k
Ġc ro
Ġdesc ription
al le
Ġsk y
T e
Ġwide ly
Ġw ave
Ġdefin ition
ĠJew s
Ġcy cle
Ġref ere
Ġbr ings
us al
Ġal ive
Ġfrequ ently
Ġint ention
ĠCont rol
l v
y stem
Ġpriv acy
g ent
ren ce
ĠQu est
ĠChrist mas
Ġr ail
Ġco oper
Ġtest ed
ĠC apt
as ks
Ġcomfort able
Ġdel ivered
sc ape
Ġdep th
ĠG OP
Ġwrit es
Ġass ets
Ġsa v
im ents
Ġtrans ition
Ġart ist
ĠL ook
Ġl ob
Ġcomp onents
ar ity
Ġwalk ed
Ġro ot
Ġparticip ants
Ġnot iced
Ġres c
Ġn av
ĠAd minist
d a
ut ral
pl ate
Ġimport ance
Ġass ert
ious ly
c ription
Ġinj uries
ĠChe ck
Ġregist ered
Ġint ent
Ġmiss ed
ograph ic
Ġsent ence
oun ter
Ġassist ance
ev in
Ġdat abase
Ġbuild ings
Ġclass ic
Ġth inks
ĠOh io
P r
ug g
Ġfe e
p an
Ġeffect ively
Ġfac ility
Ġbe ar
Ġch apter
Ġdog s
ĠCol umb
Ġl atter
it ial
Ġad mitted
T V
ĠGe org
Ġpost s
\ \
Ġlawy er
Ġequ ival
Ġm and
Ġcontro lled
ĠW alk
ĠAnd rew
Ġmen u
am ental
Ġprotect ed
v a
Ġadminist r
or al
Ġre in
ĠS ar
Ġamount s
Ġn ative
ĠM oon
Ġrep resents
Ġab andon
Ġcarry ing
Ġt ank
m ary
Ġdecl ared
T ube
Ġh at
Ġpun ish
el lect
m es
Ġun iverse
ĠR od
ph y
Ġinf rastructure
Ġ5 1
Ġopp osed
ow nt
c a
ĠM ake
Ġhard ware
Ġco ffee
R el
b al
w orld
ĠS af
ĠSe a
in als
Ġown ed
Ġh all
ers ion
Ġdescrib e
ĠP ot
Ġport ion
Ġat mosp
Ġgovern ments
Ġdep ending
Ġoff ense
Ġtr ick
aw a
ĠL ine
ĠV is
ĠH ard
ĠOr ig
ĠCl ick
Ġdes k
ĠVal ley
ĠS ov
Ġmov ies
Ġrem ark
Ġm ail
Ġcons cious
Ġrul ing
ĠR ights
Ġmed ic
he nt
ĠW omen
> <
Ġrepl aced
ĠP rem
ĠTh anks
Ġre new
ĠB all
if orm
Ġsh ots
C omm
Ġar med
Ġconst ant
Ġt aste
Ġreal ized
Ġbu ff
Ġm o
Ġeffic ient
M ost
or ation
if ies
Ġcommun ication
Ġfl ood
Ġconsequ ences
Ġany way
ig g
ĠG M
ĠTh ank
Ġ iron
Ġev olution
ĠC op
tw itter
Ġ9 5
Ġrelationship s
ad el
ĠYou ng
Ġpropos al
ay ers
uild ing
ĠH ot
OR E
c os
Ġcoll abor
P G
ax y
Ġknow ing
Ġsupport s
ow ed
Ġcontrol s
Ġmere ly
um er
Ġath let
Ġf ashion
p ath
Ġg ift
Ġer a
AN D
Ġkind s
ĠKore an
Ġleg it
ul ous
Ġess entially
Ġthe rap
n ic
Ġsuff ered
Ġh ur
Ġprom ise
Ġex cess
Ġover w
Ġpr ime
ĠH ouston
er ry
ĠM s
R S
201 2
Ġst ores
ĠO lymp
Ġj ourney
Al though
S ub
ĠE duc
ĠCh apter
Ġrequest s
Ġconsum ers
Ġt iny
Ġis ol
ĠF air
b a
ĠY OU
Ġcr ash
ce ler
Ġemot ional
Ġgood s
Ġelect ed
Ġmod er
ĠLin ux
Ġbl ocks
Ġis land
ĠSoc iety
Ġelect ions
Ġbroad cast
Ġche ap
Ġn ations
Ġse asons
4 00
Ġwas te
ĠS at
Ġfield s
em ploy
Ġprof ile
Ġauth ors
AL L
ĠG ra
w est
ĠT y
Ġdeath s
Ġv acc
Ġfor med
Ġd u
Ġon going
ĠMuslim s
el f
ig ure
Ġass ume
ĠUkrain e
w ater
Ġco ast
Ġvot ed
g or
ĠA S
ĠMich igan
az a
ĠAr m
i ro
Ġf lex
as ters
' '
Ġwel come
ar l
Ġloc ations
ig ation
ĠF il
Ġbu ying
Ġarch itect
Ġhard er
ĠC ub
Ġinter face
Ġrestaur ant
Ġdisco ver
Ġex ceed
Ġfav our
ger y
Ġd uty
Ġp itch
ad or
ĠM ach
b oy
Ġrespond ed
Ġext ended
her s
M any
ra id
if er
ĠIn s
S er
Ġmed ium
s he
ĠS ports
Ġmag azine
ut ation
Ġlim its
ĠG all
Ġex ternal
raz il
Ġyoung er
t le
Ġrem ind
ĠC ON
Ġimmedi ate
Ġh idden
Ġvol unte
Ġsim pl
od cast
Ġph ase
d r
Ġpl ot
Ġexp osure
R I
og rap
v in
an ish
ĠAc ad
ĠEng ine
Ġexp ansion
ĠP ay
Y our
Ġpus hed
ĠE ll
ĠHe ad
Ġmarket ing
ĠA C
k et
Ġh its
Ġg ro
ĠA ge
ĠSc ot
] [
Ġst im
Ġi Phone
Ī Ĵ
Ġn arrow
ĠGet ty
ĠTur key
Ġperfect ly
Ġen able
ut ch
Ġprec ise
Ġreg ime
Ġsh if
Ġcomp ens
g un
d iv
Ġch osen
ĠK en
An y
Ġtre es
Ġrecomm ended
ĠR en
u able
ĠH T
F ollow
E G
ĠH and
ĠK enn
Ġarg uments
Ġex ists
Ġb ike
ĠCons erv
Ġbre aking
ĠG ar
Ġc razy
Ġvirt ual
ay lor
ix el
Ġ19 80
Ġper mission
ĠSer ies
Ġconsum er
Ġclose ly
c alled
Ġ5 4
Ġhop es
Ġar ray
ĠW in
ĠLab our
Ġsp ons
ĠI re
Ġp ow
Ġread ers
Ġemploy ment
Ġcreat ure
Ġresult ing
Ġaccur ate
Ġmom ents
Ġarg ued
Ġp ed
D uring
Ġ5 3
ĠT al
Ġs ought
Ġsuff ering
Ġ icon
le e
Ġ( $
al ian
Â °
Ġp ra
Ġbon us
( "
k o
Ġact ing
D E
f all
Ġcompar ison
Ġsm ooth
ĠN AS
u pp
ĠJose ph
ep ing
ĠT ake
ĠM id
Ġs ending
f ast
ĠF all
Ġdeal ing
us er
ĠOr gan
C o
Ġatt ached
Ġse es
% .
Ġtyp ical
AR T
Ġfind s
ĠAs ia
um in
ĠC ore
ĠE nt
in ent
u ce
ĠBl ood
ĠN ever
Ġem ails
Ġhigh light
Ġconf ront
at us
ut ed
Ġun us
Ġtop ic
ĠAd am
Ġb le
at i
Ġunder stood
S et
st ruct
T P
Ġm ob
a a
ĠSt art
pect ed
se ll
Ġded icated
ĠC A
u an
Ġsong s
esc ription
Ġte ch
Ġr ape
Ġas ide
Ġgr ant
Ġ5 6
s ub
Ġarg ue
Ġcont aining
Ġsche dule
Ġliber al
Ġpublic ly
Ġheav ily
ĠU t
in er
ĠS ection
ĠC are
we et
l s
D is
âĶ Ģ
ĠF ollow
B ack
ĠI T
Ġb es
j i
ĠH it
est ed
Ġevery body
ĠSw ed
Ġfem in
Ġfac ilities
Ġcon ven
C omp
ĠO S
c ore
Ġan x
Ġdiv ision
ĠC am
ĠSt an
m ates
Ġexpl ore
pl om
Ġsh ares
pl oad
an es
Ġide al
et ers
ĠB ase
Ġpl astic
Ġdist inct
ĠNet work
ĠSe attle
Ġtrad ing
ens us
int end
Ġex hib
Ġinit ially
ĠF ood
Ġthous and
ĠBus iness
act er
Ġpar agraph
Ġrough ly
Ġw ww
Ġcreat ive
ĠCon f
Ġconsum ption
Ġfil ms
ag an
Ġob tain
Ġt all
Ġt or
Ġacknow led
Ġg rown
al o
K E
Ġ4 00
end ers
t aining
U G
Ġsu icide
Ġwat ched
ĠL ist
al i
re hens
Ġsurround ing
Ġp ip
Ġf lying
ĠJ ava
ord an
Ġserv ing
in ations
p ost
Ġsh o
A v
Ġj ail
z y
Ġ199 9
Ġ< /
Ġliter ally
ĠS ir
Ġexp osed
Ġl ies
st ar
Ġb at
Ġear ned
ĠD ig
Ġspec ified
ĠSe ason
Ġdeg rees
Don ald
Ġcent re
Ġsh aring
Ġwin ter
ĠC O
C he
Ġ Î
M P
Ġun w
Ġfew er
ĠM ir
Ġsomew here
ĠK ey
Ġattack ed
ĠK ir
Ġdom ain
Ġstrong er
Ġ9 9
Ġpen alty
I d
Sc ript
Ġdecl ined
Ġne ck
Ġfra ud
Ġcur rency
Ġr ising
R C
âĢ¦ âĢ¦
H z
Ġt ab
Ġtal ent
n am
ĠN BA
Ġvill age
Ġleg s
ĠN ext
E d
Ġac id
Ġhy d
8 00
Ġinvol ving
ĠIm age
ĠBe fore
F l
Ġyes terday
S ource
Ġterror ist
Ġsu p
Ġsy nt
ĠSaud i
Ġw est
Ġr u
b urg
Ġvis ible
Ġstru ck
r ison
Ġaw esome
Ġd rawn
Ġansw ers
ĠG irl
ĠR am
Ġthreat s
Ġdef eat
os it
Ġv ent
atur ally
Americ an
end a
ĠH oly
Ġr um
% ,
c ase
ĠHist ory
ĠYou Tube
Ġsit uations
ĠD NA
S te
Ġsa ved
It em
Ġrec ip
olog ist
Ġfac ed
Ġel ig
O nce
ĠL i
u h
Ġmist ake
ĠDiv ision
ĠB ell
Ġsympt oms
Â ®
Ġdom in
Ġfall ing
Ġend ing
as hes
Ġmat ches
ĠOn line
Ġexplan ation
D ef
red it
Ġany more
ĠT otal
ĠF OR
us hed
Ġlet ters
Ġris ks
ĠO K
Ġreported ly
: \
Ġpl ate
Ġsubject s
Ġattempt ed
if ier
ian a
Ġunlike ly
ĠTh ough
um a
ĠIn vest
ĠPr in
ic an
ĠD ar
ĠColor ado
au g
Ġve get
a os
ri a
Ġshe l
Ġmark ed
Ġ( )
Ġsp r
p o
ĠL ink
Ġdef e
ĠJ r
Ġthem e
Ġpass ion
ĠP en
Ġinf o
iz er
Ġsh it
ĠC ivil
ap se
c re
Ġpo ly
Ġcomp onent
ĠChar les
ĠIre land
ĠPro v
Ġdo ctors
Ġgr anted
Ġpain t
Ġhon or
Ġsm oke
Ġpay ments
Ġprim arily
ĠKing dom
r ich
ate ll
Ġde als
Ġsched uled
Ġfund amental
Ġprote in
Ġnewsp aper
Ġcl ients
yth on
ĠD ate
h us
Ġfeed back
Ġstret ch
Ġc ock
Ġhot el
ĠQue en
Ġsu gar
Ġj u
Ġmil k
Ġappro val
ĠL ive
Ġequival ent
ef ully
Ġins ert
z ona
Ġext ension
d ri
J ohn
Ġacc omp
S m
ĠF und
Ġconst antly
Ġ` `
Ġgener ated
ĠA ction
ĠP sych
ĠT ri
Ġrecogn ize
Ġv ary
ph a
ĠR a
d f
et ch
ĠSov iet
Tw o
Ġpattern s
Ġprof ession
an ing
T ime
ĠL im
Ġcol ors
ĠA z
ĠT R
Ġinf ect
Ġphen omen
Ġshe ll
Al so
Ġput s
Ġdel ivery
Ġbro wn
Ġprocess ing
Ġlight s
ess age
ĠBro ok
ĠA ud
l ation
Ġindust rial
L ike
ĠB razil
rou s
ES S
ĠL uc
Ġsome how
Ġ8 5
Ġpro port
Ġpolit icians
Ġindic ate
Ġh ole
Ġtechn iques
Ġcompet itive
Ġph r
Ġv o
ist ent
ĠD ream
Ġcamp us
Ġaspect s
Ġhelp ful
Ġsh ield
or se
Ġtrig ger
m al
Ġ5 8
Ġt ort
Ġperson ally
Ġt ag
Ġkeep s
ĠV ideo
Ġben ch
Ġg ap
a ire
Ġe ast
Ġrec overy
per ial
Ġprof it
ĠM ic
Ġ5 7
Ġcol on
Ġstrong ly
st yle
Ġalleg ations
h an
Ġrep orters
j o
r ine
arg et
and al
Ġ0 3
Ġfl ash
tr ans
Ġstr ict
Ġpark ing
ĠPak istan
Ġl i
Ġwe ird
ĠE ric
Ġreg ions
ĠJ un
Ġint ellect
ĠW H
od ing
rib utes
up id
ĠT it
Ġf inger
or ia
Ġe lev
ĠF ield
Ġcon clusion
; ;
Ġfeel ings
Ġext ensive
Ġm ixed
Ġne uro
v y
Ġhar ass
ĠC irc
ou ch
Ġterrit ory
Ġsuccess fully
M ar
Ġing red
Ġoverw hel
Ġl ayer
V iew
Ġall ies
ill ance
ĠTh ree
Ġb unch
Ġnorm ally
Ġnet works
Ġsac r
ĠC IA
b les
Ġch ose
Ġopp onents
Ġregard less
Ġfr anch
Ġpre f
ĠP o
Ġbr idge
ann a
ĠSil ver
Ġw age
p age
ri or
Ġrad ical
ĠL ittle
Ġman ip
Ġsecret ary
Ġg ang
D R
F A
Ġdec ent
ĠSp irit
Ġun cle
ĠDevelop ment
Ġinvest ors
Ġwall s
Ġpub lish
Ġgener ate
iss ions
c ar
Ġprom ote
Ġcut ting
Ġche st
Ġdrink ing
Ġcollect ed
Ġ7 2
Ġhop ing
Ġem br
gor ith
Ġwar ned
Ġinstruct ions
O G
ĠD id
ĠAg ency
Ġg ear
Ġcritic ism
ĠF urther
Ġut il
ann y
R ed
Ġcoun sel
ĠAs ian
Ġredu ction
p ool
Ġteach ing
Ġdeep ly
i y
Ġestim ates
Ġcho ices
Ġperman ent
in em
ke l
Ġf asc
p se
f ile
ĠL ow
ĠP erson
Ġt ournament
st al
Ġm el
U ST
ĠR ay
az i
V al
Ġcont ained
ĠH olly
Ġw ake
Ġreve al
Ġprocess es
ĠIS IS
Ġ0 9
Ġbl ind
Ġste el
ĠB ad
Ġcare fully
app y
ro it
Ġg aming
Ġhous es
ĠC oll
Ġtr uck
er m
Ġsc ored
Ġocc as
ret urn
b ound
v ar
Ġsh arp
Ġaf raid
ĠE X
am ber
c ific
Ġsche me
N C
ĠPol it
Ġdecl ine
Ġ199 8
Ġpus hing
Ġposs ession
Ġpriv ile
Ġteacher s
Ġy ield
H A
ĠDav is
it led
#### ####
Ġr ig
ĠD aniel
ac on
Ġh ide
ut en
Ġcolle agues
Ġprin ciples
Ġl oud
Ġs in
ĠDem on
Ġst one
Ġ0 2
Ġt aught
Ġter rible
Ġst uck
ĠPol icy
te en
Ġimplement ation
ĠB BC
ĠAP I
Ġwhe el
all as
Ġch ampions
ol ars
play er
Ġrepeated ly
ĠSt ill
Ġlik es
ast y
es ter
ĠCath olic
R L
Ġb ath
Ġno ise
t itle
Ġn orthern
P art
Ġmag n
Ġf ab
ĠAs h
Ġdis pl
Ġtick et
Ġm urd
Ġalong side
ĠMus ic
Ġr iver
ĠSte el
ĠC L
ĠPl ayer
ĠM ult
ow ing
re p
s ize
Ġt ur
ĠGeorg ia
isc al
ra ction
Ġc able
Ġ5 9
Ġw ins
Ġup coming
Ġsurv ive
Ġins pired
ĠEduc ation
Ġstat istics
ĠF oot
iam i
Ġy ellow
ĠP age
. -
ĠH as
Ġur ban
Ġa x
es sel
\ "
Ġquarter back
Ġreg ister
ĠLab or
Ġab ilities
ĠF amily
Ġvar iable
ĠPr ice
Ġcont em
Ġth in
ĠE qu
d ata
Ġg otten
Ġconst it
Ġas ks
Ġt ail
Ġexc iting
ĠE ffect
ĠSp anish
Ġencour age
ins on
ĠA h
Ġcommit ment
C S
Ġr ally
Ġ: :
Ġsubs id
Ġsp in
Ġcapt ured
201 8
Ġinn oc
Ġalleged ly
ĠC ome
Ġart ists
ĠN umber
Ġelect ronic
Ġreg ional
ap es
Ġw ra
Ġmy th
pr ise
ĠM iller
ĠC reat
ĠEp isode
b ell
Ġdirect ed
Ġext ract
Ġs orry
Ġv ice
ag ger
ĠSu pport
Ġ6 6
ĠI ron
Ġwonder ful
Ġg ra
N et
ion e
E ng
Ġsh ips
ik es
ĠK evin
it ar
Ġactiv ists
tr ue
ĠAri zona
ent h
ĠDes pite
ĠS E
Ġha bit
ern el
Ġin qu
Ġab ortion
Ġv oid
Ġexpl icit
Ġeng aged
Ġang ry
Ġr ating
Ġfr ag
b ro
ick ing
d ev
Ġwor ried
Ġob ser
Ġap artment
ĠG T
Ġest ate
ĠConst itution
em on
ĠS now
Ġcount y
Ġdis ag
ĠStep hen
Ġimm igrants
w ind
ĠN ations
Ġfol ks
O ut
Ġg all
Ġtarget ed
Ġst ead
ĠB on
ĠL ib
Ġinform ed
Ġ12 0
ch ain
idel ines
or ough
Ġdri ven
Ġregular ly
Ġbas ket
Ġprinc iple
oc ument
Ġst un
ib ilities
ĠRom an
ĠAb out
Ġal ert
Ġdemocr acy
Ġrepresent ed
H S
c ers
p arent
Ar t
p ack
Ġdi plom
re ts
ĠN O
Ġcapt ure
ĠAd v
Ħ ¢
Ġannounce ment
ĠL ear
Ġh ook
Ġpur s
ĠS uch
ĠC amer
Ġrefuge es
ĠV e
P ol
Ġrecogn ized
l ib
Ġhad n
A ss
Ġpil ot
us hing
Ġreturn ing
Ġtra il
ĠSt one
Ġrout ine
Ġcour ts
Ġdes per
Ġfriend ly
ĠIt aly
Ġpl ed
Ġbreat h
Ġstud io
N S
Ġimp ressive
ĠAfghan istan
Ġf ing
Ġd ownt
ink ing
ĠR og
i ary
col or
se x
ar on
Ġf ault
ĠN ick
D own
ĠR ose
ĠS outhern
X X
is odes
L ist
6 00
Ġout come
er r
Ġelse where
Ġret ire
Ġp ounds
ĠGl obal
Pe ople
Ġcommun ications
Ġlo an
Ġrat io
ĠEm pire
Ġg onna
Ġinv ent
D F
Ġ19 70
ĠComm on
p at
Ġprom ised
Ġd inner
ĠH om
Ġcreat es
Ġoper ate
ver ty
ĠJ ordan
et ime
Ġsust ain
R eg
Ġincred ible
im a
Ġwar rant
Ġm m
A tt
Ġlaw suit
Ġreview s
it ure
ĠS ource
l ights
ĠF ord
Ġ6 3
g roup
st ore
Ġfeat ured
Ġfore ver
Ġpo verty
ĠP op
ĠC NN
az z
ab is
ach ing
Ġl aid
ĠSu pp
Ġfil ter
en a
ĠCommun ity
Ġcreat ures
u ction
ĠR oyal
Ġassoci ation
ĠCon nect
ĠBr ad
âĸ Ī
l ers
the re
ĠG i
Ġval uable
AC K
ĠT aylor
Ġl iquid
ĠAtt orney
ĠCar l
ĠF inal
ag a
ĠWil son
B ecause
ĠProf essor
ak a
Ġincred ibly
r ance
! )
R ef
s k
Ġsol utions
Ġatmosp here
Ġbl ame
um es
ĠN ob
C A
um ps
r ical
ĠPut in
ĠD est
or ic
ĠP A
Ġrespect ively
w an
Ġfif th
â Ħ¢
ĠC ry
Ġgovern or
res ident
Ġpurch ased
Ġh ack
Ġint ense
ob s
Ġorig in
Ġdef ine
Ġcare ful
** *
Ġshould er
Cl ick
Ġt ied
Ġdest ruction
ou red
Ġno body
Ġh o
ĠEx per
Ġt ip
" ;
Ġtechn ique
Ġj ur
ĠP ok
b ow
Ġleg end
Ġacc ord
Ġbus y
ĠInt el
Ġh ang
ak i
. ]
âĢĶâĢĶ âĢĶâĢĶ
Ġsur gery
Ġrep rodu
Ġun iform
Ġscen es
c ode
Ġ6 2
l isher
ĠH ave
ph ia
Ġcry pt
Ġrec on
Ġsc ream
Ġadop ted
Ġsc ores
N e
ĠIt alian
in cluding
B O
Ġindic ated
Ġent ertain
G u
T ext
i el
Ġtw enty
Ġeng age
off s
ĠPac ific
Ġsm ile
Ġperson nel
Ġto ler
Ġdo ors
Ġt one
Ġmach ines
Ġent ering
ten ance
C O
ĠJer sey
Ġfore st
Ġhor se
Ġcompl aint
ĠSpr ing
y o
ĠPl us
ed ing
ĠRet urn
qu arters
ial s
c ow
Ġacad emic
Ġf ruit
Ġ199 6
og ether
Ġw ine
Ġpur su
ĠSte ven
Ġlic ens
Wh o
Ġclot hes
re ction
Ġsqu ad
Ġst able
Ġr aw
z ens
St ar
ut ies
anc er
Ġke ys
ĠM u
Ġcompl icated
ig er
ĠTe xt
Ġabs or
Ġ6 8
Ġfun ny
Ġrel ief
ĠL ew
ĠC ook
Ġch art
Ġdraw ing
G E
Ġmod ule
ĠB ull
I LL
Ġs alt
0000 0000
il le
Ġres ource
aw ay
adel phia
ĠB ru
Ġ6 7
Ġsome body
Ġparticip ate
Ġro se
we red
Ġmus cle
Ġcons ent
Ġcontin uing
ĠGuard ian
ĠOr der
reg on
Ġre ar
Ġprov ision
Ġlik ed
ri ent
Ġb ra
Tr ans
Ġmeet ings
Ġto x
Ġcon vent
Ġaut o
Ġrec ording
ĠSo ft
00 1
ĠR oll
Ġprogram ming
Ġp ic
Ġprov ed
Ġst ab
ĠA st
Ġca ption
ul ating
ĠAtt ack
Ġnew ly
Ġ199 7
f r
Ġdis cipl
ĠGree k
Ġed ition
ĠDo es
ĠB ox
if le
ack et
Ġpass es
Ġgu est
Ġac celer
it als
U D
Ġaut hent
ĠR est
ov al
t a
u ine
Ġarm or
ĠT own
Ġcomp at
Ġinc hes
Des pite
Ġass ign
he rent
Ġprep are
ĠM eg
oc key
Ġdep ends
Ġtrack s
w atch
Ġl ists
ĠN orthern
Ġal ter
re c
ĠE astern
Ġcond em
Ġevery where
? '
Ġaff ili
Ġf ought
": {"
Ġm ac
it arian
Ġsc ope
ĠA L
aw s
ar ms
Ġqu e
Ġenjoy ed
nes ota
Ġagg ressive
ĠSt ory
ĠI V
Ġrec ipe
Ġrare ly
ĠMed ical
val ue
ang el
ay ing
omet hing
Ġsub section
Ġs outhern
Ġfrequ ency
re te
roll ed
ult s
ĠN ic
Ġbeh alf
Ġsequ ence
ab et
Ġcontrovers ial
Ġcomp rom
Ġwork er
Ġmain ly
Ġal gorith
ĠM ajor
or ce
g ender
Ġorgan ized
Ġf ake
Ġconclud ed
ĠE D
ĠEx ec
r age
Ġch ances
ber ry
ĠTr ad
Ġconfig uration
Ġwithd raw
Ġf ro
ud es
ĠBro ther
ĠB rian
Ġtri es
Ġsam ples
Ġb id
ĠGold en
Ġphot ograph
if est
ĠD O
ĠPar liament
******** ********
R em
Ġcont est
Ġsign ing
p x
ĠZ eal
âĶĢ âĶĢ
E ar
Ġex it
Be fore
ĠCor por
n ull